#version: 0.2
Ä ±
a r
a n
e r
Ã ¼
i n
Å Ł
Ä± n
Ġ b
e n
i r
i l
Ġ k
Ã §
a l
Ä Ł
Ġ y
Ġ d
Ġ s
a k
l ar
Ġ o
Ã ¶
Ġ v
Ġ g
e l
d a
Ġ t
e k
a s
Ġv e
e t
u n
a y
o n
Ä± r
d e
Ġ i
e s
l er
l a
Ġb ir
a t
i k
Ä± l
u r
Ġ A
Ġ B
e m
a m
i s
Ġo l
ÅŁ t
Ġ h
Ġ m
a d
u l
o r
e d
i y
Ã¼ n
Ġ Ã§
a ÅŁ
Ä±n da
i m
Ã¼ r
l e
Ġ S
Ġ 1
Ġ K
Ä± k
Ġ il
o l
Ġ M
a z
i t
d Ä±
a h
a p
e y
Ġ Ã¶
d an
l i
Ġ al
l an
d i
Ġ T
d u
Ġ p
e v
in de
Ä± ÅŁ
' d
Ġ "
a ÄŁ
Ġ f
l Ä±
Ġg Ã¶
i ÅŁ
y a
Ġ D
Ä °
s t
i z
in e
Ã¼ z
as Ä±
Ġ 2
Ġi Ã§
a b
â Ģ
in i
Ġ H
lar Ä±n
Ã¼ k
Ä± m
lar ak
lar Ä±
Ġ Ä°
Ġ (
u m
Ġ ÅŁ
Ġs on
d en
Ġd e
Ġ ar
Ġo larak
o k
es i
a f
Ġ G
Ġ E
Ã¼ m
t i
Ġ P
Ġt ar
Ġil e
Ġy Ä±l
u s
a v
Ã¼ l
Ä± s
Ġy ap
a Ã§
Ġb aÅŁ
er i
Ġ1 9
in in
Ä±n dan
d Ä±r
Ġb u
il m
Ġ r
ÅŁt ir
o m
c e
ler i
ĠiÃ§ in
Ä±n Ä±
Ġ C
m ak
âĢ Ļ
ÄŁ i
Ġ et
0 0
Ġ n
al ar
e z
Ġ F
Ġ O
Ã¶ n
Ġk ar
l ik
Ġ R
ĠgÃ¶ r
r a
Ġ u
Ġ an
ÅŁt Ä±r
o ÄŁ
Ġ Y
Ġ Ã
m a
Ä±n a
ÄŁ Ä±
Ġd a
d ir
e Ã§
ek t
is t
Ġ ed
u t
Ġol du
m Ä±
il er
ak i
o p
o s
Ġol an
Ġ L
l u
t Ä±
a c
Ġ z
e ÅŁ
m an
Ã¼ y
Ġg el
Ġ ay
Ġ N
el er
ĠÃ¶ n
i ÅŁtir
l en
Ġo r
Ġy er
k i
ĠB u
r u
ay a
c i
Ġb ul
Ä± z
ek i
ÄŁ u
Ġv er
t e
Ġi s
t a
Ä±n Ä±n
Ġtar af
Ġ en
c a
u ÅŁ
i b
mÄ± ÅŁtÄ±r
r o
Ġ ad
as Ä±nda
la m
Ġk ul
ah a
is i
t er
Ġson ra
i h
ar k
i p
e b
an Ä±
Ã¶ l
m asÄ±
ay Ä±
0 1
Ġtaraf Ä±ndan
an s
l Ä±k
Ġk ur
y on
Ã¶ r
Ġ c
Ġbul un
Ã¼ ÅŁ
y la
Ġkul lan
iy e
a da
al Ä±
Ġ in
i g
ĠyÄ±l Ä±nda
u k
c ak
il ir
in den
en i
Ġs Ã¼r
Ġb il
Ġ el
Ġk on
i c
l em
Ġd aha
un u
Ġil k
e h
ĠÃ§ Ä±k
Ã¼r k
e c
t ad
Ġk al
ĠA n
Å ŀ
Ġ Ã¼z
un da
n in
Ġd Ã¶n
la ÅŁ
k en
Ã¼ Ã§
u ÅŁt
' t
Ġg eÃ§
d aki
i ÄŁ
Ġk ad
ĠÃ¼z er
u z
Ġ V
il en
Ġol m
t an
ib i
Ġo y
Ã¶ y
Ġy ar
Ġg er
ed ir
Ġk en
n Ä±n
Ġ2 01
tad Ä±r
Ã¼y Ã¼k
il di
Ä±l an
o y
Ġ I
Ġ aÃ§
Ġb Ã¶l
uÅŁt ur
o t
Ġ J
Ġkar ÅŁ
iy le
Ġ Åŀ
er s
Ġis e
Ġo n
Ġ2 00
l et
Ġtar ih
ar t
ĠÃ§ ok
am an
Ġg ibi
Ġt op
ĠT Ã¼rk
Ã ¢
c Ä±
m Ä±ÅŁ
e de
ekt edir
la dÄ±
Ġy Ã¶n
Ġde ÄŁ
mak tadÄ±r
Ġy az
o v
Ġi ÅŁ
ay an
ĠA l
ed en
d eki
ey e
Ġy aÅŁ
Ġy ay
un un
s el
Ġs ah
ĠÃ ĩ
ler in
Ä±s Ä±
Ġ 3
Ġ W
Ġg Ã¼n
= "
Ġg en
c u
Ġt ek
d er
Ġd ev
Ġd oÄŁ
Ä±l dÄ±
Ġk at
Ġb Ã¼yÃ¼k
Ã¼ t
i f
ĠÃ§ al
Ġb el
er k
Ġet m
e ÄŁ
Ġ U
iy et
ĠA r
ĠÃ¶ z
il i
ĠÃ¶ l
ak Ä±m
Ġ at
d Ã¼
Ġk ay
ar ak
Ġkad ar
Ġs Ä±r
Ġb aÄŁ
Â ł
Ġv ar
Ġ es
e f
Ġz aman
Ġh al
m en
le ÅŁ
ad Ä±
m as
r Ä±
i v
m e
Ġy ak
es t
1 9
st er
Ġu y
ar Ä±
a de
ed i
ĠÃ§al Ä±ÅŁ
Ġ as
r e
Ġi ki
l Ã¼
av aÅŁ
e p
Ġar asÄ±nda
Ä±l Ä±
ru p
k in
ĠB ir
ĠkarÅŁ Ä±
n Ä±
ĠÃ ĸ
Ġp ar
Ġu z
r i
Ġy eni
Ġy Ã¼z
u p
m alar
lar da
h e
Ã¼ s
Ġd Ã¼ÅŁ
un a
m iÅŁtir
u y
lar a
Ġbir lik
aÄŁ Ä±
Ġor t
Ġy Ã¼k
o d
lar Ä±nda
ÄŁ r
Ã¶ z
Ġal an
ĠgÃ¶ ster
Ġd en
es inde
Ġt an
r an
Ġoldu ÄŁu
ĠÅŁ ek
larÄ±n Ä±
iÄŁ er
) ,
Ġp ro
Ġs aÄŁ
Ã¼ c
ĠdÃ¶n em
iy on
el i
Ġi st
Ġk az
u v
Ġg ir
s p
d Ã¼r
g i
n e
i Ã§
ĠgÃ¶r e
Ġ ak
Ä±n daki
er ek
i d
Ġve ya
im i
ler ini
as yon
el lik
Ġet ti
c en
m aya
Ġm aÃ§
Ġd ur
s an
Ġy an
y i
ig n
t r
li ÄŁi
in g
ĠbÃ¶l g
Ġt akÄ±m
m iÅŁ
Ġ ev
Ġ 4
Ã ®
o z
ĠA y
Ġd Ã¼z
el eri
Ġal t
Ġh er
Ġbel ir
Ġ ek
Ġ am
t Ä±r
c h
u h
Ġ1 8
cen ter
Ġal ign
m et
ÅŁt Ä±
az Ä±
Ġk ap
Ġ l
larÄ±n Ä±n
u b
Ġ |
ol o
Ġh ar
Ġs ay
ĠÃ¶n em
Ġ a
Ġken d
Ä± y
Ġd iÄŁer
ĠA v
Ġoldu ÄŁ
Ã§ ek
Ġsah ip
Ġbirlik te
m ektedir
ez on
Ġs eÃ§
es ine
at Ä±
ĠgÃ¶r ev
Ġkaz an
Ġ Ã¼r
Ġ Ã¼l
Ġal dÄ±
Ġk iÅŁ
h an
Ġ 5
lÄ± ÄŁÄ±
ĠÃ ľ
r am
Ġ âĢ
or du
Ġk ab
Ġk Ä±s
Ġn eden
o c
a g
Ġt am
Ġ19 9
le y
ÄŁ ini
r al
Ġt em
en in
Ġy ol
n a
b Ã¼m
Ġkur ul
ĠÄ° s
Ġf ilm
r ans
ey i
Ġh ak
ĠÄ° n
m ek
g il
ĠaÃ§ Ä±k
ĠÃ§ ek
or m
am p
Ġson u
Ġ Ã¼Ã§
Ġy a
y e
Ġm il
Ġyap tÄ±
al Ä±k
ler inin
rÄ± ca
ist an
ĠyÃ¶n et
Ġh ay
ik a
ÄŁ Ä±nÄ±
ist em
Ġb oy
Ġs ezon
o w
Ġd er
larÄ±n a
m i
Ġf ark
as t
d ur
ĠA m
e ce
Ġs er
Ä±l Ä±r
Ã¼n Ã¼
ĠO r
la b
s a
Ġuy g
Ġs an
Ã¼n ya
Ġed ilm
ĠÅŁek il
o b
sp an
Ġet k
ar a
k an
Ã¼ st
Ġ Z
Ġger Ã§ek
alar Ä±
k a
t en
ad an
Ġay nÄ±
Ġol uÅŁ
ĠÃ¼l k
et i
erk ez
ĠÃ¶nem li
in deki
ler de
ĠÅŁ eh
ĠÅŁ ark
Ġh em
y an
Ġyay Ä±n
la t
st an
Ġtarih inde
s ek
t ir
es ini
Ġdur um
Ġoy un
Ġgel en
ĠTÃ¼rk iye
ellik le
Ġs istem
Ã¼n de
olo j
m esi
ĠÃ¶ ÄŁr
Ġt aÅŁ
lu k
e g
Ġb as
le ÅŁtir
b ir
n un
ĠE r
Ġ eÄŁ
Ġoy n
lan dÄ±
et ir
Ġ 6
Ġ -
t ar
Ġger ek
ĠbaÅŁ ladÄ±
" ,
Ġo k
di ÄŁi
Ġt Ã¼r
ĠolduÄŁ unu
n de
Ġal bÃ¼m
Ġ az
eÅŁ it
en t
ler inde
ĠiÃ§ er
Ġs al
Ġs Ã¶y
Ġad Ä±
ler e
Ġk om
Ġg etir
b ol
ĠO s
Ġ aÄŁ
r ak
Ġi m
lar dan
il eri
Ġol uÅŁtur
Ġk Ã¶
Ġy et
Ã¼ ÅŁt
ar at
ĠÅŁekil de
us u
Ġad lÄ±
ĠiÃ§ inde
r af
s e
Ã§ ok
Ġd Ä±ÅŁ
Ġk or
ĠAl man
Ġan cak
ĠbÃ¶l Ã¼m
s i
Ġbulun an
ler ine
iv ers
Ġs u
el ik
Ġt Ã¼m
kin ci
Ã¼ p
ĠdÃ¼z en
o g
ĠÃ¶n ce
Ġ aÅŁ
o ÅŁ
t al
es inin
Ġs avaÅŁ
in al
u st
Ä±l mÄ±ÅŁtÄ±r
Ġm Ã¼z
ĠdeÄŁ iÅŁ
Ġdev am
ĠK ar
ĠÃ¼zer ine
oÄŁ u
Ġson r
Ġin san
t Ã¼r
âĢ Ŀ
ivers it
li ÄŁ
Ġ ada
d ar
Ġs Ã¶z
Ġyap Ä±lan
il ik
l ay
ĠÃ¼r et
Ġi z
Ġbil in
Ã§ a
b ul
Ġi k
Ġf az
s Ä±z
Ġb azÄ±
Ġt ut
ĠÃ¶ r
Ã§ e
ak at
la ma
Ä±l Ä±k
Ġ Ã¼st
as Ä±na
h ur
Ġas k
man lÄ±
Ġ19 8
len dir
ec ek
ĠE n
lan dÄ±r
Ġkab ul
ĠD ev
al an
Ġay r
Ġtam am
Ġ li
Ġ 7
ĠÃ§Ä±k ar
ĠyÃ¼k sek
v an
00 0
ilm iÅŁtir
ĠâĢ ľ
ok t
larÄ±n dan
stan bul
an t
Ġc ol
Ġ Ċ
d Ã¼l
Ġal Ä±n
ĠK on
Ġbir Ã§ok
ĠC h
ul u
Ġhar ek
c Ã¼
Ġm et
ĠÃ¼zer e
p or
Ġcol span
rup a
lÄ± ÄŁ
ĠR us
ĠgÃ¶ z
Ġg Ã¼Ã§
iy at
ĠbaÅŁ ar
ĠÃ§ ev
Ä±m Ä±
Ġm erkez
lan an
ol u
ac Ä±
ru b
Ġil g
Ġvar dÄ±r
ĠÄ°n gil
g e
p arat
Ġel e
ĠAm er
Ġ 8
Ġr es
Ġs or
parat or
Ġk it
Ġk an
n da
Ġol mak
Ġbir i
ler inden
Ġken di
y Ä±l
d Ä±ndan
Ã¼n e
ac ak
Ġ er
as ar
Ġ Ã¼y
uz ey
y al
ar d
Ġ1 0
ĠgeÃ§ ir
Ġkay n
Ġb en
ĠdoÄŁ ru
iy as
ÅŁt i
Ġfark lÄ±
ĠF rans
Ã¼Ã§ Ã¼k
Ġfaz la
ĠÄ° stanbul
s iyon
Ġg rup
Ġk ez
ar et
t ik
dÄ± ÄŁÄ±
Ġb in
ĠAv rupa
ĠOs manlÄ±
m eye
i a
Ä±l mÄ±ÅŁ
du ÄŁu
Ã¼ f
Ġg eri
um hur
ĠdÃ¼ÅŁ Ã¼n
ĠÄ° l
v et
ĠÃ¶n c
ĠS avaÅŁ
ĠÃ§ eÅŁit
ĠB aÅŁ
Ġdev let
Ġd ol
Ġb it
m uÅŁtur
Ġpar Ã§
y et
eb ilir
Ġz or
Ġd il
s al
z er
Ġ19 7
ab er
Ġi yi
k Ä±
ĠG en
Ġolm uÅŁtur
Ġort aya
ĠS on
lu ÄŁu
Ä±n Ä±r
en d
Ġi kinci
Ġd iz
Ġes ki
Ġor du
Ġ1 5
i de
ĠÃ¼zer inde
amp iyon
el en
Ġed en
ĠA k
t Ã¼
Ġs at
Ġh Ã¼k
ĠD Ã¼nya
ĠAn cak
y Ä±
un dan
r ar
ĠyÃ¼z yÄ±l
iler in
ade ce
Ġ 9
Ġis im
ĠE k
un ca
l ayan
Ġs ayÄ±
Ã¼ v
am a
Ġk es
ĠP ar
Ġt er
Ġed er
ĠÅŁark Ä±
Ġ eÅŁ
av a
n iversit
Ġo t
ĠR om
ÄŁ Ã¼
ĠM ar
ĠAy rÄ±ca
ĠG Ã¼n
ĠÃ¶ÄŁr en
Ġil iÅŁ
g an
ĠÃ¶z el
is inde
Ġuz un
lar la
Ġt ur
Ġar t
iy or
Ġgen el
Ġs Ä±
Ġsal dÄ±r
Ġd uy
Ġyap Ä±
dÄ± m
h t
Ġar dÄ±ndan
ĠbaÄŁ lÄ±
k et
Ġyak Ä±n
Ġyak laÅŁ
o f
ĠeÄŁ it
y l
u d
Ġ19 6
Ġkar ar
b er
Ġt ah
ler den
Ġh at
Ġ1 2
r en
ĠsÄ±r asÄ±nda
ul an
d Ä±k
Ġharek et
Ã¶y le
ĠgÃ¶r Ã¼l
s u
Ġy en
mas Ä±na
Ġ2 0
Ġ %
Ġg rub
oÄŁ un
Ġgel iÅŁ
lab ilir
am Ä±
Ġed ildi
r ik
ĠgÃ¶ n
ĠDev let
Ã »
ĠA B
Ġk Ã¼Ã§Ã¼k
Ġ19 4
Ġh az
ĠÃľ niversit
Ġk ol
Ġ1 6
ĠM art
at ik
mas Ä±nÄ±
ic h
Ġs adece
Ġm ad
Ã¼n Ã¼n
Ã ĸ
Ġd est
ĠsÃ¼r e
Ġs ev
Ġ em
Ġar k
Ä±l masÄ±
B u
s iz
Ã¼ÅŁt Ã¼r
Ġh Ä±z
ĠI I
r on
ĠM ay
a at
Ä±r ak
ĠS t
u la
ĠdeÄŁ er
as Ä±ndaki
Ã§ i
Ġar a
Ġp ol
an Ä±n
Ġboy unca
2 00
Ä± p
ĠÄ° m
as Ä±nÄ±
ab ilir
Ġk Ä±z
l edi
Ġ1 7
uv vet
i on
Ġs Ä±nÄ±r
ĠA s
Ġg it
Ġd Ã¶r
il l
ĠT em
ĠÃ§eÅŁit li
Ġdest ek
Ġtan Ä±m
g el
1 8
ĠgÃ¶r Ã¼n
Ġtek n
lar dÄ±r
ti b
as Ä±nÄ±n
is ini
r et
ĠÃ§alÄ±ÅŁ malar
Ġ Ã¼n
Ġt ab
Ġsan at
g ram
Ġb Ä±rak
adÄ± ÄŁÄ±
g Ä±
ĠdeÄŁ il
ĠK ur
Ġyeni den
Ä±s Ä±nda
Ã§ Ä±
2 01
oc uk
r os
ilm iÅŁ
on om
ĠH az
Ġr aÄŁ
Ġes er
Ġk Ã¶y
or t
Ġhay at
ĠC umhur
Ġgel iÅŁtir
ti f
ey en
l ak
ar asÄ±
is inin
al i
f er
ĠO y
un an
ĠraÄŁ men
k Ã¼
ĠB ey
ĠAB D
Ġt e
Ġ ede
asÄ± m
Ġhaz Ä±r
Ġzaman da
ir an
Ġkayn ak
m uÅŁ
in ci
ĠL ig
ĠH al
ĠÃ¶l dÃ¼r
m uz
2 0
Ġon un
Ġb ur
Ġo f
o st
g Ã¼n
) .
ĠMay Ä±s
l Ã¼k
Ġgen iÅŁ
ĠgÃ¶n der
Ġol ur
Ġyar dÄ±m
Ġtop l
Ġhak k
Ġyer ine
em e
Ġd ah
Ġs Ä±k
il e
Ġneden iyle
ĠK ral
n i
Ġol masÄ±
Ã¼l tÃ¼r
Ä±l Ä±m
Ġm uh
Ġi tib
m ayÄ±
ĠA t
Ġh af
Ã¼t Ã¼n
t on
Ġd Ã¼n
ĠÃ§ev r
Ġu Ã§
Ġt el
ut bol
s on
Ġtek rar
Ġilg ili
Ġf inal
o h
Ġ19 5
Ġhal k
b r
yl Ã¼l
ĠS an
Ġg ol
Ã¼m Ã¼z
Ġkay b
ĠÃľniversit esi
ĠSavaÅŁ Ä±
Ġ1 4
Ġask er
is ine
ĠyaÅŁ am
Ġalt Ä±nda
Ġbil g
Ġt es
iyet i
s il
ĠH ar
Ġb ak
l as
l us
ĠÄ°m parator
aÅŁ a
Ġr ol
e w
Ã¼n den
len en
Ġf orm
is an
Ã¼n cÃ¼
Ġbelir t
ĠÃ§Ä±k tÄ±
Ġoldu k
Ġm ev
t em
d di
Ġi f
Ġbulun maktadÄ±r
ĠÅŁeh ir
Ġu laÅŁ
Ġan laÅŁ
Ġara ÅŁtÄ±r
Ġs eb
es iyle
ĠB r
p er
Ġy as
ĠB unun
eler in
k anÄ±
ĠE ylÃ¼l
Ġ1 1
Ġ ci
d et
iz met
Ġpro gram
ov yet
Ġan lam
ul us
ĠB el
ĠÃĸ z
ik i
ÄŁu st
Ã¼v en
ĠeÄŁit im
Ġd ik
ĠEk im
ilm esi
de ÅŁ
ÄŁust os
la mÄ±ÅŁtÄ±r
ĠB ur
Ġ '
u g
ĠÃ¶l Ã¼m
Ġp lan
Ġkullan Ä±
Ġs av
ler le
Ġs en
Ġel ekt
ĠmÃ¼z ik
Ġh iÃ§
Ġg az
Ġyay Ä±m
Ġm ak
ĠÄ°ngil iz
es inden
ĠK asÄ±m
ĠbaÅŁ ka
Ġn Ã¼f
Ġ1 3
ĠO cak
k aÃ§
ĠyÃ¼k sel
Ġde ÄŁi
Ġk aÃ§
os yal
Ġo ÄŁ
Ġed ilen
Ġkar ak
ĠyaptÄ± ÄŁÄ±
ĠkiÅŁ i
Ã¼ b
eh ir
Ġb er
m ed
y o
iz m
ĠTem muz
s Ä±
Ġkad Ä±n
Ġol up
Ġ ce
ÄŁ Ä±nda
Ġ( "
ĠHaz iran
l in
" )
ĠiliÅŁ k
g u
Ġbil im
l im
ekt ir
Ġgel di
ĠK om
mÄ± ÅŁtÄ±
Ġd av
ĠA ÄŁustos
iy ordu
Ã ©
l o
Ġm od
Ġyar Ä±ÅŁ
ĠÃ§ ocuk
m Ã¼ÅŁtÃ¼r
Ġ19 3
ĠD aha
Ġuyg u
Ä±l m
ĠA b
Ġk r
Ġol ay
or d
ĠkÄ±s a
Ġel de
Ġd em
Ġk Ä±r
ĠA da
ĠÅŁ ir
it ik
ĠS h
Ġb ab
leÅŁ ik
Ġo la
ĠgerÃ§ek leÅŁtir
lar arasÄ±
g in
g Ä±n
ĠN isan
Ġd ir
Ġdah il
Ġm Ã¼
Ä± t
eÄŁ in
in d
Ġh izmet
lan mÄ±ÅŁtÄ±r
lu ÄŁ
ĠS ovyet
ub at
s er
la mak
ĠH an
Ġtop rak
ĠyaklaÅŁ Ä±k
Ġmil yon
Ġ ulus
c an
Ġs es
Ġd in
ekt e
iy an
Ġc an
ĠdeÄŁi ÅŁtir
la ÅŁtÄ±r
in a
us unda
Ġf or
Ġs il
Ġon u
al e
es el
Ġk im
Ġtem el
. "
Ġt asar
Ġver di
Ġk uvvet
lem e
ĠdÃ¶r t
ar i
Ġsonu Ã§
ĠT he
al t
ĠH er
Ġg i
Ġa it
en k
Ġam a
Ä±nÄ± f
Ġk av
Ġson unda
ĠT op
Ġm an
ĠK an
Ġs in
on ya
Ġkon u
ĠÃ§ alÄ±
Ġl ist
Ġoyun cu
Ġy Ã¼r
et im
Ġd al
ĠAr alÄ±k
Ġt ak
Ġber aber
ĠÄ°l k
ĠY ah
Ġar asÄ±ndaki
Ġden iz
Ġkon tr
Ġs iyas
ĠP aÅŁa
Ġm ah
Ġin ÅŁ
ĠB ak
Ġgel ir
' s
Ã¶ k
ĠÃ¶l Ã§
er j
d ik
ĠÄ° tal
Ġgir iÅŁ
if t
Ġbir kaÃ§
Ġp er
Ġay rÄ±ca
il ece
ĠM an
en iz
Ġm al
ĠsÄ±r ada
ĠseÃ§ im
Ġa il
Ġyer leÅŁ
ĠM uh
an an
in ce
. .
man Ä±n
ĠE l
ler dir
ĠP ro
ĠgÃ¶r Ã¼ÅŁ
Ã¼s Ã¼
Ġg iy
er al
ĠAmer ika
ĠÃ¶z ellikle
Ä±ÅŁ Ä±
ĠG al
ĠÅŀ ubat
ti v
an da
Ġan a
il im
Ã ĩ
Ġd aÄŁ
Ġm ez
ekt Ã¶r
Ġs un
anÄ± t
ĠaÄŁ Ä±r
Ġ19 2
b i
ad el
Ġk Ã¼ltÃ¼r
ilm ektedir
r y
Ġkom ut
c k
Ġm ey
Ä±l maktadÄ±r
Ġtop lam
ĠÃ¶r n
Ġb oÅŁ
Ġf utbol
Ġs Ä±nÄ±f
ĠÃ§Ä±k an
or um
Ġkon uÅŁ
Ġ un
Ġn e
m in
Ġg em
v er
Ġb Ã¼tÃ¼n
c el
ĠY unan
Ġhakk Ä±nda
t ay
ada ÅŁ
Ġuz ak
eler de
ĠoluÅŁ an
Ġkarak ter
Ġif ade
Ġk uÅŁ
ti ÄŁi
ĠM il
p r
Ġk il
ur g
im e
ur t
Ġb iÃ§
ĠÅŁ ey
ĠAlman ya
Ġkontr ol
b aÅŁ
ĠÃ¶ dÃ¼l
al l
Ġgen ellikle
o u
Ġb ey
Ġt he
Ġk uzey
ĠRom a
h a
ov a
Ġ ey
Ġek onom
len di
ĠÃ§ aÄŁ
ĠhÃ¼k Ã¼m
Ġh ast
ĠL e
ĠB Ã¼yÃ¼k
Ġkazan dÄ±
f a
Ġg Ã¼ven
ĠbaÄŁ Ä±m
ĠdeÄŁiÅŁ ik
Ġtem sil
Ġim z
Ġb un
ef er
m em
Ġkal an
aÄŁ Ä±nÄ±
Ġb eÅŁ
ĠAmer ik
ter n
ĠFrans Ä±z
is yon
ĠB Ã¶l
ĠÃ¶z ellik
il ecek
B ir
Ġdol ayÄ±
am ak
ĠB un
el l
t in
ĠU lus
g a
ĠdÃ¶nem de
Ġi ddi
ek li
iz e
Ġark adaÅŁ
19 9
Ġsonu cu
y um
an d
n ow
Ġkar deÅŁ
Ġb ar
ĠFrans a
s ik
ar en
Ġ av
g en
Ġm ik
Ġ erk
Ġsay Ä±sÄ±
ĠBir leÅŁik
Ġkullan Ä±lan
ĠbaÄŁ lan
Ã¶yle ce
ĠA f
ĠiÅŁ lem
m eler
Ġbir bir
Ġsahip tir
ul uk
Ġetm ek
1 0
ĠOr du
Ġd Ã¼nya
ĠÅŁ ampiyon
ley en
r im
k m
Ġf akat
ad olu
er t
Ġal Ä±r
Ġk oy
Ġkal dÄ±
la ÅŁtÄ±
Ġ" "
T he
Ġu ÄŁr
y dÄ±
f or
ĠP art
ĠdÃ¼n y
on d
ĠgÃ¼n ey
or e
u Ã§
a j
A n
oloj ik
Ġolm ayan
ĠÃ§ iz
Ġd ayan
ĠÃ§ Ã¶z
Ġin an
z Ä±
Ã¼c adel
ar lar
ĠI n
Ġele ÅŁtir
ĠdÄ±ÅŁ Ä±nda
Ġetm iÅŁtir
Ġen erj
ĠoÄŁ lu
Ġkat Ä±ldÄ±
Ġm es
h i
Ġbilin en
Ġy ok
ĠY ar
al et
Ä±y Ä±
Ġsil ah
Ġor anÄ±
Ä±lÄ± ÄŁÄ±
k at
Ġsav un
ĠK al
ĠyÃ¶net im
ĠBir liÄŁi
Ġhem en
ĠsÄ±r a
Ġgen Ã§
ter e
Ġad landÄ±r
oloj i
ĠRus ya
s k
Ġbulun ur
Ġkit ap
Ġm o
iler e
ĠA d
ĠÅŁek l
ĠK up
ĠyÄ±l larÄ±
ul tan
f i
Ã¼ ler
u di
Ġk ayÄ±
iÄŁ ini
ĠAy nÄ±
ar p
Ġitib aren
ĠdÃ¶nem inde
Ġb Ã¼y
amÄ± ÅŁtÄ±r
Ġsezon unda
s am
Ġp ek
Ġed ilir
Ġ201 1
i j
k ara
o la
Ġb ah
Ġed il
ar b
h er
ĠS el
ĠAn adolu
Ġtopl um
s uz
ĠK uzey
Ġs ar
Ġil Ã§
r ist
Ġc in
ĠÅŁir ket
Ġyar Ä±
ĠD oÄŁu
Ġf a
Ġam acÄ±
i ci
or k
in c
m ir
now iki
1 5
Ġal mÄ±ÅŁtÄ±r
Ġ201 0
iy i
lan Ä±r
Ġkit ab
ler iyle
Ġy oÄŁun
um lu
Ġay rÄ±
Ġuygu lam
d in
Ġver ilen
a w
Ġ2 5
ĠÅŀ ampiyon
ĠN ew
Ġm Ã¼cadel
oÄŁ lu
ĠbiÃ§ im
lan d
Ġerk ek
Ġy anÄ±
Ġok ul
is e
c ut
ok r
Ġyar at
alar Ä±n
Ã» met
Ġyap an
Ġgaz et
Ġ200 8
ÄŁ inde
os u
at ion
az i
Ġ X
Ġ200 9
Ġs aat
Ġy ine
Ä±s Ä±r
asyon u
ĠT r
Ġt rans
l Ã¼m
ed ik
Ġ3 0
Ġt ic
an k
Ġsu Ã§
Ġil er
ĠnÃ¼f us
ĠAv ust
oÄŁ raf
ay et
ĠGÃ¼n ey
Ġte or
s ki
ĠF akat
an a
ĠbaÄŁÄ±m sÄ±z
as Ä±ndan
alar Ä±nda
Ġor gan
Ġy at
eler inde
Ġh Ã¼c
malar Ä±
ĠsÃ¼r dÃ¼r
ĠyÃ¶n tem
r es
f es
iy di
Ġi ht
Ġ201 2
Ġk i
Ġyaz ar
ĠbaÅŁ kan
larÄ± yla
Ġn um
tÄ± ÄŁÄ±
m er
A l
an i
ĠÅŁeh r
ĠÃĸ dÃ¼l
Ġede b
ĠB iz
d iler
ĠsaldÄ±r Ä±
ĠÃĩ in
Ġkayb et
m Ã¼ÅŁ
u cu
b ay
Ġask eri
Ã¼l dÃ¼
ĠgÃ¼n Ã¼mÃ¼z
ĠinÅŁ a
Ġb oz
Ġb ek
t u
Ġ201 4
m esine
al n
Ġmod el
1 2
Ġn okt
ot or
Ġben zer
am i
Ġmey dan
Ġh av
iy a
Ġ j
ul du
q u
Ġs osyal
t esi
ĠA li
Ġd o
1 7
ĠÃĸ r
Ġsonu c
Ġ ,
lan mÄ±ÅŁ
ed er
iz ik
an g
ĠT ar
ĠO k
ĠdÃ¶n Ã¼ÅŁ
Ġp at
s en
der n
ĠÄ°ngil tere
v e
et r
ĠP ol
Ġon a
Ġken t
r om
ĠB er
Ä±ÅŁ Ä±k
aln Ä±z
ĠgeÃ§ en
ĠCumhur iyeti
t ur
ĠmaÃ§ ta
ĠÃ§ ift
Ġb unun
han gi
Ġk em
e j
Ġbulun duÄŁu
ĠM ah
l ek
T Ã¼rk
aki p
ĠD em
ÅŁt a
in t
uv ar
Ġi di
ar l
m az
ĠÄ°mparator luÄŁu
Ġmerkez i
Ġ200 7
Ġr om
Ġmil l
ĠK at
Ġtekn ik
Ġ201 3
Ġyay gÄ±n
oc k
Ġedilm iÅŁtir
1 4
Ġk ral
ĠÅŁ u
Ġmev cut
iy er
Ġay Ä±nda
Ġbulun du
ĠA h
ev iz
ĠKup asÄ±
Ġ201 5
Ã¼c Ã¼
ĠÃ§alÄ± ÅŁtÄ±
Ġ eki
Ġsonr aki
az ar
sp or
Ġy aÄŁ
Ġk am
ĠAn kara
ĠM ac
c Ä±sÄ±
ĠhiÃ§ bir
Ġt ep
ers iz
ir e
lÃ¼ ÄŁ
p e
ĠgÃ¶ Ã§
ĠT h
Ġkal dÄ±r
Ġuyg un
Ġdik kat
Ġh as
Ã¼n kÃ¼
ĠiÃ§er isinde
ĠH ol
en er
Ġd ok
t Ä±k
m esini
Ġpro j
Ġfa al
Ġisim li
n eÄŁin
g ar
es te
Ġpol itik
om b
ĠadÄ± yla
en s
Ġad Ä±nÄ±
eler inin
ĠyaÅŁ Ä±nda
m ez
li ÄŁini
ĠGen el
r is
ab an
" "
ĠtakÄ±m Ä±
it e
oh n
el s
s un
Ġyap Ä±m
1 6
m eyi
le v
ĠAr ap
Ġyan Ä±nda
Ġb eri
k Ä±n
ĠBiz ans
il li
asÄ± yla
ĠÄ° z
iler ini
u an
ĠD er
ĠG Ã¼r
ah at
Ġbil dir
Ġvar dÄ±
am Ä±ÅŁ
Ġp op
Ġkullan Ä±lÄ±r
Ġr ad
ĠaldÄ± ÄŁÄ±
l is
ĠM eh
ĠM Ã¼z
lÄ± ÄŁÄ±nÄ±
Ä±ldÄ± ÄŁÄ±
Ġk ut
for man
is k
ĠÃ§ oÄŁu
ĠPart isi
Ġi dar
Ġk as
Ġolduk Ã§a
Ġk Ã¼t
u c
ĠB ar
l k
mas Ä±nÄ±n
ĠÄ° span
Ġort ak
ĠsÄ± cak
Ġetk il
Ġtarih i
ade m
ÄŁ Ä±n
ĠÃ¼Ã§ Ã¼ncÃ¼
ĠyÄ±l dÄ±
ĠB atÄ±
Ġay ak
p h
ik Ã¢
Ġgi der
ĠY eni
ĠF ran
Ġher hangi
ĠS ultan
ĠÃ¶rn ek
ĠF ilm
ladÄ± ÄŁÄ±
ĠgeÃ§ ti
ĠsayÄ± da
Ġs oy
i ÅŁti
Ġd on
Ä±s Ä±nÄ±
t h
c ek
yan Ä±n
Ġetti ÄŁi
i ir
um u
ĠyÄ±l larda
or i
Ġs t
Ġt eh
Ġsistem i
eler ini
Ġhay van
tay dÄ±
ek iz
Ã¼m Ã¼
ĠAda y
Ã ľ
Ġil an
Ġt ip
ĠS er
Ġr enk
Ġam aÃ§
Ġo labilir
Ġk el
Ġfaal iyet
edi ÄŁi
m eni
Ġh Ã¢
ĠbaÅŁ arÄ±
ĠyÄ±l Ä±
Ä±sÄ± yla
Ġ200 6
Ġk eÅŁ
ev i
at Ã¶r
ĠiÅŁ g
iler ek
ĠPar ti
af a
5 0
Ġy alnÄ±z
Ġh an
" '
Ġkon usunda
á ĥ
la v
Ġr ek
Ġgir di
Ġkor um
dÄ±k tan
ĠdeÄŁil dir
la h
ĠbaÅŁ Ä±na
b ah
okt or
Ġt eÅŁ
uÅŁt u
ĠhÃ¼k Ã»met
o ur
ĠgÃ¼n Ã¼
1 3
len ir
Ġm ek
ĠbaÅŁar Ä±lÄ±
ĠJ ap
am asÄ±
Ġli g
Ġf ik
Ġhal ine
Ġh ede
Ġz iy
ĠbaÅŁ lar
ark Ä±
ab a
Ġg al
Ġet kin
ĠÃ¶ÄŁren c
k il
ĠgÃ¼Ã§ lÃ¼
ĠT ek
ĠÅŁekl inde
eler e
Ġsah n
Ġda ir
Ġyol u
Ġs em
Ġen gel
an lÄ±ÄŁÄ±
Ġn it
Ġd ak
lem ek
t Ã¶r
ĠS ur
Ġs efer
ra il
Ġbur ada
alar da
ĠalbÃ¼m Ã¼
n ik
Ġce z
ĠT an
ĠgerÃ§ek leÅŁ
ic k
Ġuyg ulan
Ġ201 6
ĠD eniz
e ÄŁi
ĠM Ä±sÄ±r
ac k
Ġ1 00
ĠyaÅŁ ayan
v ar
ĠB ul
Ġan lat
lar dÄ±
Ġyer el
Ġp art
Ġtar t
Ä±s Ä±na
s in
Ġan n
g Ã¼t
Ġh ava
Ġden ey
mak ta
Ġsor un
Ġp iyas
ĠÃ¼n lÃ¼
Ġola cak
Ġver ir
y or
Ġan la
adÄ± ÄŁÄ±nÄ±
Ġper forman
ÄŁ a
lan da
ĠM a
Ġm at
il iÄŁ
ĠÃ§ arp
eviz yon
r ek
len miÅŁtir
Ġs ab
19 8
c o
ĠÄ°tal ya
Ġiz in
ken in
ĠB ay
Ä±y or
Ġbil e
Ġsonuc unda
Ġal tÄ±
Ġtur n
Ġk o
Ġo per
ĠÃ¼r Ã¼n
Ġ2 4
as a
ĠAn d
ĠÃ§ oÄŁun
ĠÃ§ at
Ġzor unda
un d
Ġtart Ä±ÅŁ
Ġv ur
is s
ĠÃ¼y esi
iler ine
Ġim parator
Ġ w
ĠJ ohn
Ġada m
ĠR e
ed eki
ĠE ÄŁ
en di
Ġs ol
Ġben z
iÅŁ im
ĠO n
ĠM erkez
ans Ä±
Ġform ula
Ġy Ä±k
Ġb at
ĠK Ä±z
masÄ± yla
ili ÄŁi
Ġulus lararasÄ±
ĠyÄ±ldÄ± z
Ä±s Ä±ndan
or n
A r
ĠyÄ±l lÄ±k
m adan
ĠkayÄ± t
ĠdÃ¼ÅŁ Ã¼k
Ã¼s lÃ¼m
Ġyaz Ä±
as al
Ġf Ä±r
im leri
ĠÃ§ ap
m ay
Ġy orum
F A
Ġt al
Ġseb ep
Ä±r Ä±
Ġhaf ta
d Ã¼k
Ġil et
Ġg ez
Ã¢ n
lan gÄ±
Ġk oÅŁ
ĠK o
ildi ÄŁi
b o
Ġm otor
Ġkurul uÅŁ
er li
ĠP r
is ay
r ika
dÃ¼ ÄŁÃ¼
an ya
t iler
ĠOr ta
it ler
Ġat eÅŁ
ĠÄ°s lam
ta j
Ġada y
ad Ä±k
h am
Ġar aÃ§
Ġh es
b est
t Ä±n
on e
is esi
ĠÃ¶ÄŁr et
ar eb
em en
Ġad et
et h
Ġz ar
Ġseb eb
ĠkarÅŁÄ± laÅŁ
Ġnum ar
an lar
ĠbaÅŁ Ä±nda
Ġmeydan a
iler inin
Ġm aÄŁ
Ġs ey
cÄ± lar
Ġsah ibi
ĠM al
l y
ĠyÃ¼zyÄ±l da
Ġg iz
ĠÃ¼lk e
Ġor ta
ĠmaÃ§ Ä±nda
Ġed erek
em i
ĠÄ°s v
Ġp ay
ĠparÃ§ asÄ±
Ġr ed
n den
ad aki
Ġkurul an
ĠÃ¶nc eki
ĠbaÅŁ lam
ĠD av
Ġmill Ã®
Ġtamam en
Ġ200 5
ĠE v
Ġgrub u
ir i
Ġtan Ä±n
ĠyÄ±l larÄ±nda
Ã¼y le
Ġ .
ĠbaÅŁ layan
3 0
ide o
Ġiddi a
ĠÃ¶z g
Ġder g
g r
ĠS al
ĠT ur
Ġist em
Ġs ak
Ġ2 2
Ġat an
mi ÅŁti
ĠS ar
ed iye
i o
Ġm er
eler ine
t o
Ġbit ir
Ġhede f
ĠaraÅŁtÄ±r ma
1 1
ĠS p
ĠbaÅŁ lat
Ã¼ dÃ¼r
ĠB en
Ġf il
ĠS am
Ġli der
mas Ä±ndan
ĠamacÄ± yla
da m
Ġf ot
k Ã¼n
ĠsÃ¶y ledi
Ġsonr asÄ±nda
k ar
ĠÃ¼ret im
y alÄ±
ĠÄ° ÅŁ
Ġver en
ist ik
Ġil eri
I I
Ġtrans fer
h ar
Ä° n
Ġres mi
Ã¼ le
Ġkon um
Ġtop lan
Ġkend isine
ĠÃ§alÄ±ÅŁ an
uk uk
i ÄŁi
Ã¼p er
ilm ek
st r
ĠK Ä±r
o cu
Ġboy ut
Ġgelen ek
ĠaÅŁ aÄŁÄ±
Ġkav ram
Ã¼ÅŁt Ã¼
Ã¼l en
ĠB as
Ġfilm i
t aÅŁ
Ġn es
ĠtaÅŁ Ä±n
Ġneden le
N A
alar Ä±nÄ±
Ġf izik
Ä±n ca
Ġsiyas i
i e
ĠSon uÃ§
ĠÅŁ iir
Ġy okt
ĠS ch
ĠAmerik an
ĠÃ¶n er
Ġuy ar
Ġyap mÄ±ÅŁtÄ±r
Ġ2 3
Ġ 0
Ġort al
mak taydÄ±
ey di
f f
Ġbab asÄ±
Ġh aber
ĠgÃ¶z lem
Ġ2 1
l or
Ġ [
Ġm ut
lÃ¼ ÄŁÃ¼
orm al
Ġs por
Ġb az
Ä±n tÄ±
Ġbil gi
zer bay
on g
ĠdÃ¶n dÃ¼
Ġan d
ĠM ad
j en
Ġd ers
Ġetm ektedir
Ġor an
at if
Ġpro fes
Ġf on
an n
Ġver ildi
zerbay can
alÄ± dÄ±r
ĠB al
ĠLig i
ĠÃ¼n iversit
b urg
Ġk amp
Ġm im
Ä±s Ä±nÄ±n
ĠyÃ¼r Ã¼t
Ġkol ay
ĠbaÅŁ lamÄ±ÅŁtÄ±r
Ġdav ran
Ġh ey
a i
Ġsev iy
Ġtek li
Ġyan i
Ġiht iy
l ayÄ±
Ġh ikÃ¢
ĠÃ¼zer inden
ĠÄ°s rail
ĠB il
ÄŁ unu
Ġolm asÄ±na
m eden
ĠkÄ±s m
f orm
ĠH as
els ef
ĠK ad
ĠE m
y u
da v
Ġedilm iÅŁ
et ik
Ġp uan
b ak
l isi
ac aÄŁÄ±
Ġal anÄ±
ĠK ul
ĠÄ° ran
ĠF il
ĠM Ã¼slÃ¼m
ĠkÄ±s mÄ±
Ä±r lar
Ġordu su
Ġetm iÅŁ
ren s
Ġb unu
it h
ĠaÃ§ Ä±
ĠB una
l ilik
Ġy em
Ġ200 4
Ã¢ r
Ġsanat Ã§Ä±
lÄ±ÄŁ Ä±na
k el
e or
rist iyan
dÄ±k larÄ±
ĠiÅŁg al
Ġkullan Ä±m
Ġver diÄŁi
ĠbaÅŁ kanÄ±
it esi
y en
ac a
ek s
d ak
Ä±y ordu
ĠM Ãĸ
Ġ19 0
ĠY ork
lay arak
ĠPar is
ĠM us
Ġm em
Ġm Ã¼m
Ġolm uÅŁ
Ġekonom ik
Ġel em
de s
Ġol sa
a ir
ĠdoÄŁ al
ĠYah ud
Ġk ir
Ġ200 0
Ġo lab
l ed
Ġi h
Ġal maktadÄ±r
Ġh ap
Ã ¡
alar Ä±nÄ±n
Ġ2 8
ĠmaÃ§ Ä±
n er
ĠdeÄŁer lendir
Ġkur du
Ġser best
Ġkur um
ĠK r
ĠdoÄŁ r
ĠkarÅŁ Ä±sÄ±nda
ĠÃĸr neÄŁin
ĠC ar
Ġbilg isay
Ġde fa
Ġ Q
ĠkardeÅŁ i
leÅŁ me
ĠiÃ§er en
A y
ĠyÄ±l Ä±na
ak Ã¼l
Ġalt Ä±n
ĠB ab
Ġson a
ar ÅŁ
Ġ2 7
Ġhal e
Ġtel evizyon
Ġkar iyer
Ġfor ma
Ã¼z el
Ġmo dern
ĠmÃ¼m kÃ¼n
ĠyalnÄ±z ca
Ġk Ä±
la cak
Ġ2 6
Ġart Ä±k
im ler
Ġkat Ä±l
Ġkon ser
ĠhÄ±z lÄ±
n dan
ĠyÄ±l Ä±ndan
ĠâĢ ĵ
Ġordu s
Ġder ece
Ġyap Ä±ldÄ±
ĠS u
il ebilir
âĢ ĵ
es indeki
ac aÄŁÄ±nÄ±
ĠE d
ar s
Ġenerj i
< /
Ð °
k e
Ġdev r
ĠTop lam
Ġar ac
Ġy Ã¶r
eh ri
ĠM ust
ilece ÄŁi
ĠH am
ĠmÃ¼cadel e
ok s
ĠH ay
ma da
Ġ201 7
et er
ĠM on
ĠAf rika
aban cÄ±
g esi
ĠÃ¶r gÃ¼t
lan masÄ±
Ä±s Ä±z
h end
Ġis m
19 7
v ek
Ġelekt rik
en n
alar Ä±na
Ġkel im
h az
liÄŁ inde
Ġt akip
ĠkÃ¶ tÃ¼
ĠÃ§at Ä±ÅŁ
Ġ eÅŁit
f ik
Ġsay esinde
K at
ĠK az
on u
en gin
iyat ro
Ġziy aret
y ordu
es tiv
Ã¼k sek
Ġuz ay
ĠOy un
at t
uy ordu
in o
m asÄ±nda
ĠB eÅŁ
Ġmil let
ĠÃ§ ocu
Ġs p
k em
ĠbaÅŁ ken
s h
Ġkend ini
b u
ĠK Ã¼r
Ġ le
Ġoyun c
Ġt anÄ±
iz i
Ġk Ä±y
ĠE f
ĠYah udi
ĠA p
ĠsÃ¶y ler
le ÅŁti
ĠoluÅŁ ur
len miÅŁ
Ġyet en
Ġis mi
ĠR ob
ac h
ow s
ĠH ristiyan
em al
ĠÃ§ Ã¼nkÃ¼
ĠD iÄŁer
ĠkarÅŁ Ä±lÄ±k
Ã¶ v
Ã¼l Ã¼
Ġb akÄ±m
ĠGal at
Ġ /
Ġanlam Ä±na
Ġb es
E n
ĠAl bÃ¼m
6 0
ĠiÅŁ let
Ġb atÄ±
de m
ĠyardÄ±m cÄ±
Ġp r
d Ä±n
ĠB Ã¶ylece
e in
ĠSan at
Ġmik tar
Ä± cÄ±
Ġd aÄŁÄ±
ed iy
Ġduy ur
ĠE ur
t laÅŁ
Ġhes ap
asar ay
y asÄ±
ĠA zerbaycan
ĠÃ¶l dÃ¼
ĠÃ¼l kenin
ĠÃ¶lÃ§ Ã¼
Ġkes in
Ġdol ay
o od
it al
ĠB azÄ±
y ol
Ã¶ m
ĠBaÅŁ kan
ur ya
Ġin cel
Ġdurum da
siyon u
Ġv at
ĠM ich
ĠS Ä±r
Ġk ah
ĠdÃ¼zen lenen
b e
m Ã®
Ġmal z
Ġpiyas aya
arÄ± yla
ĠbaÅŁ langÄ±
Ġde p
ĠyÄ±l Ä±nÄ±n
Ġan da
Ġd iye
ĠU z
ark en
u e
ĠÄ° Ã§
ĠhÃ¼c r
Ġkat kÄ±
m esiyle
ĠU n
en c
ĠsÃ¼r ekli
ĠseÃ§ ildi
Ġperforman s
as Ä±l
ĠdoÄŁ u
r ay
Ġmek an
Ġbir inci
ĠdeÄŁiÅŁik lik
Ġkan al
Ġkat Ä±
ul t
g er
Ġi ken
ĠD an
ĠyayÄ±n landÄ±
op ol
Ġkap sam
ĠUlus al
st it
ekt en
un daki
ĠP er
ĠyÃ¶n elik
Ġs tan
Ġn er
Ġal arak
ĠyÃ¼z ey
] ]
alar a
ĠDevlet i
Ġ5 0
Ġyap mak
ĠMust afa
Ġ akÄ±m
et in
ĠP h
ĠdÃ¼z ey
Ã§ uk
ĠÅŁ id
ĠkÄ±z Ä±
ĠkuÅŁ at
ĠaÃ§Ä±k ladÄ±
Ġv eri
Ġturn uv
Ġp oz
ĠM o
es s
Ġdiz i
ĠMÃ¼slÃ¼m an
ĠC o
Ġ18 9
ĠS a
Ġalt Ä±na
Ġkon usu
ĠB o
ĠÃĸdÃ¼l Ã¼
ĠY Ä±l
Ġf elsef
Ġbu gÃ¼n
Ġkur tar
G eÃ§
ĠÃ§ev ir
Ġ Ð
ĠHal k
Ġ201 8
Ġte dav
Ġ2 9
ind ows
Ġdon an
ĠÃ¼zer indeki
ĠDevlet leri
ĠK ay
ĠN e
ĠÄ° yi
an lÄ±k
ĠF er
ĠL ond
Ġtasar Ä±m
iÅŁ i
ti ÄŁini
las ik
Ġaz al
Ġ eg
m ekte
og raf
Ġk op
p it
ÄŁ Ä±na
ĠyÃ¼zyÄ±l Ä±n
y ken
Ġsonr asÄ±
Ġbir ey
Ġelekt ron
Ġr ap
Ġhal inde
ĠsÃ¶y lem
lam asÄ±
Ä±r ken
m eyen
Ġad Ä±na
ĠÃ§alÄ±ÅŁmalar Ä±
Ġtic aret
ar y
Ġv ideo
ĠalÄ±n dÄ±
Ġsezon u
Ġt anÄ±t
ĠsÃ¼r eÃ§
ĠM ec
ĠD on
Ġ200 3
et e
ĠSur iye
b a
de d
iy el
ing le
ĠuÃ§ ak
Ġz engin
an lÄ±
Ġtut uk
ak a
Ġey alet
ĠV en
larÄ±n daki
ĠyerleÅŁ im
ĠÅŀ arkÄ±
t or
Ġay Ä±r
Ġr e
Ġkullan arak
ĠkeÅŁ f
ĠbÃ¶lÃ¼m Ã¼
d art
it y
Ġm ed
Ġbil eÅŁ
ĠdÃ¼n yanÄ±n
Ġl is
Ġyan a
Ġt Ã¼k
eler inden
s ay
c Ä±lÄ±k
Ġoyn adÄ±
hend is
en g
ĠgÃ¶ster ir
ĠkÃ¶ ken
l Ä±lÄ±k
Ġt erk
ad Ä±r
Ġt av
ĠG er
Ġkend isini
ay Ä±n
ĠT er
l Ä±nda
Ġ199 0
ĠÄ°tal yan
Ġcan landÄ±r
Ġbas Ä±n
Ġyer leÅŁtir
Ġi p
ig ht
t aki
2 5
Ġfon k
ĠKral lÄ±k
ĠUlus lararasÄ±
Ġyokt ur
ĠGalat asaray
iy ah
ĠBr it
ekt eydi
Ġtar Ä±m
Ġcan lÄ±
ĠA z
Ġbilgisay ar
r ed
Ġb a
lÄ±k la
ĠV al
ĠSovyet ler
Ġfutbol cu
Ġr uh
ĠBaÅŁ kanÄ±
ĠT Ã¼m
Ġkend isi
) "
av i
Ġbah s
ĠÅŁeh ri
Ġimz al
ĠP a
Ġt a
er e
ĠR um
k o
Ġsat Ä±ÅŁ
y ar
ru z
Ġ200 2
Ġkurul du
aÃ§ lÄ±
ĠM or
ĠB e
Ġhak im
Ġsin em
Ġh ep
ĠÄ° kinci
ĠM ak
Ġder ec
Ġb ay
ĠÃ¶n e
Ġg Ã¼c
ĠD r
Ġyaz dÄ±
Ã¶r en
ep h
olo g
Ġsat Ä±n
Ġrom an
Ġdem ir
Ġin dir
mÄ± zÄ±
Ġas Ä±l
ĠyÃ¼z den
ĠÅŁid det
um a
Ġyap Ä±lmÄ±ÅŁtÄ±r
Ġat tÄ±
ĠMeh met
ra da
Ġan al
ĠhikÃ¢ y
ĠÃĸ n
Ġyen il
Ġbelir li
Ġet raf
ĠAs ya
et te
y se
Ġ201 9
ĠK ol
Ġr ast
Ġbiri dir
Ġtah min
Ġt as
Ġs im
im ini
Ġbey az
Ġet tir
ilece ÄŁini
ĠÃ§alÄ±ÅŁ ma
lÄ±ÄŁ a
Ġpar a
ĠKÄ±z Ä±l
r ol
Ġb Ã¶ylece
g o
tÃ¼ d
ĠK il
on s
h al
ener bah
Ġd este
ĠD e
man Ä±
Ġetk ili
Ġd iy
ĠbÃ¶lg e
Ġbel g
Ġmad de
Ġot ur
Ġn asÄ±l
Ġort am
is inden
ĠsaÄŁ lar
ĠH at
ĠyÃ¶net men
Ã§ iler
Ã¼n ist
erk es
ĠN or
om p
un g
Ġden k
ĠtaÅŁ Ä±m
Ġci var
a u
ĠA ma
ĠkiÅŁ inin
Ġk anÄ±t
ĠD oÄŁ
Ġkur t
Ġter ci
em atik
Ġ la
Ġs oÄŁ
uy u
ĠÃ§Ä±k Ä±ÅŁ
b ilir
i us
m eleri
Ġm ec
c isi
Ġd el
Ġ Ä±ÅŁÄ±k
Ġkom p
al tÄ±
ur u
ĠAvust urya
4 0
anda ÅŁ
ĠK Ä±
Ġk Ã¼r
eler den
Ġb iy
ĠY Ã¼ksek
Ġb una
ĠP ort
yon el
Ġy abancÄ±
Ġkul Ã¼p
Ġetm eye
uk arÄ±
Ġedilm ektedir
Ġetk isi
iz asyon
Ġpop Ã¼ler
ĠkoÅŁ ul
ĠÄ°span ya
Ġn ormal
Ġs ok
eh r
ĠS in
ĠM ur
Ġi y
ĠbÃ¶lg ede
ĠBunun la
il ya
enerbah Ã§e
Ġl im
ĠsÃ¼r en
liÄŁ ine
Ġulus al
Ġfot oÄŁraf
is el
Ġpro t
Ġkul Ã¼b
ne ÄŁi
ĠyayÄ±n lanan
ĠdoÄŁ du
ĠSonuÃ§ lar
ĠdoÄŁru dan
dik ten
Ġkullan Ä±l
Ġo da
ĠLond ra
k eti
Ä±y an
ar e
Ġner ede
liÄŁ e
Ġey lem
t eki
ec ektir
ĠÃ¶lÃ§Ã¼ de
Ġmet re
Ġy um
ĠW indows
Ġ18 7
S C
Ġgerek li
d oÄŁ
ÄŁ ine
ĠgÃ¼nÃ¼mÃ¼z de
Ä±ÅŁ Ä±n
acak tÄ±r
d Ã¼ncÃ¼
am es
2 1
ĠdÃ¼ny aya
tad an
ĠM er
Ġkap at
ĠgÃ¶ tÃ¼r
ĠaÃ§ Ä±sÄ±ndan
Ġpar ti
em in
Ã¼n deki
Ġn ok
s im
amak tadÄ±r
Ġtar z
Ġgel miÅŁtir
Ġder in
Ġterci h
GeÃ§ ersiz
Ġkat Ä±lÄ±m
ĠGen Ã§
Ġs it
ĠBur ada
Ġ200 1
i an
han e
Ġhayat Ä±nÄ±
Ġs ap
ĠiÃ§er ir
Ġitib arÄ±yla
ĠY Ã¶n
Ġyar ar
v at
luk la
ĠCumhur iyet
ĠC ol
Ġetk ilen
ĠarkadaÅŁ Ä±
el t
ek ler
Ġci haz
Ġmez un
Ġ ah
Ġy avaÅŁ
Ġi t
Ġ e
er a
Ġm ekt
Ġar asÄ±
y n
ĠgÃ¶ster en
Ġ18 8
am az
ĠG o
Ġt est
Ġtes pit
or u
Ġdir en
c iler
ĠAmerik alÄ±
ĠÅŀ ah
c aÄŁÄ±
ĠK uvvet
Ġb omb
Ġk Ä±yÄ±
Ġyap Ä±mÄ±
ĠG az
ĠH ak
ĠgeÃ§ miÅŁ
Ġs ingle
Ġkor k
m al
Ġd ek
Ġ4 0
ĠÄ° ki
am med
Ġbir leÅŁ
Ġak s
Ġ198 0
ĠII I
Ġhast alÄ±k
illi am
Ġmillet vek
os k
Ä° lk
ulu ÄŁu
ĠBul gar
Ġoyn anan
len mesi
ar lÄ±k
ĠM ill
ĠkÄ±s Ä±m
ĠiÃ§ ine
ĠgÃ¶r dÃ¼
ĠkiÅŁ ilik
Ġes n
as h
Ġses lendir
Ġyaz dÄ±ÄŁÄ±
l Ã¢
im iz
Ġvat andaÅŁ
Ġh ukuk
ĠgeÃ§ er
Ġgelenek sel
ĠÃľ Ã§
Ġis yan
uy or
ĠG ir
Ġdir ektÃ¶r
Ġk li
Ä±m Ä±z
ĠK ap
ĠB at
ĠdÃ¼ÅŁÃ¼n c
ĠgÃ¶rÃ¼l Ã¼r
ĠF akÃ¼l
ĠiÅŁ aret
Ġgrub un
k er
ĠK or
z a
Ġd oktor
ĠS te
ĠdÃ¼ÅŁÃ¼n Ã¼l
. )
ĠaÅŁ am
Ġkap s
ĠkullanÄ± cÄ±
Ġayr Ä±ldÄ±
Ġbilin ir
us al
Ġalan Ä±nda
ĠdaÄŁÄ± t
ĠS osyal
Ġsab it
lÄ±k lÄ±
ĠTar ih
ĠÃĩ aÄŁ
da ÅŁ
b lem
Ġot om
Ġgiz li
ĠÃ¶ y
Ġbir leÅŁtir
Ġzar ar
Ġkur al
ĠBak anlÄ±ÄŁÄ±
Ġmet al
Ġor man
ay i
ĠY ak
en a
ĠH e
tern et
Ġk af
Ġyas ak
ĠT el
ĠK it
Ġkor un
ĠgÃ¶rev i
Ġp sik
Ġf ir
ul ur
ĠL at
Ġal mak
ĠbÃ¶lÃ¼m Ã¼nde
ĠÄ°z mir
ĠKon s
Ġolm adÄ±ÄŁÄ±
TÃ¼rk iye
Ã¼m e
yet ik
Ġak tar
on a
ĠÃ¶zg Ã¼r
ĠOrdu su
19 6
ĠT im
m adÄ±
d al
n u
ri d
Ġt r
ĠgeÃ§ir di
ĠMil let
aÄŁ a
Ġbel li
Ġ ef
iv il
ĠY ap
Ġd Ã¼
Ġdurum u
eb i
Ġtarih li
Ġs ekiz
Ġeki p
ayÄ± f
Ġhat ta
Ġon larÄ±
ĠtaÅŁ Ä±yan
Ġgit ti
Ġm in
ĠkÃ¶ k
Ġm as
Ġ199 9
Ġver miÅŁtir
ĠA ra
ĠMac ar
ĠÃ§ oÄŁ
of t
Ġs tÃ¼d
ĠS o
Ġv ak
ĠK u
ĠS il
Ã¼mÃ¼z de
ler ce
Ġk um
ac Ä±k
ĠAvust ral
h o
eÅŁ il
Ġk alÄ±
ĠS en
Ã¼k le
mÄ±ÅŁ lardÄ±r
ĠÄ°ngiliz ce
Ġoy unu
ĠA ÅŁ
ĠF enerbahÃ§e
Ġdak ik
Ġh am
alÄ± ÄŁÄ±
lÄ±ÄŁ Ä±n
Ġtes lim
ey n
Ġr ahat
men in
ÄŁ Ä±ndan
ob il
r az
z on
ĠM as
ĠiÃ§in deki
g un
dik leri
ĠoluÅŁtur ur
ĠbiÃ§im de
i er
es ter
Ġstan dart
Ġolm adÄ±ÄŁÄ±nÄ±
ber g
Ġde f
of f
Ġfik ir
ĠB aÄŁ
ĠTr ab
em iÅŁtir
ĠOr t
Ġad Ä±nda
ĠC an
Ġg ece
Ġyer ini
Ġd uvar
Ġar ada
Ġf ak
Ġt at
z e
ĠG eor
ek siyon
Ġedeb iyat
ik taÅŁ
ĠS e
ers on
br Ä±s
.. .
ÅŁt e
iv e
ĠsaÄŁ layan
b on
ledi ÄŁi
ĠB ro
Ġres im
" ),
S on
Ã§ ev
tr at
ĠG u
ind istan
is iyle
ĠÃ§ ab
ĠK Ã¶y
ĠE ski
ol ik
ĠD i
om et
ĠK emal
Ã§ ak
Ġhal a
ĠG rub
ĠsaÄŁ ladÄ±
ĠI rak
ĠG r
ĠH av
Ã¢ h
b in
ĠÃ§Ä±k mÄ±ÅŁtÄ±r
Ġik ti
Ġkend ine
ket bol
Ġkazan an
it im
Ġyet iÅŁtir
ĠbaÅŁar Ä±sÄ±z
Ġkay det
Ġrad yo
" |
i ce
Ġortal ama
ĠH Ã¼k
ĠâĢ ĺ
Ġfilm in
ÄŁ Ã¼nÃ¼
ĠdÃ¼ÅŁ man
Ġteh lik
ĠM c
Ġyak al
s as
Ġpol is
Ġann esi
ay la
ĠJap onya
ĠL a
n am
Ġt ers
ed eni
Ġer ken
ĠbÃ¶lg esinde
ab Ä±
ĠalÄ±n an
ĠAr t
ĠsaÄŁ lamak
Ġu laÅŁtÄ±
Ġba ÅŁta
ĠD Ã¶n
ok al
iÅŁ leri
Ġtekli f
Ġm eÅŁ
c il
Ġy eri
ĠDem ir
a el
Ġc umhur
en Ã¼z
Ġh ip
ĠyaÅŁ an
Ġkam u
Ġg ec
ĠK Ã¶
ĠSel Ã§uk
Ġprofes yonel
ĠÅŁ art
Ġ3 1
am adÄ±
m m
ol d
Ġkon s
2 4
Ġres mÃ®
ar ruz
Ä±n dÄ±r
ĠYar Ä±ÅŁ
ĠW illiam
Ġbas it
ĠB ilim
Ġt iyatro
Ġbilim sel
den iz
ĠC on
Ġtel ef
Ġeg emen
m ayan
Ġ Ä±s
ĠKad Ä±n
Ġz ayÄ±f
Ġyaz arÄ±
Ġyap Ä±lmÄ±ÅŁ
ĠaÃ§ tÄ±
j i
Ġnerede yse
ap Ä±n
ĠO t
Ġmalz em
Ġ197 0
ti on
ĠN ehri
ĠdÄ±ÅŁ Ä±
k im
ĠyÃ¶net imi
Ġsebeb iyle
Ġm ar
Ġbas kÄ±
ey h
Ġs ub
ez i
Ġkitab Ä±
Ä±r Ä±m
ĠT ak
2 2
ĠG Ã¶l
Ġben im
ĠYunan istan
ĠkiÅŁ iler
ĠMuh ammed
Ġk up
at e
ĠD aÄŁ
Ġgir en
Ġy urt
f at
Ġs ava
Ġver ilmiÅŁtir
G Ã¼n
Ä±lm az
Ġmevcut tur
ĠMÃ¼z ik
an o
ÄŁ er
Ġbir isi
ĠiÅŁ lev
stan tin
ĠaÄŁ aÃ§
ĠAn gel
ĠMuh areb
A v
Ġyer de
ĠgÃ¶ster di
ĠY er
Ġdolay Ä±sÄ±yla
Ä±s al
ĠC em
Ġar aya
el d
is yen
ĠP at
Ã¼ ley
Ġbu z
Ġh id
Ä° s
Ġedilm esi
Ġb al
b an
Ġ ab
Ġc ev
Ġbul du
Ġser g
Ġihtiy aÃ§
Ġg Ã¼cÃ¼
Ġh iss
h at
2 3
Ġbir im
ĠH aÃ§lÄ±
ĠJ o
ĠÄ° r
E r
Ġyan dan
ĠyÄ±l lar
ĠÃ¶ldÃ¼r Ã¼l
aÅŁ Ä±k
ey le
ĠyÃ¼z Ã¼nden
Ġkurul muÅŁtur
ĠEn stit
el iÄŁ
Ġkayn aÄŁÄ±
ĠM e
m edi
Ġyap Ä±lÄ±r
Ġayr Ä±l
ĠMerkez i
b ur
d o
ĠyayÄ±n ladÄ±
Ġp azar
Ġinsan larÄ±n
br ah
Ġpay laÅŁ
d eri
y asal
Ġ20 20
ĠbaÅŁ lÄ±
ÅŁt an
lam aya
alan dÄ±
Ġil gi
ĠtakÄ±m Ä±n
Ð ¾
Ã¼y or
Ġden ir
ĠAvustral ya
Ġin c
Ġarac Ä±lÄ±ÄŁÄ±
Ġar tÄ±r
Ġp lat
ĠHar ek
im li
Ġ199 8
liÄŁ in
t Ä±lÄ±
8 0
Ġgerek ir
Ġar az
Ġy edi
m on
ĠÅŁ Ã¶yle
ey in
Ġkem er
af er
isi on
ĠgiriÅŁ im
c istan
ĠdÃ¶nem in
Ġd ay
lan ma
Ġkullan Ä±lmÄ±ÅŁtÄ±r
ĠKral lÄ±ÄŁÄ±
ĠH o
Ġan lay
s ur
Ġak tif
ol ek
ĠbaÅŁ larÄ±nda
ĠmaÄŁ lu
ĠBeÅŁ iktaÅŁ
ĠgÃ¶ster mektedir
Ġd ini
Ġol ma
ĠAh met
Ġyer e
Ġdal g
Ġbulun muÅŁtur
ĠbaÄŁlan tÄ±
ĠÄ°sv eÃ§
Ġdavran Ä±ÅŁ
ĠPol onya
v a
ĠEr meni
Â °
ĠG Ã¶r
ĠBun lar
Ã¼ley man
Ġon ay
ĠP o
Ġtan rÄ±
Ġmad d
ab il
la maktadÄ±r
Ġdur dur
ĠÃ§Ä±k art
Ġpro blem
E FA
u du
ĠgÃ¶rÃ¼n tÃ¼
Ġor ij
Ġs unu
Ġbaz en
y ap
ĠKÄ± brÄ±s
Ġkar arÄ±
ĠolduÄŁ una
Ġser t
ul muÅŁ
ir ler
ĠÅŁehr in
ĠT V
ĠJ os
Ġ Ä±r
ĠFakÃ¼l tesi
l es
Ġkullan Ä±lmaktadÄ±r
Ġkullan Ä±ldÄ±
ĠdÃ¶n Ã¼ÅŁtÃ¼r
Ġsah ne
ĠÃ¼y eleri
O r
Ġ196 0
ĠaraÅŁtÄ±r malar
Ġoyn an
Ġr ef
Ġbelirt ti
Ä± ÅŁtÄ±r
Ġrap or
Ġm ark
Ġar ab
ĠP ap
at a
ĠH Ã¼s
da t
ĠS av
ĠnÃ¼f usu
ur a
ĠH indistan
Ġmad al
ĠkarÅŁ Ä±n
ĠEr men
Ġyolu yla
Ġilg ilen
ĠR o
Ã¼n y
Ġkar a
Ġz ir
Ġkaybet ti
et t
un t
ĠÃ§ek ir
ru k
Ġyaz Ä±lÄ±m
Ġbar Ä±ÅŁ
ĠBer lin
Ġyap tÄ±r
ĠM ark
ĠS Ã¼per
t eri
2 7
ĠtaÅŁ Ä±
Ġi b
Ġyap mÄ±ÅŁ
ĠÅŁir keti
k as
Ġ Ã¼c
Ġfonk siyon
lam Ä±ÅŁ
Ä±lÄ± p
Ġgal ib
le x
ĠR ad
lam ent
Ġfinal de
Ġm en
B A
ab et
ĠTan rÄ±
el e
ĠAl tÄ±n
l ov
Ġt Ã¶ren
ĠsÃ¼r Ã¼m
ĠB or
ĠH ava
Ġk Ä±ÅŁ
an e
il la
ĠF I
Ġs iyah
Ġb est
il ip
Ġyap Ä±l
ÅŁ ehir
ĠyaÅŁ adÄ±ÄŁÄ±
ĠDem okr
esi dir
19 4
it a
ĠÅŁ un
Ġ199 2
Ġ199 7
m esinden
ĠF estiv
ĠÅŁark Ä±sÄ±
Ġgetir ildi
Ġs af
Ġfizik sel
is h
ĠY az
ĠKan ada
Ġo dak
ĠA ÄŁ
ĠJ ack
Ġs ur
ĠF at
ĠT e
) '
ĠÃ¼lk ede
osk ova
Ġalan da
l Ä±ÅŁ
ĠVen edik
g eÃ§
ĠH en
ĠTÃ¼rk Ã§e
ow n
ĠÃ¶n Ã¼nde
ran d
ĠÃ§ocu ÄŁu
en e
ĠR os
S A
ĠstÃ¼d yo
Ġv az
Ġm on
lÄ± dÄ±r
ĠJap on
d it
Ġsonr adan
ĠK ore
ĠsÄ±nÄ±r larÄ±
oÄŁ ol
k ray
Ġc am
ĠgÃ¶ l
Ġmat ematik
m aÅŁÄ±k
Ġ199 6
ĠÅŁ ar
in sel
ĠÃĸz ellikle
Ġmak in
lar daki
ĠbaÅŁ v
it er
ĠdÃ¶r dÃ¼ncÃ¼
lan maktadÄ±r
etr ol
Ġk lasik
Ġb alÄ±k
Ã¶r Ã¼
Ġtekn oloj
ĠgÃ¼ven lik
Ã¼st Ã¼
c aÄŁÄ±nÄ±
l om
Ġun van
ĠN ik
aÄŁ Ä±n
ĠR es
ĠsÃ¼r ec
ĠGÃ¼n eÅŁ
ul muÅŁtur
n av
Ġkal mÄ±ÅŁtÄ±r
ĠV er
Ġp ot
Ġ[ [
Ġyap tÄ±k
ĠY ine
miÅŁ lerdir
Ġk od
ĠG el
2 8
Ġkes im
Ġkap as
ĠM es
ĠkÄ±r mÄ±zÄ±
Ġh enÃ¼z
Ġkab il
ĠÅŀampiyon asÄ±
Ġg Ã¼zel
Ġet tiler
em ez
Ġhaf t
Ġkas ab
if e
ĠSon r
ĠÄ°span yol
Ġt o
ĠHol landa
ĠbaÅŁar dÄ±
ĠG rup
b at
l iler
Ġyap ar
Ġtan k
ĠT om
ley erek
ĠM at
Ġorij inal
Ġ ac
ĠtÃ¼r Ã¼
ĠdÃ¼zen lem
Ġ &
ĠK am
ic ros
Ġim k
ĠKom ut
Ã¼m Ã¼ÅŁ
Ġp il
ĠbÃ¶l Ã¼n
c ar
Ġtan e
y Ã¼z
ab rik
ĠP ers
ĠAday lÄ±k
m esinin
Ġa ile
Ġyap maya
Ġd arb
Ġ Ä±sÄ±
Ġinsan lar
ĠeÅŁ i
n Ã¼n
ĠÄ° st
ĠGÃ¼r cistan
ĠU EFA
Ġd an
ĠK af
ĠgeÃ§ iÅŁ
Ġist if
Ġgetir di
Ġmes af
ĠG Ã¶k
Ġs ivil
Ġci ddi
Ġv al
ĠÃ§ Ã¶k
Ġen dÃ¼
Ġon larÄ±n
Ġ199 4
ĠCh arl
Ġn edeni
Ã¼t te
ĠRob ert
Ġn et
Ġas lÄ±nda
Ġyar dÄ±
ĠH itler
Ġes eri
icros oft
Ġo rada
Ġal mÄ±ÅŁ
r aman
ĠKon stantin
ĠdÃ¶nem i
ĠS Ã¼leyman
Ġyap arak
ĠyÃ¶net ic
ĠK ut
ĠS por
lim p
ĠKÃ¼r t
Ġmim ar
er Ã§ev
Ġr Ã¶
ĠÃ¼st Ã¼n
ĠF utbol
Ġver ilm
Ġ199 1
ĠP an
ĠbazÄ± larÄ±
ĠTrab zon
ĠolduÄŁ undan
Ġ199 5
Ġd ili
k al
ĠmaÃ§ Ä±na
Ġdak ika
ist in
Ã¶r t
s at
ad i
G en
ĠM Ã¼dÃ¼r
Ġcin s
Ð ¸
Ä±r h
ĠÅŁ im
Ġtic ari
at Ã¼rk
ĠGen eral
lÄ±ÄŁ Ä±nda
ek leri
as i
Ġcivar Ä±nda
o le
Ġbun larÄ±n
ĠT ay
ĠdÃ¼ÅŁ Ã¼r
Ġ18 6
ĠuÃ§ uÅŁ
baÅŁ kanÄ±
Ġkar Ä±ÅŁ
ĠF in
ĠT akÄ±m
alar Ä±ndan
ĠM et
Ġol as
ĠL isesi
Ġta arruz
Ġor tadan
Ġat om
ĠsÄ±cak lÄ±k
Ġlis ans
le yi
t is
ak tadÄ±r
Ġhaf if
p le
ĠM oskova
ĠL u
Ġgit ar
Ġel ine
19 5
ĠbaÅŁlangÄ± Ã§
e ci
Ã ³
ĠY aÅŁ
on un
Ġsar ay
m y
ĠbaÅŁken ti
K ar
ĠK ara
ĠÃ¶ÄŁret men
Ã§ u
Ġtamam ladÄ±
Ġyet iÅŁ
ĠyayÄ±m landÄ±
Ġetkin lik
r it
ad ir
ad eniz
l d
er ler
Ġkat eg
Ġtopl uluk
ĠJ ames
ĠÅŁ ah
ĠB ol
ĠÃ§ap Ä±nda
Ġhas tan
Ġetm esi
eli dir
Ġgez eg
em iÅŁ
Ġtal ep
Ġg Ã¼r
Ġb or
ast ik
ĠÃ§oÄŁun lukla
Ġsiyas et
ĠgÃ¼n lÃ¼k
len me
ĠM ez
Ġgider ek
st ein
ĠBel ediy
Ġmuh tem
trat ej
Ġs ektÃ¶r
ĠÃ¶lÃ¼m Ã¼nden
ĠyÃ¼ksel di
u ÄŁ
Ġ199 3
brah im
Kat Ä±lÄ±m
Ġver ilir
2 6
Ġgerek tiÄŁini
ul uÅŁ
ĠsaÄŁ lÄ±k
Ð µ
Ġgerek en
ĠKuvvet leri
ĠB ah
r at
Ġyan lÄ±ÅŁ
on i
ĠÃ¶ de
Ġ :
ĠDav id
k ur
Ġgel mektedir
ĠaÅŁ Ä±rÄ±
ĠÄ°n san
ĠkÃ¶ken li
iler de
ĠMich ael
Ġes as
ĠparÃ§ acÄ±k
Ã§ isi
Ġd ip
ĠK end
ĠÃ§Ä±kar dÄ±
b et
Ġmah k
ĠTÃ¼rk Ã§
ĠgÃ¶rev ini
ĠAk adem
2 9
o lar
ĠsÃ¼r dÃ¼
un lu
Ġar ka
ĠO limp
ĠU y
Ġbir az
H er
ĠmÃ¼ hendis
Ġev r
dÃ¼ s
ĠÃ§ erÃ§ev
ĠM oÄŁol
ĠS im
ĠC en
ĠÃ¼y e
Ġak adem
Ġada mÄ±
ĠgÃ¼n eÅŁ
Ġkil is
ĠU kray
Ġbilin mektedir
Ġred det
ĠM em
men t
Ġger Ã§
Ġdenk lem
Ġger ektir
ĠiÃ§ eri
ĠkÃ¶ ÅŁ
Ġsen e
ĠaracÄ±lÄ±ÄŁÄ± yla
ĠK Ã¼ltÃ¼r
Ġkad ros
Ġy ans
ĠmÃ¼ da
ĠsÄ± v
Ġsem bol
Ġi ster
ul lah
Ġkullan Ä±mÄ±
Ġkazan mÄ±ÅŁtÄ±r
ĠÅŀ ir
Ġbit k
ler di
Ġm olek
Ġtah t
Ġcin sel
Ġc oÄŁraf
Ġaz alt
a il
ul larÄ±
ed iÄŁini
Ġal g
e an
s ak
Ġbel ediye
ĠÃ§alÄ±ÅŁ maya
Ä±ÅŁ ma
m el
ĠM ag
ĠS ah
ĠSelÃ§uk lu
Ġkan un
Ġart tÄ±r
y le
ak et
ĠÃ¶nc esi
ĠbaÅŁlam Ä±ÅŁ
Ġsavun ma
ĠM el
ĠgÃ¶ k
Ã¼le bilir
ĠtakÄ±m Ä±nÄ±n
ĠÃ§Ã¶z Ã¼m
eli ÄŁi
at o
Ġbulun m
Ġoyn adÄ±ÄŁÄ±
lÄ±ÄŁ Ä±nÄ±n
ĠOs man
as por
ĠÄ°sv iÃ§
Ġtelef on
ĠGÃ¼r cÃ¼
Ġaks ine
ĠKur t
baÅŁ Ä±
ĠMuhareb esi
Ġdurum unda
Ġkar maÅŁÄ±k
Ġmilletvek ili
Ġetm e
ĠaÃ§ Ä±l
ĠoluÅŁtur an
Ġed in
Ġd ans
ĠhÄ±z la
ĠPa ul
am b
Ġp rens
Ġek ran
n ak
nav ut
Ġn ak
ilm e
Ġuz man
i di
Ġmuh al
ĠadlandÄ±r Ä±lan
Ġdo lar
a in
Ġmez ar
Ġetkil eÅŁ
Ġc is
ĠW il
ĠKr alÄ±
c Ä±lÄ±
ĠsÃ¶y len
ĠK im
Ġyet k
m alÄ±
Ġgenel de
ĠyÃ¶n el
t el
elik le
ĠEnstit Ã¼sÃ¼
leÅŁ miÅŁ
Ġik lim
ĠÃ¼c ret
g Ã¶r
laÅŁ ma
Ġt on
Ġatan dÄ±
ĠT or
ot t
ĠÄ° k
ĠP al
ĠgÃ¶rÃ¼l en
ĠAk deniz
ĠS c
Ġbab asÄ±nÄ±n
ĠkÃ¼ltÃ¼r el
Ġedil ebilir
r ah
Ġkuvvet leri
ĠÃ¶zel liÄŁi
Ġre ak
am ik
Ġ6 0
Ġhey kel
Ġet ki
Ġgalib iyet
aÄŁ Ä±na
Ġail esi
ĠV an
Ġd iÅŁ
ĠEÄŁ itim
ĠÃ¶zellik leri
n ey
ĠyÃ¶n Ã¼nde
ĠN o
ĠiliÅŁ kin
ĠÃ§aÄŁ r
ĠKar adeniz
Ġsor umlu
m ar
p ek
a ce
ĠÃ¼lk eler
tif ak
ol f
ĠFran k
ĠBrit anya
Ġgi den
la z
Ġver siyon
ĠKur ulu
Ġnok ta
Ġi c
n deki
ik e
Ġf ay
Ġkullan dÄ±
i et
ĠgÃ¶r en
ĠD o
Ġak Ä±l
Ġk u
19 3
ĠE t
ĠAr dÄ±ndan
u el
oy u
Ġmet r
alar dan
raf ik
Ã Ń
leyi ci
ĠgeniÅŁ let
m o
ra g
Ġad Ä±m
ur um
Ġb Ã¶yle
ĠF eder
Ġpro te
Ġik isi
c Ä±nÄ±n
ti p
tad yum
ĠEÄŁ er
ĠD oktor
Ġm Ã¼l
R us
l ing
ĠÃĩ ek
an larÄ±
ÄŁ inden
Ġist en
ĠkullanÄ± labilir
d ek
Ġan tik
Ġm ens
ĠEf endi
Ġilet iÅŁim
Ġd Ã¼ÅŁtÃ¼
r ip
ĠgÃ¶ m
ĠeÄŁit imi
Ġhal de
Ġmet in
Ġhap is
Ġlist esinde
iler den
landÄ± ÄŁÄ±
liÄŁ inin
ev er
Ġet tik
Ġkal Ä±n
ĠbÃ¶lg esi
k ol
Ä± f
Ġt or
bir liÄŁi
ĠM in
Ġ195 0
Ġce ph
Ġf in
ĠB ank
w ard
Ġhak kÄ±
Ġli deri
Ġkat Ä±lan
Ġi de
ul masÄ±
Ġolduk larÄ±
Ġst at
Ġhal kÄ±
ot h
ece ÄŁi
Ġmuh areb
Ġd Ã¶v
en ler
Ġ Ä±ÅŁÄ±
ĠdoÄŁ um
Ä±ldÄ± z
ĠY Ã¼z
ĠOk ulu
ĠhÃ¼kÃ¼m dar
ĠB oÄŁ
ĠK ah
lÄ± lar
Ġyap Ä±sÄ±
ĠÃ§alÄ±ÅŁ Ä±r
alÄ± lar
ĠyardÄ± mÄ±
Ã¼tte fik
A T
ĠD el
Ġer iÅŁ
Ġmekt up
ans iyel
S t
Ġz Ä±rh
ĠV ol
ĠAra ÅŁtÄ±r
Ã¼p han
g Ã¼
Ġdav et
da y
ĠG azi
Ġ Î
ĠyÄ±l da
ĠÃ¶ÄŁr etim
ĠM icrosoft
d oÄŁu
Ã¶y l
Ġd am
Ġbir den
ad iÅŁ
ĠAn tlaÅŁ
Ġson larÄ±nda
ley ic
in Ã§
ĠAt atÃ¼rk
Ġas ist
ĠÅŁarkÄ± cÄ±
Ä°n gil
Ã¼l Ã¼k
ĠyaÅŁ adÄ±
Ã§ Ä±k
af f
Ġs eri
ĠC or
" .
ĠT at
ĠÃ¼ret imi
ĠG eÃ§
ĠaÅŁaÄŁÄ± daki
ak istan
Ġist eyen
Ġ ir
Ġv ir
Ġm it
Ġmah all
Ġkr alÄ±
an ak
ĠR ich
ĠhazÄ±r lÄ±k
Ġkateg or
Ġy ukarÄ±
Ġs ek
ĠkiÅŁ isel
Ġ9 0
il le
ĠO l
Ġprogram Ä±
ĠbaÅŁ la
Ø §
Ġo lam
eb ek
ĠV ak
ĠbÃ¶lg eye
ĠI s
Ġkullan an
ĠQ u
Ġb l
o ol
Ġs Ã¼t
ĠTÃ¼rk men
Ġc es
Ġel inde
Ġdal ga
ĠT un
Ġn Ã¼kle
Ġol umlu
ĠM Ã¼
as s
ĠBak anÄ±
Ġser gil
as tÄ±r
ĠÅŀ ehir
7 0
Ġkurul muÅŁ
Ġnes n
ĠÄ° b
Ġkend isinin
g isi
er n
Ġb iz
ĠW al
ĠyayÄ±n lan
ĠÃĸdÃ¼l leri
ĠBÃ¶l g
bak an
Ġ =
Ġyet erli
Ġbirbir ine
Ġbek len
il ler
k Ä±r
k est
ĠyaklaÅŁ Ä±m
m amÄ±ÅŁ
ĠaÃ§Ä±k lam
Ġr ej
Ġkim yasal
Ġnokt asÄ±
ĠyÄ±l Ä±n
Ã ¤
v ik
Ġkay ded
elen dir
Ġm u
Ġbar Ä±ndÄ±r
ĠkayÄ± p
Ġteh dit
Ġil Ã§e
ĠeÄŁ er
Ġist edi
Ġmil yar
ĠteÅŁ kil
ĠS ak
ĠS Ã¼r
Ġdev rim
Ġpoz isyon
p t
ĠM ed
ĠÃ§ek ildi
s Ã¼z
Ġes ir
ĠsÄ±nÄ±f landÄ±r
is ti
Ġayr Ä±lÄ±r
iÄŁ in
Ġolan ak
ap ol
Ġfak tÃ¶r
luÄŁ unu
ĠÄ° brahim
Ġfark lÄ±lÄ±k
Ġuygu lama
ay arak
9 0
im in
s ch
ĠkullanÄ± larak
ĠV e
Ġmes aj
Ġfilm de
ĠBal kan
eler le
la ck
ĠPort ekiz
ĠG re
ab ilecek
Ġoper asyon
Ġp etrol
ĠC ez
n an
Ġy ed
ĠkÃ¶ pr
Ġbun lar
ĠHas an
Ġkad ro
ĠalbÃ¼m Ã¼n
am aya
es e
ĠD ar
ĠgÃ¼n cel
if orn
um suz
O s
Ġp lak
Ġs tratej
y di
t arÄ±
Ġan ah
ĠgeÃ§ miÅŁtir
ayÄ± p
ĠÄ°sviÃ§ re
ĠÅŁ air
Ġdok uz
ĠbÄ±rak tÄ±
Ġt Ä±p
lerin deki
ĠsÃ¶z leÅŁme
ĠH Ä±r
Ġed iyor
ĠS aÄŁ
Ġtah ta
m os
ĠK Ã¼t
ĠS Ã¶z
Ġfinal e
it t
ĠP et
ĠdÄ±ÅŁ arÄ±
ĠÃ¶ÄŁren ci
ĠFil istin
ÄŁ Ã¼nde
ĠÃľ lk
ov ision
Ġkan at
ĠKu dÃ¼s
Ġ198 9
ra c
Ġken ar
di ÅŁ
b ey
ĠN az
Ġmak al
ĠAr navut
ĠE y
E l
Ġ8 0
ĠK Ã¼Ã§Ã¼k
Ġkur ucu
Ġtes is
Ġtoplan tÄ±
de b
ĠMeh med
ĠyaÅŁ anan
Ġar alarÄ±nda
um b
ĠaÃ§Ä±k lama
ĠÅŁ if
Ġd os
v eÃ§
ĠD Ä±ÅŁ
Ġyar Ä±m
O S
ĠÃĩ ok
f ord
ĠÃ¶ldÃ¼r Ã¼ldÃ¼
at Ã¼r
Ġvar say
Ġanlam da
ĠF inal
ut h
Ä ĩ
Ġfilm inde
c usu
un cu
Ġhat Ä±r
ĠBey az
Ġtem iz
Ġk Ã¼m
c ilik
ĠBÃ¶l gesi
t Ä±sÄ±
ĠS ab
Ġkar t
c uluk
ĠM ir
m Ã¼r
Ġi dam
ur i
Ġn Ã¶
Ġbirlik leri
ĠdÃ¼zen li
Ġd es
lÄ±k lar
Ġdip lom
Ã¶ ÄŁr
ĠM aÃ§
ĠgÃ¶rev lendir
Ġfin ans
am e
ing ton
ÅŁ Ä±
uc usu
Ġbas tÄ±r
ĠhÃ¢ l
Ñ Ģ
ĠiÃ§ i
ĠP rens
Ã¼y ordu
ĠsÃ¶z leÅŁ
de si
Ä° l
ĠyayÄ±m lanan
Ġ Ã¼s
ĠÃ¶r t
H P
Ġ19 20
ĠGrub u
Ġy ola
Ġp an
Ġt ec
ĠS ezon
ĠD ol
ĠgÃ¶rÃ¼l mektedir
ĠUkray na
ĠbaÅŁ landÄ±
at i
ĠsaÄŁ lay
o ya
Ġson una
Ġv okal
et ti
ĠÃ§alÄ± ÅŁtÄ±r
Ġr Ã¼t
Ġsanat Ã§
ik leri
ĠgÃ¶r Ã¼r
Ġs aÃ§
ce ÄŁini
ĠSam sun
Ġver mek
et ler
ĠA lex
k u
ĠÃĩ Ã¼nkÃ¼
ĠFestiv ali
m ur
y olu
ĠK art
Ġde pr
b atÄ±
layÄ± cÄ±
ĠÃ¼ret ilen
C h
or it
ir o
ĠÃ¶nc eden
Ġmar uz
Ġhar f
Ġun sur
ĠKat olik
Ä±ldÄ± ÄŁÄ±nda
Ð ½
ulu ÄŁ
ĠDer neÄŁi
Ġn ot
ĠE s
Ġev len
ĠKaf kas
is p
ĠgÃ¶rÃ¼n t
Ġi kin
ÅŁ u
t ak
Ġil a
Ġdiz isi
ĠK Ä±s
Ġf abrik
ĠOlimp iyat
ĠG Ã¼ven
h is
Ġtedav i
or ld
Ġtoplum sal
Ġt uz
ĠÅŁ Ã¼p
ĠbÃ¼y Ã¼
Ġzaman larda
ilm esine
ĠJ on
ĠG ar
por taj
Ġbir inc
Ġkapsam Ä±nda
ĠS eÃ§
man n
Ġak tiv
ĠkaÃ§ Ä±r
Ġw eb
il eb
du k
Ġd ost
ĠKons eyi
lan abilir
ĠFI FA
Ġ ez
Ġyap maktadÄ±r
Ġzaman Ä±nda
Ġyan Ä±na
ĠendÃ¼ str
or at
Ġoy unun
Ġbas k
siz lik
Ġal Ä±ÅŁ
ĠE mir
Ġas it
ĠMÃ¼z esi
ĠÃ¶ ÄŁ
âĢ ľ
Ġk ov
ilm esini
Ġon lara
Ġsinem a
ĠS tal
ĠÄ° t
adiÅŁ ah
ber t
ĠÃ§iz gi
Â Ń
ĠG i
ĠT aÅŁ
Ġ194 5
ĠmaÄŁlu p
us e
r ad
am et
Ġt ay
Ġed ip
w e
v ey
ar eti
ĠEur ovision
ĠS ey
im a
Ġgem i
Ġordus unun
Ġdem okr
ĠM en
Ã§ esi
I n
Ġser v
ĠKom Ã¼nist
m ekteydi
Ġanal iz
ĠmÃ¼z iÄŁi
Ġkar bon
al a
ĠD NA
n daki
Ġkap Ä±
ĠP ark
Ġan ay
ĠgerÃ§ekleÅŁtir ilen
Ġek sik
Ġg ar
ĠP lay
Ġen f
ĠYarÄ±ÅŁ masÄ±
Ġh erkes
ĠsaÄŁ lam
ken der
at h
Ã¼l asyon
ĠbakÄ±m Ä±ndan
iler inden
af Ä±z
ĠY ayÄ±n
> '
ĠsÃ¼r ede
ir a
Ġs ad
Ġiler lem
Ġkazan dÄ±r
ĠT al
ot ik
i dir
Ġsin yal
on y
Ġhalk Ä±n
ĠiliÅŁ ki
Ġtab ak
ĠkÃ¼t l
an y
Ġem r
ĠoluÅŁ maktadÄ±r
Ġprot est
f ak
g re
ĠrÃ¶ portaj
ĠK en
Ġb Ã¶
ĠF o
Ġh oÅŁ
ig Ã¼r
n Ã¼
Ġp as
Ä±lÄ± ÄŁÄ±nda
Ġev lendi
Ġtab lo
ĠBir inci
Ġolacak tÄ±r
ma il
ĠW e
di ÄŁinde
Ġolm adan
Ġv on
ĠGeor ge
3 5
ĠR ec
Ġbulun dur
et en
ĠY as
bo ard
Al man
Ġ )
ĠC al
ĠÃ§alÄ±ÅŁ masÄ±
A k
ĠkarÅŁÄ± laÅŁtÄ±r
ed ildi
Ġuzak lÄ±k
Ġb Ã¼ny
Ġz afer
ĠI V
Ġism ini
ĠdeÄŁ ildi
Ġdil e
ĠCharl es
ĠyaÅŁÄ±nda yken
n et
R T
ece ÄŁini
r ich
ak Ä±r
ĠP eter
ĠKil isesi
Ġak Ä±ÅŁ
Ġkullan Ä±r
Ġb este
Ġres sam
k Ã¼r
ĠgeliÅŁ miÅŁ
ĠMill Ã®
ĠD aÄŁÄ±
Ġsay f
Ġb undan
en gi
ĠC ami
Ġan tr
ĠyÃ¶r Ã¼n
Ġyem ek
ĠE x
Ġd Ã¶k
Ġincel em
ĠmÃ¼ dÃ¼r
Ġbir er
B M
Ä±sÄ± t
Ġd edi
mem iÅŁ
opol is
Ġimzal adÄ±
ĠBr ez
Ġev lilik
201 0
Ġs akat
Ġgiy di
Ay rÄ±ca
ÄŁ Ä±nÄ±n
im ark
Ġman yetik
Ġtarih leri
iyat ros
r ab
in ler
ÅŁt Ä±k
ĠsÄ±r al
Ġanla mÄ±
Ġcev ap
alan an
Ġan tlaÅŁ
Ġsey ahat
Ġalt Ä±ndaki
ĠgÃ¼nÃ¼mÃ¼z e
ed din
Ġeder ken
Ġr aki
Ã¼l mÃ¼ÅŁtÃ¼r
Ġ3 5
Ġvaz geÃ§
ĠrÃ¼t b
Ġyer li
Ġil aÃ§
Ġal maya
Ġsin ir
v in
c he
Ġsezon da
tern atif
ĠsÄ±v Ä±
ac Ä±lÄ±k
Ġgel miÅŁ
Ġb eÄŁ
ĠP as
ĠT ah
Ġmiktar da
ĠY ou
ĠuÄŁr aÅŁ
Ġg ay
ĠsoÄŁ uk
el li
ĠT a
ĠoluÅŁ um
Ġinc elen
Ġharek eti
l iye
Ġ Ä±ÅŁÄ±n
ĠyÄ±l Ä±ndaki
Ġkullan dÄ±ÄŁÄ±
ĠÃ§ek ti
Ġsen ar
Ä±lÄ± Ã§
iler le
ĠMa x
ĠbaÅŁ rol
ĠYar dÄ±m
ĠÃ¶n der
Ã¢ t
Ġev ren
ĠBun larÄ±n
is a
lan arak
ĠhÃ¼kÃ¼m et
Ġyat Ä±rÄ±m
on t
Ġgel diÄŁi
ĠÃĩ al
Ġyet kil
ĠEr z
ĠgerÃ§ekleÅŁ en
v ir
larÄ± dÄ±r
Ġplat form
lar ca
uk e
Ä± b
ĠÃ¶n Ã¼ne
ĠmaÃ§ a
n y
al im
ĠEr k
Ġ5 00
Ġ um
Ġoyunc usu
ĠAkadem isi
T V
ĠMah m
Ġsezon un
ĠÃĸ ÄŁr
ĠC om
Ġpar Ã§a
ĠdÃ¼ ÄŁ
ĠT ab
ĠC eph
or f
Ġk Ä±t
Ġay ar
um l
Ġhan gi
ĠL ou
ag ue
y s
Ä±l masÄ±na
ĠM u
og le
ĠHÃ¼s eyin
ĠbaÅŁv ur
tÃ¼r Ã¼
ĠG Ã¼l
Ġetti ÄŁini
ĠGÃ¼n Ã¼mÃ¼zde
ĠtakÄ±m Ä±na
Ġ198 8
Ġbit ki
ĠtaÅŁÄ±n dÄ±
Ġ198 7
ĠhÃ¼kÃ»met i
ĠW W
ĠBab asÄ±
luÄŁ unda
sÄ±z lÄ±k
eks ika
st eri
ag e
es iz
ĠT am
ĠAp ple
ĠD iy
ĠN azi
ĠE li
ĠamaÃ§ lÄ±
D aha
ab ilen
Ġ4 5
ĠB os
Ġn ef
ile ÅŁtir
ĠanlaÅŁ ma
ĠadlandÄ±r Ä±lÄ±r
ĠdeÄŁiÅŁ im
Ġem ir
ĠHen ry
Ġr akip
Ġin s
ĠdÃ¼nya da
Ã¼ el
ĠS istem
ĠW h
ÄŁ an
. ,
Ġs Ã¼per
Ġikti dar
ÄŁ in
ĠgeÃ§ erli
ĠgeÃ§ ici
ĠAntlaÅŁ masÄ±
ĠÄ±r k
c om
Ġh ac
ĠS m
ĠL os
Ä±l masÄ±nÄ±
form ula
aÄŁ Ä±nÄ±n
ĠAb dÃ¼l
Ġkal Ä±ntÄ±
ĠÄ°r landa
ĠD a
ĠgÃ¼n de
ĠB undan
ation al
d im
Ġv b
Ä±m a
ĠyÃ¶n lendir
n o
Ġs Ã¼s
Ġduyur du
ov e
ara j
lÃ¼ÄŁ Ã¼nÃ¼
Ġmens up
ĠÃ¶n de
ĠW ar
ĠdeÄŁ eri
ĠgÃ¶nder ildi
Ġbir liÄŁi
ĠL ib
Ġk Ä±sÄ±t
c m
Ġin ce
Ġkomut anÄ±
Ġist ih
Ġkapas it
Ġp en
ilen in
Ġpar lak
Ġhal ka
Ġetraf Ä±nda
Ġ198 6
Ġolmak la
ot o
ĠM ih
Ġsey ir
ĠMec lisi
Ġistif a
i ca
ĠC el
Ġsan ayi
isyon u
ĠbaÅŁlÄ± ca
ĠsÃ¶z cÃ¼
u ki
ik al
un ma
li dir
ĠBel ediye
ĠyÃ¼r Ã¼y
ĠâĢľ "
B aÅŁ
a x
ĠkÃ¼t le
Ġdan Ä±ÅŁ
ed eral
Ġgir miÅŁtir
Ġle h
ĠC ity
ĠsÃ¶z c
ĠTop l
ĠD al
Ġef san
b as
Ä± da
Ġsah il
Ġter im
er o
Ġm el
ĠAb d
il y
Ġdol dur
Ã¼ cu
ĠsÄ± f
am ay
ĠÅŁehr inde
L e
ĠÄ°s kender
Ġesn asÄ±nda
ti c
ant um
er ken
ĠÄ°s a
Ġy ir
ĠÃ¶ tÃ¼rÃ¼
ĠsÄ±nÄ±r lÄ±
Ġbenz eri
Ġanah tar
tÄ± cÄ±
Ġr isk
ĠÃ§atÄ±ÅŁ malar
Ġet nik
4 5
ĠiliÅŁk ili
Ġmah kem
Ġin ternet
ĠeleÅŁtir men
Ġd ar
it ir
ĠDeniz i
Ġeder ler
layÄ± p
Ġt ez
um an
Ġu c
Ġn iÅŁ
ĠR ock
Ġkurul u
iy ade
ĠS ol
om as
A mer
gil eri
dÄ± ÄŁÄ±nÄ±
Ġar acÄ±
M an
g Ã¼ne
Y eni
z i
v anÄ±
ff y
Ġkay bol
3 1
B C
A ÅŁ
ĠS iv
ok ol
ĠBur sa
b en
Ã¶m Ã¼r
Ġkal Ä±r
Ġb oÄŁ
iler inde
ĠdeÄŁiÅŁ ken
Ġtoplam da
ĠRich ard
Ġr Ã¼z
Ġk uz
ĠH ot
Ġ198 2
iy atÄ±
Ġc em
Ġalt yap
Ġkorum a
ak am
is indeki
ĠSÄ±r p
ĠS up
Ġ198 4
Ġyap Ä±lmasÄ±
r em
ĠgerÃ§ek leÅŁti
Ġail esinin
ĠaÃ§Ä± dan
Ġist asyon
ĠS ay
ĠÃ§iz g
ĠbÃ¶lg enin
Ġkor uy
Ġboz uk
et leri
baÅŁ kan
ĠMillet ler
Ġv ad
Ġolm asÄ±nÄ±
ĠAn n
l iliÄŁ
ef f
Ġay dÄ±n
m esinde
Ġolm adÄ±
Ġ7 0
ĠÃ¶rn eÄŁin
Ä± labilir
ĠteÅŁ vik
ĠMacar istan
ĠÃĩ ocuk
ost a
or a
Ġnumar aya
k ale
ĠKÄ±r Ä±m
ĠB a
ĠS tan
adÄ±k larÄ±
ler deki
an dÄ±r
ek im
ĠBir Ã§ok
ug h
di ÄŁini
Ġdurum larda
7 5
en ce
Ġol umsuz
ĠZ aman
ij ital
Ġar tan
ĠDan imark
Ä°ngil iz
ĠdÃ¼zen len
Ġref orm
ilen dir
ĠBel Ã§
Ġgel in
an taj
Ãĸ z
n ek
ĠÃĸz el
ĠP lan
l iliÄŁi
Ġtak v
" âĢĿ
fer ans
Ġhid ro
ĠÃ§Ä±k mÄ±ÅŁ
Ġoyn ayan
Ġart Ä±ÅŁ
ĠkarÅŁÄ± laÅŁtÄ±
Ġ18 5
ord in
Ġk ans
Ġkah raman
af az
Ġmuhtem elen
an der
Ġorgan izasyon
ĠHan ed
Ġsay Ä±lÄ±
ur e
ĠyÃ¼z de
ĠA c
Ġet ik
ĠAh med
Ã¶r f
ĠÃ§ek im
ĠB in
Ġm Ã¼r
ĠtÃ¼r lÃ¼
Ġpot ansiyel
Ġdevlet in
ill board
bah ar
ĠBun lardan
Ġkur am
Ġf eth
ĠY ol
cÄ± larÄ±
ĠO nun
Ġu st
uv arÄ±
200 8
Ġgrub a
ĠyÃ¼ksel t
Ġden ilen
Ġ198 5
9 9
ĠS SC
malar Ä±nÄ±
raz am
ĠA ir
ĠA lan
ĠgÃ¶ster miÅŁtir
ĠsavaÅŁ Ä±
ĠF or
ĠM ey
Ġzaman lar
Ġpar al
Å į
Ġf rek
Ġsistem inin
Ġzir v
ĠgeÃ§ erek
Ġyak Ä±t
tal ya
ĠYÃ¶n et
os lav
Ġv ol
201 1
Ġz inc
Ġs end
Ã¼l Ã¼r
Ġkend ilerini
Ġhayat ta
l os
Ġolm aya
Ä±l ma
Ġkar Ä±ÅŁÄ±k
Ġkap alÄ±
ĠS em
mak la
Ġedildi ÄŁi
lÄ±k larÄ±
Ġsahip ti
Ġkorum ak
ĠkatkÄ± da
Ġh it
ĠM eksika
ĠkarÅŁ Ä±lÄ±ÄŁÄ±nda
Ã¼c ut
ĠÃ§Ä±ktÄ± ÄŁÄ±
il a
Ġeser leri
at er
Ġj Ã¼r
Ġkomut an
T A
Ġf iyat
Ġtep k
P ro
200 9
ĠÅŀ am
Ġ3 2
Ġderece de
f ab
ĠS ev
ĠÃ¼niversit e
4 8
B ur
ĠÃ§ ey
ĠbÃ¶lÃ¼m de
Ġrol Ã¼
iv er
Ġinan Ã§
9 5
ĠUz un
ko Ã§
Ġm Ã¼s
ĠM y
Ġs aha
Ġcez a
ĠBaÅŁkan lÄ±ÄŁÄ±
Ġuz an
ĠkatÄ±ldÄ± ÄŁÄ±
ĠAl ek
Ġd isk
ĠSosyal ist
it if
ĠaÃ§Ä±k landÄ±
Ġok um
mem ektedir
ĠG Ã¶z
Ã» m
Ġimk Ã¢n
w ood
Ġ â
Ġar z
Ġbelir gin
Ġik ili
Ġgol Ã¼nÃ¼
ĠsÃ¼rdÃ¼r dÃ¼
Ġmik ro
ĠAnd re
7 8
Ġhakk Ä±ndaki
Ġyas al
d arÄ±
Ġh asar
m ey
Ġs arÄ±
ro w
laÅŁ Ä±k
Ġkli p
ĠÃ¶ v
Ġsistem leri
ĠT ok
u f
Â ²
Ġd et
ĠL ev
ĠCumhur baÅŁkanÄ±
Ġbilg iler
Ġt apÄ±n
ce ÄŁi
ĠgeliÅŁ im
al d
ĠH int
ĠkÃ¼r esel
Ġar ay
yan us
Ġat tÄ±ÄŁÄ±
ĠCh ris
Ġmed ya
Ġr est
ĠMah kem
ĠaÃ§ Ä±ldÄ±
" <
ĠK ir
il d
ĠÃ§evr esinde
Ġelektron ik
ĠÃ¶dÃ¼l Ã¼
ĠaÃ§ Ä±lan
Ġkend ilerine
Ġmod eli
b ek
u a
Ġeki bi
Ġas tr
l it
Ġf igÃ¼r
ĠB oy
ĠbaÅŁladÄ± ÄŁÄ±
Ġ198 3
ĠLat in
at istik
Ġ193 0
ĠÅŀampiyon lar
B Ã¼yÃ¼k
Ġ3 00
at en
Ġsub ay
Ġd i
us h
Ġyaz Ä±lÄ±
ĠS af
Ġyar gÄ±
Ñ ģ
Ġr ock
ĠF ar
Ġidar e
O y
ĠAda m
Os manlÄ±
Ġtar zÄ±
alan dÄ±r
Ġkal k
f Ä±
Ġy Ä±
Ġbir ik
>' </
lem esi
Ġk uy
ĠÅŁ ov
Ä± larak
ĠD en
Ġmolek Ã¼l
Ġtaraf Ä±nda
Ġbul ur
Ġede cek
ĠW orld
F ilm
ĠK ab
ĠC arl
ĠAy dÄ±n
ĠeÅŁ lik
ĠÅŁÃ¼p h
Ġyaz Ä±lmÄ±ÅŁ
Ġver siyonu
Ġlim an
eÄŁ ini
ĠbeÅŁ inci
Ġo p
ĠBrez ilya
B en
lik leri
Ġhay atÄ±
Ġsok ak
ĠU r
m it
ĠÅŁ ans
ĠÃ¶nc esinde
ĠAngel es
dÃ¼k ten
b il
ĠH or
ĠalÄ±n mÄ±ÅŁtÄ±r
ab ilmek
iyan a
Ġhak larÄ±
s em
ĠgÃ¶ster ildi
ĠD ur
Ġ19 18
ĠeÄŁ ilim
c Ä±lÄ±ÄŁÄ±
g am
Å ¡
da ÄŁ
ĠB on
ĠM Ã¼n
Ġsilah lÄ±
lÃ¼ÄŁ e
Ġ x
201 2
im al
ĠS ez
Ġyenil g
S S
Ġ194 1
Ġrenk li
em li
ĠS ad
Ġver mektedir
ĠDev r
ĠD il
Ġkil ise
ĠRec ord
ĠNor veÃ§
ed ilen
ĠbaÅŁladÄ± lar
200 7
ĠÃ§oÄŁun luÄŁu
ĠnÃ¼kle er
ĠsavaÅŁ Ä±n
Ġo b
ĠBulgar istan
ĠF u
te pe
Ġhat t
Ġkur ucusu
ĠE sk
Ġbas kÄ±n
Ġkom ÅŁu
ĠH a
Ġa j
Ġ194 0
qu e
Ġ194 4
Ġtarih inin
Ġkol on
ĠyaÄŁ Ä±ÅŁ
ĠJ ul
Ġy eÅŁil
ĠA dan
it ed
o is
ĠbaÄŁlÄ± dÄ±r
ĠS un
ĠMak ed
ik ler
Ġsor uml
Ġkr ist
Ġif ad
ĠgÃ¼r eÅŁ
b ar
Ġasker Ã®
Ġgezeg en
ĠSon ra
ĠN apol
d y
Ġzaman la
ĠG Ã¶
ĠbaÅŁken t
t s
i i
Ä±lmasÄ± yla
t ek
ÅŁ i
Ġ197 4
at es
eb ilecek
Ġdeste ÄŁi
Ġce p
6 5
Ġy itir
ĠÃ§alÄ±ÅŁmalar Ä±na
ĠsÄ± ÄŁÄ±n
ĠO per
ĠyakÄ±n larÄ±nda
ĠGÃ¶l Ã¼
ĠF C
ĠoluÅŁtur duÄŁu
iforn iya
k Ã¶y
Ġdo laÅŁ
ĠM S
Ġhay al
ĠOyun cu
ĠÃ¼lk elerde
Ġola caÄŁÄ±nÄ±
ĠH em
Ġuy du
ĠoluÅŁtur du
ĠtÃ¼k et
Ġhay ran
Ġnit elendir
or y
ĠÅŁ er
Ġkal p
Ġuz at
ĠhÄ±z Ä±
len diÄŁi
van ya
Ġserg ilen
ta in
Ġkaydet ti
ĠÃ§ eki
A t
er v
Ġp ark
ron ik
Ġhan ed
Ä±l Ä±mÄ±
Ġi tir
ĠFransÄ±z ca
Ġb ank
g usal
Ġbir inin
Ġhast alÄ±
ĠAn ay
Ġsahip liÄŁi
ĠyayÄ±m ladÄ±
Ġkal ab
o da
Ġs Ä±n
Ġkarak teri
ĠhÃ¼c re
ĠÃ§aÄŁ Ä±r
ĠÅŁark Ä±nÄ±n
ĠgÃ¼Ã§ lendir
u ya
Ä±l maya
om a
ĠbugÃ¼n kÃ¼
c is
ĠK uÅŁ
ĠAn a
Ġ197 9
ĠÅŁif r
ĠbÃ¶lg elerde
Ġpil ot
Ġp ap
vey a
Ġ +
Ġn adir
ĠAn ton
ĠGo ogle
g Ã¼r
Ġkomut asÄ±ndaki
Ä±s Ä±ndaki
ĠseÃ§ en
d unun
ĠbasÄ±n Ã§
el le
es por
ĠkÄ±sm Ä±nÄ±
m am
y er
Ġv Ã¼cu
A s
Ġk oc
te p
em esi
ĠE deb
mos fer
od oks
ch ester
m amÄ±ÅŁtÄ±r
Ġfaz l
ef eri
ĠgÃ¶rev ine
Ġ ap
ĠiliÅŁk iler
Ġol maktadÄ±r
Ġgel ecek
Ġmadal ya
Ġvar lÄ±ÄŁÄ±
Ġser isi
ĠO f
Ġan Ä±
ĠL it
Ġimz a
F rans
ĠsÄ±r asÄ±yla
ĠAt ina
ĠJ ean
Ġrek or
Ġg Ã¼mÃ¼ÅŁ
ilm iÅŁti
Ġmekan iz
ĠgÃ¶ v
Ġal ternatif
Ġtamam Ä±
ĠkonuÅŁ ma
aÄŁ Ä±nda
Ġolay lar
ĠWW E
Ġbas ketbol
Ġgrup lar
Ġsebeb i
ĠCeph esi
Ġ197 3
ĠFeder asyonu
Ã¼l lÃ¼
lik le
ĠÄ°s mail
T ar
ĠÃ§ev re
d Ã¼n
Ġkal e
ĠÅŁun lardÄ±r
iÃ§ e
ĠÄ°s koÃ§
Ġt ed
lem eye
ri ed
len ebilir
Ġtut ar
Ġm ant
Ġan ti
ekt rik
Ġp aket
ĠgÃ¼ney inde
ĠdÃ¼ÅŁÃ¼nÃ¼l mektedir
di v
Ġyar atÄ±
Ġkuzey inde
ĠdoÄŁr ult
Ġip tal
Ð »
em ektedir
ĠH it
ĠKul Ã¼b
ilm eye
Ġboy u
ĠK er
aÄŁ an
ĠPro j
Ġyar Ä±sÄ±nda
Ġgir er
ĠErmen istan
ĠÃ¶n gÃ¶r
ri an
ĠHÃ¼k Ã¼m
3 7
P ar
den in
p at
4 7
Ġyen erek
gr esi
c insel
m uÅŁtu
Ä° stanbul
Ġolm uÅŁtu
iyatros u
V D
luÄŁ un
un k
alar la
ĠbaÅŁlat tÄ±
ÄŁ unda
Ġken ti
ag a
Ġz ih
ĠkarÅŁ Ä±lan
Ġsu ik
ĠsavaÅŁ a
ĠSil ah
3 2
Ġr efer
al at
Ñ Ĥ
Ġm Ã¼ÅŁt
d un
ĠB lack
em edi
ist ler
w ay
ĠbaÅŁ k
b ilim
Ġyaz Ä±lan
ĠdoÄŁ an
Ġ196 8
Ġ198 1
ĠÃ¶dÃ¼l Ã¼nÃ¼
ÅŁ ev
Ġinsan Ä±n
Ġ15 0
ĠTh omas
ĠM ek
ĠmÃ¼mkÃ¼n dÃ¼r
Ġanlay Ä±ÅŁ
z ade
Ġal ma
Ġgerek Ã§
ĠsÄ±k lÄ±kla
ĠgÃ¶rÃ¼l dÃ¼
Ġdep o
leri dir
p en
ĠB unu
ĠK as
Ã§ ilik
ub e
ĠÃ¼st Ã¼nde
il eÅŁ
Ã§ ileri
Ġrad y
ok ul
ĠP e
ĠyaÅŁ lÄ±
ĠKom itesi
Ġinsan larÄ±
k op
Ġorgan iz
av e
3 4
Ġf i
ĠgÃ¶nder di
Ġar alÄ±k
200 6
ĠÃ¶lÃ¼m Ã¼
Ġr ah
Ġyet ersiz
ĠBelÃ§ ika
Ġd olu
Ġf er
Ã ¨
Ġs uy
is iz
ĠseÃ§im lerinde
ĠbÃ¼y Ã¼m
H al
Ġn ehir
ĠyaptÄ±k larÄ±
Ġparal el
Ġon ur
ĠK os
Ġyaz mÄ±ÅŁtÄ±r
5 00
Ġb Ã¼r
ĠsÃ¼r esi
ant in
ĠKÄ±s a
ĠP ri
om o
ĠL i
Ġin ti
Ġbitir di
ĠS tar
Ġdurum a
ir ken
Ġtaraf tar
ĠKal iforniya
r um
Ġkonu da
Ġvar lÄ±k
ĠyapÄ± lacak
Ġdakik ada
r op
in k
Ġtab an
ug oslav
Ġday alÄ±
Ġf iz
Ġf estiv
Ġb ilm
ĠÅŁampiyon u
3 8
b istan
Ġtarih sel
ĠS w
Ġprote in
Ġkrist al
Ġver erek
doÄŁ an
b y
Ġkar Ä±sÄ±
Ġyer lerde
ĠdÃ¶n en
Ġdayan an
k or
ĠkÄ±s men
Ġfik r
ver iÅŁ
ĠyardÄ±mÄ± yla
p s
il iÄŁini
izm in
Ġkal mÄ±ÅŁ
ĠDon an
iÅŁ ehir
Ġyen ilen
ĠasÄ±l lÄ±
l on
s iy
Ġ ep
ĠV iyana
, "
Ġrek lam
ĠV ar
Ġort asÄ±nda
Ġsen esinde
ĠD ir
l edik
em a
ĠS y
Ġyap Ä±lmaktadÄ±r
len erek
Ġb eden
Ġgenel inde
Ġol sun
an ik
Ġsal on
lem iÅŁtir
ĠtakÄ±m Ä±nda
ĠnÃ¼fus un
Ġanla tÄ±r
ĠkÄ±y as
Ġol asÄ±
Ġhar iÃ§
Ġmez h
Ġkal it
ĠDanimark a
Ġkut sal
Ġ $
ĠÃĩ el
Ġr ok
c us
iÃ§ i
2 000
Ġdiz inin
Ġimparator luk
m ik
Ġkon us
eb e
ĠsaÄŁ lamÄ±ÅŁtÄ±r
Ġ197 2
ĠC omp
Ġ <
ĠBÃ¶l Ã¼mÃ¼
ĠY o
Ġ18 0
Ġyol cu
Ġoldu lar
ĠK ing
ĠD iv
ĠoluÅŁtur ulan
Ġd ram
ĠV ad
ĠinÅŁ aat
Ġb Ã¼t
ĠÃ¼ret ic
Ġden g
Ġnit elik
ĠsÄ±nÄ±f Ä±
Âł Ċ
Ġyak alan
ĠsÃ¼re ci
ya f
201 3
Ġ Â
ehr in
ĠCami i
Ġyar g
Ġkaz Ä±
M ar
Ã¼ ce
il t
Ġbul uÅŁ
Ġon dan
ĠkiÅŁ ilerin
ĠS at
ĠT ep
Ġ197 5
201 4
ĠAraÅŁtÄ±r ma
am in
ĠgeÃ§ir diÄŁi
Ġbl ok
Ġik na
Ä±z a
Ġotom obil
A R
i da
Ġar asÄ±na
ĠiÅŁ Ã§i
r ey
Ġi th
Ġf os
ĠaÅŁ k
ĠmÃ¼z isyen
d on
ĠT ic
Ġtan Ä±ÅŁ
ĠÃ¶zg Ã¼
y sa
ĠAr ab
Ġkat Ä±lmÄ±ÅŁtÄ±r
ĠPar lament
Ġproj e
Ġk Ã¼l
ak s
Ġve fat
Ġyir mi
Ä±n ar
Ġsab ah
ĠtanÄ± ÅŁtÄ±
ĠgÃ¶ster diÄŁi
ĠeÄŁ len
ĠEd ward
ĠN a
ĠW r
ĠRom anya
3 6
Ġd ijital
Ġkal dÄ±ÄŁÄ±
ĠiÅŁ e
ĠH ukuk
Ġbulun maktaydÄ±
Ġtip i
eÄŁ e
ĠmaÃ§ Ä±n
Ġkon uk
Ġ197 8
Ġkitab Ä±nda
Ġkar Ä±ÅŁtÄ±r
Ġv Ã¼cut
ĠseÃ§ ilmiÅŁtir
ĠgÃ¼c Ã¼nÃ¼
ec h
ĠW est
Ġuz anan
Ġtep ki
ĠJack son
Ã¼m an
ĠÅŁ ef
Ġmill iyet
ĠsÃ¶zc Ã¼k
ÅŁ Ä±k
it i
Ġkit l
ĠÃ§alÄ±ÅŁmalar Ä±nÄ±
Ġun vanÄ±
ĠdÄ±ÅŁ Ä±ndaki
ĠMart in
Ġit tifak
Ġyap Ä±ldÄ±ÄŁÄ±
mem iÅŁtir
ĠBÃ¶l Ã¼m
h ak
Ġay Ä±
Ġn ih
ĠbaÅŁar Ä±sÄ±
Ġ196 7
Ġ af
Ġs ip
S an
Ġ197 7
Ġk Ã¢
Ġtarih te
M S
onom ik
Av rupa
ĠDevr imi
Ä ģ
Ġantr en
Ġhar it
ĠAv rup
on ik
ĠH ey
Ġtip ik
b arat
s Ã¼
ĠseÃ§ ilen
Ġmah al
ĠN BA
ug ust
ĠBelediy esi
Ġkontrol Ã¼
A B
l iy
Ġonun la
ĠFat ih
Ġm ir
Ġ" (
ĠÃ§ocuk larÄ±
Ġg e
lik te
Ġada yÄ±
ÅŁ am
ĠG rand
Ġil inin
ĠsÃ¼r Ã¼ldÃ¼
ĠSonr aki
Ġd ey
Ġ197 1
Ġ196 9
ĠBas ketbol
Ġal fab
Ġalan larÄ±
Ġot ob
Ġbak Ä±ÅŁ
ĠD om
c Ä±k
Ġbir ini
19 0
ĠtÃ¼r leri
Ġmahk Ã»m
ĠSel im
ĠÃ§ iÃ§
m ediÄŁi
Ġkap an
ĠiÅŁlet im
Ġunvan Ä±nÄ±
ĠK ent
Ġgetir en
ĠkÄ±sm Ä±nda
ĠC la
Ġp adiÅŁah
Ġay larÄ±nda
Ġhareket e
Ġhat tÄ±
200 5
ĠAn tik
i x
Ġj e
Ã¶ÄŁr etim
3 9
Ġal Ä±p
Ġa ilenin
Ġdiren iÅŁ
ĠKonstantin opolis
Ġor anda
h el
ĠgÃ¶r sel
ĠV ic
ĠLe on
u x
ĠF Ä±r
Ġev inde
ĠbÃ¶lg edeki
Ġsev iye
Ġperforman sÄ±
dÄ±r Ä±m
ek tif
ĠyayÄ±n lanmÄ±ÅŁtÄ±r
isi p
Ġayak lan
ik let
Ġg r
Ġ lab
Ġb an
Ġp iyan
oloj isi
Ġsor u
ÄŁ e
ĠÃ¼st lendi
ĠsÃ¶ylem iÅŁtir
Ġr eh
Ġnumar alÄ±
Ġnes il
Ġolas Ä±lÄ±k
ĠLou is
em ek
ĠÄ° dar
abilir ler
Ġg ayet
Ġ19 19
Ġzor unlu
ĠHar ry
Ġi yon
cÄ± larÄ±n
ĠdÃ¶nem lerde
ĠoÄŁ l
ĠarkadaÅŁ larÄ±
Ġcumhur iyet
em eye
it z
ĠaÃ§Ä±k Ã§a
Ġs ent
et iyle
ĠKar ab
Ġp erson
omet re
iye cek
ĠkaÃ§ Ä±n
ĠHan Ä±m
Ġcin ayet
isk op
ĠC am
ĠRecord s
4 4
inde dir
s ar
ĠgÃ¼Ã§ leri
Ġtak dir
g on
ĠÅŁark Ä±yÄ±
Ġmal iyet
ĠdÃ¼ÅŁ en
Ġteor isi
Ġlig de
Ġs uyu
om etr
Ġyap rak
Ġr akam
ĠdÃ¶n er
Ġark e
ĠyÃ¶ntem i
ĠM ekt
asÄ± z
Ġko ordin
Ġtas vir
m at
el la
it an
ĠgÃ¶ steri
Ġc ami
3 3
Ġ194 3
ĠiliÅŁk ileri
ĠPap a
D Ã¼nya
Ã¼k em
Ġelem ent
ĠbileÅŁ en
ib a
Ġy anÄ±t
Ġt ren
Ġok uy
ĠdÃ¼ÅŁÃ¼n ce
Ġm ac
Ġev rim
Ġfay d
ab ilmektedir
Ġkur duÄŁu
ĠE yal
Ġgrub unun
ĠA j
Ð º
ĠÃ¼rÃ¼n leri
Ġkur u
ĠsÄ±f Ä±r
Ġkal ma
Ġes in
Ġsezon unun
ĠEr tesi
m adÄ±ÄŁÄ±
usu f
ĠPro gram
aÅŁ Ä±
ĠyÃ¼r Ã¼r
ĠSh ow
âĢĿ ,
iy en
ĠulaÅŁ Ä±m
Ġoper a
ĠSav unma
Ġprotest o
ĠkarÅŁÄ± ya
d Ã¼z
liÄŁ indeki
Ġreak siyon
ĠSSC B
sk y
ĠGÃ¼ven lik
Ġen diÅŁ
ĠbaÄŁ Ä±ÅŁ
Ġvar lÄ±ÄŁÄ±nÄ±
Ġsistem in
ĠBir leÅŁmiÅŁ
Ġok udu
ĠHÃ¼k Ã»met
ĠiÅŁ birliÄŁi
Ġkariyer ine
il iyor
luÄŁ a
Ġsava ÅŁta
n es
in s
Ġver gi
Ġat mosfer
Ġol uÅŁtu
Ġz am
Ġkullan Ä±lmasÄ±
malar Ä±n
ĠY ugoslav
ec t
Ġhayat Ä±na
ĠP op
8 5
ĠKar l
Ġmerkez inde
Ġkom Ã¼nist
B azÄ±
ĠyÄ±l larÄ±n
ĠÃľ st
ok ulu
ĠÃ ¢
Ġbelir tir
ĠKo le
ĠkadÄ±n lar
Ġdal Ä±nda
Ġtay in
ĠkadÄ±n larÄ±n
Ġidar i
Ġk oz
Ð ²
Ġf en
ĠOrt odoks
o ta
Ġyap ma
ĠL in
Ġtoprak larÄ±
aÅŁ Ä±r
[ [
Ġden et
Ġist ik
Ġ196 1
Ġyer inde
ans a
er g
ĠM ev
Ġs Ã¶mÃ¼r
az e
ĠRom an
av ar
ĠAn g
ĠmÃ¼z iÄŁ
Ġola ÄŁan
Ġd Ã¼k
Ġolm ay
Ġ194 2
ort h
or g
ĠbeÄŁ en
im er
Ġp lay
Ġz ehir
ĠD Ã¼k
ik at
ĠBu ffy
ov i
Ġ197 6
ĠgÃ¶rÃ¼l mÃ¼ÅŁtÃ¼r
m p
Ġs olo
ĠM im
ĠR od
ĠalbÃ¼m Ã¼nÃ¼
im et
ĠÃ§aÄŁ daÅŁ
Ġmuhal ef
Ġ196 5
ĠsÄ±k Ä±
Ġprogram Ä±nda
g ur
on lar
acak tÄ±
ĠÃ¶y kÃ¼
ĠÃĩel ebi
Ġsay ede
A M
ĠG ro
200 4
ĠE dir
Ġb ol
dÄ± lar
Ġyan lÄ±
Ġkazan dÄ±ÄŁÄ±
Ġmem ur
> "
ĠÅŁehir de
ĠÃ§ eÅŁ
arb akÄ±r
ĠKit ap
t es
ĠMad rid
Ġhakim iyet
Ġt Ã¼f
ĠK arak
lam alarÄ±
om e
ic s
Ġan Ä±t
Ġoy una
Ġeser ler
u da
ĠsÄ±r adan
Ġer tesi
Ġbah Ã§
Ġderg isi
ĠyÃ¶rÃ¼n g
Ġs Ã¼v
ir li
eler iyle
Ġtur da
lam alar
ĠY Ä±ldÄ±z
ĠL is
ĠÃ¶r neÄŁi
Ġpoz itif
ur du
ĠStal in
Ġk er
ĠÃ¶ t
Ä±nÄ± z
Ġver meye
ade mi
ĠArap Ã§a
ĠgÃ¶r dÃ¼ÄŁÃ¼
os h
Ġalan larda
Ġf Ã¼z
ĠÃ¶z gÃ¼n
malar Ä±na
Ġdevlet i
s o
Ġinti har
ĠN ev
ĠRom alÄ±
4 6
ĠoluÅŁtur mak
Ġun ut
Ġsunu cu
lov ak
Ġpro dÃ¼k
ĠAda sÄ±
Ġkim s
ĠB ig
Ġok un
Ġku antum
un i
ĠS tr
ĠS tadyum
ĠS ek
ĠgÃ¶rev inden
Ġboyut lu
l al
Ã§ ilerin
Ġl ak
ĠÃ¶ len
Ġ196 6
m alÄ±dÄ±r
ĠV ir
ash ington
H ar
ĠD in
ĠE ge
ĠAr j
ĠyaÅŁam aktadÄ±r
Ġiler leyen
ĠI r
ĠsÃ¼r Ã¼mÃ¼
ov er
Ġter imi
ĠdoÄŁrult usunda
iy eri
Ġyet er
Ġhalk Ä±nÄ±n
Ġiy ileÅŁtir
Ġetk ileri
Ġduy gu
o j
Ġm avi
Ġad Ä±nÄ±n
ĠsÄ±r t
tik ten
Ġm Ã¼ttefik
Ġsonr alarÄ±
ĠbÃ¶lÃ¼m Ã¼nÃ¼
ar ya
ĠDaÄŁ larÄ±
ĠA Ã§Ä±k
ĠL im
ĠÃ§Ã¶z Ã¼n
ĠTek nik
ĠSar ayÄ±
Ġdarb e
i den
ĠR ey
Ġhayat a
et a
ĠT iyatrosu
ĠR oy
ĠAl p
Ġli gi
Ġil ham
ig h
ĠYar Ä±m
m Ã¼ÅŁtÃ¼
ĠsÃ¼r eli
Ġist atistik
ĠKon ya
land iya
Ġkar anlÄ±k
ĠUn ited
r in
asÄ± dÄ±r
ĠÅŁiddet li
8 6
Ġem ekli
Ġbin lerce
Ġtab anlÄ±
ĠdaÄŁ Ä±lÄ±m
oz of
Ġbul gu
ĠP lat
Ġkon ferans
Ġotom atik
Ġnet ic
ĠSiv as
Ġlist esine
ĠmÃ¼l k
an us
Ġbin a
Ġd elik
or s
ĠbaÄŁlan tÄ±lÄ±
r as
ĠÃ§ek en
os unu
Ġav antaj
k y
ĠF ars
ĠtanÄ±n an
Ġmut lak
Ġp eÅŁ
Ġver miÅŁ
ĠalÄ±n arak
Ġor kest
ĠÃĩ aÄŁÄ±
as an
I D
N e
Ġok si
Ġv ektÃ¶r
ĠbÃ¶lg eler
ĠbÃ¼ny esinde
Ġdet ay
4 9
Ġt Ä±r
Ġson suz
ĠF re
ar dÄ±
Ġmuh afaz
ĠyarÄ±ÅŁ ma
ĠKal esi
A C
Ġi P
tan Ä±n
Ġ3 6
ĠsatÄ±ÅŁ a
Ġm is
ĠSt ev
ĠseÃ§im leri
H ay
an na
ĠS ic
ĠÃĸ mer
enc er
z im
ĠsÄ± ÄŁ
ĠdeÄŁer li
ĠKurt uluÅŁ
5 5
A b
ĠH acÄ±
ot lar
Ġbelirt miÅŁtir
Ġo v
m ede
Ã¼l mÃ¼ÅŁ
ĠJ ac
Ġ192 1
ĠMur at
Ġfrek ans
Ġk Ä±l
ĠgÃ¶rev e
Ġkur ban
ĠkÃ¼t Ã¼phan
es h
Ġayr Ä±m
ĠkÃ¶y lÃ¼
Ġyer leÅŁti
Ġres men
Ġtoprak larÄ±na
ĠR ol
ĠN ur
ĠDev rim
Ġrek abet
Ġh ad
ĠÃ§alÄ±ÅŁtÄ± ÄŁÄ±
ĠoluÅŁtur maktadÄ±r
ĠfÄ±r sat
Ġg id
ĠÅŀ ark
Ġist ediÄŁi
Ġkaynak larÄ±
Ġ193 9
ĠbaÅŁ layarak
ĠHÄ±r vat
ĠÅŁ eyi
Ġed ilerek
ĠÃ¼lk elerin
ĠT w
Ġ196 4
ĠulaÅŁ an
ĠVak fÄ±
Ġzaman a
ib er
ĠN et
ĠyÃ¼ksel en
Ġtop lu
ap Ä±
Ġasker leri
Ġdah i
ĠilÃ§ esine
Ġkavram Ä±
ĠparÃ§ alarÄ±
ĠgeliÅŁ meler
op h
ĠÃ§ek ilen
Ġrom anÄ±
ĠkarÅŁÄ± tÄ±
ĠMÃ¼dÃ¼r lÃ¼ÄŁÃ¼
9 7
las man
ĠDÄ±ÅŁ iÅŁleri
Ġbirbir inden
Ġder gi
Ã¼kem mel
Ġs el
orat uvar
ĠN as
ĠBu gÃ¼n
Ġakadem ik
ab ileceÄŁi
Ġtab i
Ġoyn amÄ±ÅŁtÄ±r
t Ã¼rk
ĠA st
ĠO ne
Ġmak am
ĠkÄ± yaf
ĠÃľÃ§ Ã¼ncÃ¼
ĠtakÄ±m a
ĠyardÄ±m cÄ±sÄ±
N E
Ġt en
Ġh ab
Ã¼l mesi
op er
it Ã¶r
ĠÅŀ eh
Ġhep si
Ġrahat sÄ±z
am asÄ±na
Ġdev ir
Ġtem as
BM M
ĠS ir
it o
ĠeÅŁ cinsel
lem ektedir
ĠÃ¶l Ã¼
at lar
Ġgetir ir
Ø§ Ù
Ä±n tÄ±lÄ±
ĠE st
ĠdoÄŁ a
ĠÃĸ lÃ¼m
ĠSar ay
c ileri
ab ak
Ġson larÄ±na
Ġyans Ä±t
v eti
asÄ± t
Ġbu har
eb ilen
Ġbulun uyordu
Ġtop r
ĠyaÅŁ Ä±ndaki
Ġhar c
Ġik iye
ĠyaÅŁam Ä±ÅŁ
ĠSÄ±r bistan
li e
Ġal masÄ±
ĠbaÅŁ lay
ĠdoÄŁ usunda
Ġcins iyet
k eri
ci a
ĠÃ§arp Ä±ÅŁ
Ġbat Ä±sÄ±nda
I S
ĠgÃ¶rÃ¼n Ã¼r
Ġbak an
ĠÃĸr gÃ¼t
Ġbir imi
Ġ( )
ic o
ĠÃ¶nemli dir
ro id
ip p
Ġkr iz
Ġkazan arak
ĠkÃ¶y Ã¼
9 6
ers e
ĠK e
Ġed iyordu
Ä±lÄ± yor
ĠaÃ§Ä±l Ä±ÅŁ
ĠE b
ĠZ el
ĠÄ°mparator u
ĠeÄŁitim ini
Ġman astÄ±r
T op
ik an
baÅŁkan lÄ±ÄŁÄ±
Ġ eb
Ã§ Ä±lÄ±k
Ġk Ã¶l
al y
ec er
ĠK Ã¶rf
ĠgÃ¶rÃ¼n Ã¼m
M ac
m es
ĠK el
lik ler
ep t
ĠgÃ¶Ã§ men
ĠbaÅŁ Ä±
ĠbaÄŁ lam
Ġter Ã¶r
ay Ä±k
h r
Ġbu lam
malar a
Ġer iÅŁim
ĠfÄ±r lat
Ġprofes Ã¶r
s Ä±nda
ĠGen ellikle
fi eld
Ġol ayÄ±
Ġkomp lek
Ġolduk larÄ±nÄ±
anak kale
9 8
Ġger ilim
Ġm ay
ok u
ĠyÃ¶netim inde
_ _
Ġay lÄ±k
ĠgeliÅŁtir ilen
Ġsak in
Ġprot okol
ĠR ed
Ġ196 3
Ġolduk tan
ĠDemokr atik
ĠO b
Ġayr Ä±lan
Ġgem isi
ĠAz iz
Ġkullan mak
Ġbey in
ĠC ap
uÅŁ u
amÄ± ÅŁtÄ±
1 00
Ġbulun masÄ±
Ã¼rk en
Ġsuik ast
ĠE ÅŁ
201 5
ĠÃ¶lÃ§ Ã¼m
Ġyeten ek
ĠYÃ¶n etim
Ġger iye
ĠbÃ¶lg elerinde
ĠdÃ¶nÃ¼ÅŁ Ã¼m
ĠBar Ä±ÅŁ
er yal
T P
s ul
ĠK av
Ġ194 8
Ġuygulam alarÄ±
ĠKulÃ¼b Ã¼
ĠgerekÃ§ esiyle
Ġ us
ĠnÃ¶ tr
iz mi
Ġc Ã¼m
ĠOk ul
O n
Ġbul mak
ez ya
Ġdemir yolu
Ġf el
ĠN at
Ġetm eyi
ĠyÃ¶net tiÄŁi
ĠkulÃ¼b Ã¼
ĠAbd ullah
ĠaÅŁ Ä±k
Ġbildir di
ak lar
Ġm a
ĠS S
ĠM it
Ġt Ä±b
le c
Ä±lÄ± yordu
Ġok ulu
7 6
ak lÄ±
Ġsun du
ĠMÃ¼ hendis
Ġmerkez li
g Ã¢r
m ara
luÄŁ unun
w ell
ey erek
Ġolm asÄ±ndan
Ġyum uÅŁ
Ġmec lis
ĠaÄŁÄ±r lÄ±k
ĠÃ¶ÄŁrenc isi
Ġy iyecek
ed iler
di p
Ġreddet ti
Ġd isip
Ġpar lament
ĠJos eph
Ġgelin diÄŁinde
ĠÅŁim d
U lus
ĠAl t
Ġtut ul
ĠhazÄ±r lanan
k larÄ±
Ġh is
Ġc en
Ä į
ĠN ob
ĠarasÄ±nda dÄ±r
Ġcem aat
l ine
v el
ĠY usuf
Ġuy um
Ġgiy en
Ġg rafik
ans iyon
ĠAl lah
ĠkeÅŁ if
s eri
st a
ĠgÃ¶r Ã¼lebilir
ĠTarih i
Ġ194 6
ĠbaÅŁlangÄ±Ã§ ta
ÄŁu z
ĠÅŀ eyh
ĠPro fes
om er
ĠR en
ĠyÃ¼k s
Ġgeldi ÄŁinde
ĠÃ¶n lem
ĠJ ust
ĠMil li
Ġmim ari
4 1
Ġs et
ĠP ek
Ġbul an
ĠMahkem esi
Ġhast alÄ±ÄŁÄ±
ĠnÃ¼fus unun
ĠDiy arbakÄ±r
. '
ĠÃĩ ev
Ġer di
Ġtekn oloji
luÄŁ una
ĠÅŁampiyon luÄŁu
ĠAd alet
ed iÄŁ
ĠKut sal
B Ã¶l
Ġin f
Ġbor Ã§
ĠErk ek
le ÅŁt
uv a
am ayan
ĠD eÄŁ
ĠW ashington
Ġav uk
ĠEdir ne
Ġy av
ĠA ugust
Ġan Ä±lan
Ġsem t
ĠzÄ±rh lÄ±
Ġs ig
ok ia
ĠR ay
ĠuÄŁr at
Ġorgan ize
lu b
Ã¶r neÄŁin
m ini
Ġs os
ab i
Ġtan r
ĠMec lis
Ġk imi
Ã¼y e
Ġkol eksiyon
Ġmev ki
im ine
Ġvir Ã¼s
ĠsonuÃ§ larÄ±
ĠE bu
Ġalan a
langÄ± Ã§
ĠB it
ĠgÃ¶ster ilmiÅŁtir
ĠsÃ¼reÃ§ te
ĠA ÄŁa
Ġfelsef e
ir al
Ġg Ä±da
az z
ĠF a
Ġyas a
Ġcis im
ĠErz urum
ĠAdan a
ĠB oz
ĠÃ§Ä±k arak
Ġsor uÅŁtur
ĠkÃ¶y Ã¼n
Ġ192 2
ch i
onom i
ĠsÄ±n av
ĠC as
ist e
A P
ĠJ an
Ġmalz eme
Ġfestiv al
ĠG Ã¼zel
ĠbaÅŁ lanmÄ±ÅŁtÄ±r
ĠGaz et
4 2
l og
ĠÃľ r
ĠKomut anlÄ±ÄŁÄ±
Ġ4 00
ĠanlaÅŁ maz
8 9
ak er
Ġkan alÄ±
II I
ĠÅŁ ansÄ±
mek le
ĠmÃ¼da h
ÄŁ inin
on na
ĠB alÄ±k
in dir
ĠC er
ĠbÄ±rak Ä±ldÄ±
Ġ12 0
Ġkent inde
Ġyokt u
Ġy el
ĠMan chester
ĠÃ§ekir de
ĠF l
ra j
ow er
ĠtanÄ±n mÄ±ÅŁ
Ñ ĥ
Ġgen eral
ĠtaÅŁ Ä±r
ĠD Ã¼z
ĠÅŁampiyon luk
ĠbaÅŁkan lÄ±k
ĠÃ§ocu ÄŁ
7 7
D ev
Ġ- -
ĠdÃ¼zey de
s ini
ĠT y
Ġhal en
san d
ĠY an
Ġtop lanan
? "
ĠD ani
ĠyÃ¶n de
Ġolay larÄ±
Ġp ir
ĠtakÄ±m da
Ġ195 6
l astik
Ġ acÄ±
am alarÄ±
Ġtarih lerinde
ĠS adece
ĠdÃ¼z elt
Ã¶yl elikle
K K
z at
ĠsÃ¼r gÃ¼n
Ġem ek
K ur
Ġgen etik
bak anÄ±
Ġdepr em
D iÄŁer
liÄŁ inden
Ġzinc ir
Ġver im
M Ãĸ
av y
om en
ĠYahud iler
d el
Ġark asÄ±nda
ĠKol ordu
ĠMey dan
ĠEsk iÅŁehir
w in
ĠD es
Ġ3 3
ĠAf gan
4 3
ĠBank asÄ±
ĠM ik
Ġkal eme
ĠTÃ¼rk ler
I A
k s
Ġal kol
Ġn isp
ub u
ĠkalÄ± cÄ±
ĠArj antin
Ġar azi
Ã¼m r
ĠÅŁek li
ĠMaked onya
ĠD iz
eÄŁ ine
Ġtan esi
tik Ã§e
Ġsenar yo
Ġbul ut
Ġkullan Ä±lm
ĠiÃ§er ik
ĠSaÄŁ lÄ±k
ĠolmasÄ± dÄ±r
Ġedeb ilir
L a
Ġh oc
ĠÅŁar ap
ÅŁ iv
ĠFin landiya
r Ã¼b
ĠK n
ĠV ik
Ġyar alan
ĠBÃ¼yÃ¼k ÅŁehir
Ġ196 2
ĠBol ÅŁev
Ä±y dÄ±
ĠL ad
Ġbun larÄ±
Ġmat eryal
m un
Ġl ayÄ±k
ĠdÃ¼ÅŁÃ¼n Ã¼r
Ġkayb ed
ĠB Ã¼tÃ¼n
ĠsaÄŁ lan
oz a
kÄ±n ma
t im
Ġf et
Ġsorun larÄ±
ol an
ĠilÃ§ esi
ĠsaldÄ±rÄ± ya
Ġbenim s
E ski
ĠY arÄ±
Ġsat an
ĠgeÃ§ mektedir
Ġak Ä±n
Ġ Ø
Ã¢ nÄ±
ĠdeÄŁiÅŁiklik ler
ã ĥ
af t
iÄŁ eri
ĠgeliÅŁ me
ĠÅŁarkÄ± larÄ±
ĠC ad
A L
ĠkuruluÅŁ u
oÄŁ ullarÄ±
Ä°ngiliz ce
Ġd om
ĠT es
Ġolur sa
ĠMus ic
Ġdonan Ä±m
ĠkÃ¶ t
An cak
rom an
ĠÃ§ ay
Ġgel ec
Ġor adan
ĠBoÄŁ az
Ġu fak
Ġort alarÄ±nda
ĠAlman ca
la mÄ±
Ġp or
eg atif
Y unan
am amÄ±ÅŁtÄ±r
Ġm esel
ĠT Ä±p
Ġv urg
ĠbÃ¶lg esel
Ġsay gÄ±
Ġgetir miÅŁtir
Ġsosyal ist
el lo
Ġdos y
t op
Ġyap Ä±lm
Ġkapsam lÄ±
ak larÄ±
ĠAn talya
ĠCh rist
200 3
Ġbahs ed
ĠG a
ĠP en
nin g
ers in
Ġdev re
ĠEur o
Ġden etim
ub b
Ġkurul masÄ±
ĠkarÅŁÄ±lÄ±k lÄ±
o und
ĠA g
Ġist ek
Ġil i
Ġmad en
Ġuzak laÅŁtÄ±r
Ġbirbir lerine
k es
un us
ĠPro f
Ġfinal inde
Ġsiyas al
p ar
p aÅŁa
Ġgel erek
ĠLe ague
Ãľ Ã§
Ġred ded
e da
Ġk ere
ay Ä±sÄ±yla
ĠM ut
ĠdÄ±ÅŁ Ä±na
Ġh uz
ĠF lor
Ġtek er
ĠalbÃ¼m de
ĠÃ¶zellik ler
ĠT iyatro
ĠT BMM
Ġat arak
" âĢĻ
Ġyap arken
ĠO S
ĠÅŁek er
ĠÄ°ÅŁ Ã§i
ĠD Ã¼ÅŁ
ĠW ill
ĠÃ¼st Ã¼ne
ĠLe e
E R
de v
Ġsan iye
Ġdikkat e
Ġ193 3
Ġoyuncu lar
ĠhÃ¼c um
Ġyarg Ä±lan
ĠÃ¶l Ã§ek
ĠY en
Ġaz Ä±n
Ġayr Ä±lmÄ±ÅŁtÄ±r
yÄ± la
Ġ195 9
Ġboz ul
ĠiÅŁ i
Ġdok un
ey gam
Ġ195 7
) ;
di z
ĠDevlet ler
200 2
Ġtemsil cisi
ĠiÅŁlem i
ĠB aba
ĠgeliÅŁtir me
Ġ195 8
7 1
ĠL ive
eygam ber
il iyordu
ĠK a
ĠÃĩ ift
tr al
ĠR ef
et on
ĠF ir
Ġbun lardan
s it
laÅŁ masÄ±
Ġdeney im
ĠL an
ĠFilm in
Ġfil ozof
9 2
b it
Ġmerkez ine
Ġasker ler
Ġders leri
ĠgerÃ§ ekten
Ä±l mÄ±ÅŁtÄ±
ĠdeÄŁiÅŁ en
ĠgeÃ§ir en
Ġsan ay
Ġgerek tiÄŁi
Ġp iÅŁ
ĠÃ§ey rek
lÄ±ÄŁ Ä±ndan
ĠAt lan
Ġhas sas
i el
ĠT rans
Ġger eÄŁi
Ġait tir
aw a
m ekten
ĠÃľ n
8 8
Ġy am
ĠdoÄŁ umlu
Ġrol Ã¼nÃ¼
Ġgel ip
Ġ192 3
Ġuygulan an
Ġak rab
ĠÄ°l Ã§
Ã¶y Ã¼k
ĠiÃ§er mektedir
Ġkaps ayan
ĠyÃ¼rÃ¼y Ã¼ÅŁ
ĠdeÄŁiÅŁtir ildi
ĠCem iyeti
ĠSm ith
ĠL or
200 1
ĠdeÄŁ in
Ġsistem ine
6 6
ec k
ĠÃ¼st e
ĠbaÅŁkan lÄ±ÄŁÄ±
ograf ik
Ġbuz ul
Ġrest or
l ob
uk ur
ĠV la
Ġkil ometre
ĠKafkas ya
Ä±m Ä±na
ĠaldÄ± lar
ĠYunan ca
re am
Ãĸ r
ĠiliÅŁk isi
Ġval isi
ĠR ap
ĠMo dern
ĠÃ¶y k
Ġ19 14
ĠFran cis
ch er
ĠbaÄŁÄ±msÄ±z lÄ±k
Ġkullan Ä±ldÄ±ÄŁÄ±
ĠKral iyet
Ġan ne
Ġmin eral
ĠÃ¶n lemek
ĠgerÃ§ekleÅŁtir di
r ig
ab eth
ĠÃ¶lÃ¼m Ã¼ne
ĠÅŁim di
Ġbulun muÅŁ
Ġserv is
ĠD VD
ĠL ove
ĠÃ¼lk eleri
Ġsoy lu
ĠHaned anÄ±
E v
ĠCh amp
ĠS eri
om ent
ĠStadyum u
T em
Ġo yla
Ġtar if
Ġz aten
ĠyÃ¼zyÄ±l dan
ĠÃĸn c
T C
Ġve z
Ġver imli
ÅŁ ap
ada sÄ±
Ġkim lik
Ġtasar Ä±mÄ±
ĠaÄŁÄ±r lÄ±klÄ±
ĠW eb
B il
az en
ĠgÃ¶n Ã¼llÃ¼
ret er
. âĢĿ
ad Ä±n
ayÄ± cÄ±
ĠBaÅŁ bakan
ĠThe od
ilm ez
Ġkat man
ĠuÄŁr adÄ±
ĠT o
ĠG ran
ĠY eÅŁil
Ġiz len
S h
Ġtop lama
Ġbelir len
ĠalÄ±n Ä±r
Ġmad di
r asÄ±
lÃ¼ÄŁ Ã¼ne
w a
ĠR am
ad et
ĠÅŁ iÅŁ
Ġproj esi
Ġ1 000
yon u
ĠhikÃ¢ ye
Ġtec rÃ¼b
a e
c on
Ã¼ d
Ġbir iydi
Ã¶l y
Ġmant Ä±k
Ġkat li
Ġpart inin
ĠmÃ¼da hal
ĠjÃ¼r i
ĠD ay
ĠalÄ±n masÄ±
ĠS arÄ±
Ġf akÃ¼l
Ġmekan ik
s is
in er
ĠF ried
ĠR on
Ä° kinci
Ġsun uldu
ĠkÃ¶pr Ã¼
ĠE ser
Ġar d
ĠC D
iyor um
ĠkatÄ±lÄ±m cÄ±
ĠKÃ¶ pr
Ġg Ã¼z
Ġm i
ĠÃĩ anakkale
ĠsÃ¶z leri
Ġkuvvet lerinin
Ġanla tan
6 8
Ġ19 17
Ġsen ary
Ġadam larÄ±
ĠBaÄŁ dat
ĠCez a
Ġv iz
ĠtakÄ±m lar
Ġola caÄŁÄ±
ĠTic aret
U z
Ġg ide
6 4
ĠÃ§ am
199 0
ĠÃ¶dÃ¼l lendir
Ġbirey sel
c y
ĠT rak
Ġekonom i
sÄ±z Ä±n
Ġgrup larÄ±
Ġsahn eye
ĠÃ§ ak
op ag
ĠAs keri
Ġelekt ro
ĠSa int
ĠT Ã¼r
aÄŁ Ä±ndan
Ġeser inde
ing er
ĠsonuÃ§ lar
Ġ192 4
Ġkoy du
ĠC han
Ġc ilt
uv veti
i os
Ġdiz isinde
Ġ193 8
A h
ĠbÃ¶lg eyi
Ġdoktor a
am ily
Ġin tik
Ġhip ot
Ġbelir lenmiÅŁtir
ĠHal ep
ĠgÃ¼ven li
ĠBos na
Ġmik tarÄ±
Ġuygulam asÄ±
Ġnokta da
ĠMÃ¼n ih
ĠS or
ĠY ani
ak e
Ġsav unu
ĠD ep
ĠD Ã¶rt
Ġolm alÄ±dÄ±r
r ut
Ġmev sim
Ġkel ime
alim anÄ±
A d
ĠB ek
Ä° ki
Ġist ediÄŁini
Ġkut up
ĠSup er
ĠO ÄŁuz
uÅŁtur ucu
om ut
Ġisim ler
Ġkolay ca
B unun
u ar
y du
eg ori
ĠboÅŁ luk
Ġek len
ĠCh ar
Ġ195 4
ada ÄŁ
em ber
ĠolduÄŁ unda
Ġetk isiyle
ti an
da sÄ±
Ġt aki
Ġtamam lan
Ġeki b
ĠhÃ¢ lÃ¢
ar lÄ±ÄŁÄ±
Ä±ldÄ± ÄŁÄ±nÄ±
ĠArnavut luk
Ġs Ä±z
as e
Ġat Ä±ÅŁ
ĠKon gresi
Ġgol le
Ġt Ã¼c
Ġ195 5
B illboard
c asÄ±
k g
Ġd ava
it r
ĠalbÃ¼m leri
ĠyayÄ±m lan
ĠH el
ĠÅŀ u
ĠÄ° d
Ġolm ayÄ±
Ġist eÄŁi
ĠYugoslav ya
ĠKon ser
T ek
tÄ± lar
ĠÃ§alÄ±ÅŁ mÄ±ÅŁtÄ±r
Ġzor luk
Ġkat Ä±lmÄ±ÅŁ
Ġkop ya
8 7
ĠK em
ĠÃ¶n cÃ¼
ĠaÄŁ Ä±z
p ool
ur ken
Ġev ine
ĠEr doÄŁan
E C
Ġar asÄ±ndan
Ġred de
Ã® n
Ġ193 6
ĠgÃ¶rÃ¼ÅŁ meler
ĠTim ur
m eli
ĠyÃ¼z yÄ±la
Ġsistem ini
l Ä±lÄ±
Î ±
ĠKar deÅŁ
201 6
ĠB art
ĠyÄ±l dÄ±r
ĠV il
ĠI l
Ñ ĭ
ĠE c
ĠgÃ¶nder ilen
ĠT ro
isi dir
Ġken tin
Ġ195 3
Ġkelim esi
ĠA il
ĠC HP
Ġsad razam
ĠB ob
ĠdÃ¼z lem
Ġordus unu
ĠÃ§ekir dek
as on
Ġgec ik
Ġettik leri
ĠyaÄŁ mur
Ġnetic esinde
G er
ĠÃľ l
Ġbin asÄ±
Ġ194 7
ĠO v
Ġbest el
D e
ĠC ih
tik leri
A N
m amasÄ±
it ika
ĠÃ Ĥ
ĠbÃ¶lg eleri
em eyen
ĠEn ter
ĠyaÅŁam Ä±nÄ±
ĠBak Ã¼
Ġtekli fi
ĠetmiÅŁ lerdir
Ġhidro jen
Ġc er
ĠgeliÅŁ en
o di
Ġtarih ine
ĠbiÃ§ imi
9 4
ĠsayÄ± labilir
ĠetkileÅŁ im
at an
Ġr ez
Ġan im
ĠaÃ§Ä±k lamÄ±ÅŁtÄ±r
) :
S D
j a
ĠÅŁarkÄ± lar
l s
Ġl ise
Ġbilin Ã§
Ġli ber
ay n
Ã¼n c
Ã¼s Ã¼nÃ¼
Ġt Ã¼y
Ġot el
elen ek
Ġgerek sin
ĠaltÄ±n cÄ±
ĠcoÄŁraf i
z an
ĠH um
av uz
ĠgÃ¶ster ilen
Ġser tif
Ġilet ken
Ġtutuk landÄ±
ez id
Ġas la
al li
Ã¼n ce
Ġgerek mektedir
ron z
ĠHat ta
ur lar
ilm esiyle
ĠVic tor
9 3
Ġd iÄŁeri
ĠT apÄ±n
A m
f t
y aspor
anÄ± p
ĠkÃ¼ltÃ¼r Ã¼
Ġziy ade
Ġbes in
Ġb ez
ĠB lu
ĠyetiÅŁ kin
N ew
o id
Ġyaz Ä±lmÄ±ÅŁtÄ±r
ĠkiÅŁ iye
Ġgazet e
ĠHas tan
ĠLit vanya
r ap
Ġkad Ä±nÄ±n
Ġ7 5
ĠMar ia
tain ment
y ak
Ġm Ã¼kemmel
lam az
ĠAd alarÄ±
ĠTrabzon spor
o ann
edi a
Ġden en
ĠT eÅŁ
eÄŁ inde
Ġuy umlu
ĠÅŁeh re
p a
ĠbÃ¶lg esinin
ĠkÃ¶ mÃ¼r
ĠeÅŁ y
ĠKÃ¶y Ã¼
Ġrok et
Ġfik ri
ed ral
ĠU m
Ġok yanus
ĠkalÄ± p
ĠmÃ¼dah ale
ĠmÃ¼zik al
laÅŁ mÄ±ÅŁ
Ġbay r
Ġide al
ĠsanatÃ§ Ä±sÄ±
" ;
Ġtut tu
Ġfonk siyonu
P S
ĠKur umu
ĠÃ¼cret siz
Ġduy ar
tÄ±k tan
Ġo d
Ġgetir diÄŁi
Ġb araj
Ġm ali
Ġgel mesi
Ã¢ l
ĠkonuÅŁ an
Ġpr atik
ĠB ill
Ġ19 15
ĠAm eri
Ġdeney sel
Ġk olu
ĠAl l
Ġbel lek
Ġbak ter
Ġpen altÄ±
ĠÃ¶z erk
Ġdayan Ä±r
B el
ÅŁ ah
Ġal acak
ĠG ram
iv ayet
eb ilmek
Ġmuhal if
ĠÃ§Ä±k masÄ±
ĠayrÄ± larak
eliÄŁ ine
u yla
gr ad
ĠTat ar
ĠG or
Ġist il
âĢ ĺ
ib ir
Ġtur izm
Ġkr om
Ġmec l
Ġim ha
ĠkÃ¶y Ã¼nde
Ġsp ekt
S p
Ġon lar
ĠdiÄŁer leri
ĠÃĸz gÃ¼r
Ġhuz ur
Ġen te
." "
lÄ±k tan
ĠkullanÄ±l maya
ĠL o
Ġkuy ruk
el eme
Ġay n
Ġdikkat ini
ĠÃ§erÃ§ev esinde
Ġi d
Ġn egatif
ĠBer n
az a
7 2
Ġ3 8
land alÄ±
ĠyapÄ±m cÄ±
ĠUz ay
g n
Ġtut um
5 3
Ġm or
Ġisim leri
ĠVad isi
ĠM od
ĠsavaÅŁ Ã§Ä±
ĠDemokr at
ĠSic ilya
Ġnisp eten
ĠbaÄŁ Ä±r
ĠgeÃ§ tiÄŁi
Ġyen ilik
k on
ĠaÃ§ ar
ĠÃ¶zgÃ¼r lÃ¼k
is iklet
Ġbiy olojik
Ġkazan mÄ±ÅŁ
ĠMar mara
o ley
ĠE p
op e
ĠkÄ±r sal
il leri
Ġv an
Ġgir erek
ĠÃ§alÄ±ÅŁ Ä±rken
ĠgÃ¶ster ime
Ġden em
ĠÃ¶ldÃ¼r Ã¼r
Ġtarih indeki
r iz
r ic
z o
om an
Ġetk iler
ĠKos ova
u ck
âĢ ¢
Ġ194 9
ĠkullanÄ± lab
ĠilÃ§ esinde
ĠmeÅŁ hur
9 1
ĠÃ§Ä±kar dÄ±ÄŁÄ±
Ġhas ta
Ġy ansÄ±
Ġter m
Ġdestek leyen
ĠRe al
Ġsap tan
ĠDol ayÄ±sÄ±yla
y anÄ±
ĠR ick
ag an
ĠyakÄ±n larÄ±ndaki
Ġed ici
ĠKo ca
Ġsend rom
Ġv ah
eder asyon
ĠTek n
Ġp iyade
Ġek sen
ĠNor man
ĠH ir
Ġbil gileri
Ġtarih ten
Ġetm iÅŁti
Ġkim ya
Ġspor cu
ĠKadÄ±n lar
ĠYahud ilerin
Ay nÄ±
Ġt oz
ĠdÃ¼ÅŁ er
Ġh Ä±r
Ġcez asÄ±
ĠdÃ¶nem inin
ĠG e
ec ilik
ĠulaÅŁ mÄ±ÅŁtÄ±r
ĠyÃ¼rÃ¼t tÃ¼
al og
da s
Ġolm amasÄ±
ĠAk ademi
l ileri
ay olu
ĠM i
Ġbur aya
Ġkans er
Ġk uvveti
Ġoran Ä±nda
5 6
un e
ĠD Ã¼n
! "
ĠB arb
Ġkur mak
ĠOr han
ĠM att
ĠÅŀ eri
Ġsor unu
Ġuzun luÄŁunda
ĠÃ¼lk eye
ĠalÄ±n mÄ±ÅŁ
o us
ĠÃ§Ä±kar Ä±lan
dÄ±k larÄ±nÄ±
Ġb ecer
Ġ3 4
Ġ195 2
K al
ĠdÃ¼ÅŁ Ã¼ÅŁ
Ġgetir ilen
ĠAs ker
Ġfor masÄ±
Kat egori
Ġkalab alÄ±k
ĠEdeb iyat
ĠtanÄ±m lanÄ±r
Ġ( %
Ġalan lar
Ġfilm inin
us ya
ĠGenÃ§ lik
us unu
ÄŁÄ± t
ĠkÄ±z Ä±l
ĠC O
Ġon ar
g al
Ġp ost
rid ge
Ġins anÄ±
Ġkam er
ĠChamp ion
Ġar ama
Ġtaraf tan
Ġkat Ä±lÄ±r
ĠÃ§alÄ±ÅŁ maktadÄ±r
Ġak ÅŁam
ĠÃ¶ÄŁrenc iler
ĠYÄ±l Ä±n
Ġop tik
ĠÃ¶ den
Ġver diler
ĠWilliam s
el a
ĠbaÄŁÄ±msÄ±z lÄ±ÄŁÄ±nÄ±
g ir
ken t
Ġolm asÄ±nÄ±n
Ġuzun luÄŁu
ĠboÅŁ an
ĠÅŁirket in
ĠLat ince
in stein
Ã§ Ä±sÄ±
Ġd eri
ĠS oy
ĠAr k
m ond
eb ilmektedir
Ġkur ÅŁ
ĠtartÄ±ÅŁ ma
ĠÅŁark Ä±sÄ±nÄ±
ey t
ĠU l
Ã¼le b
A S
ol k
Ġp Ã¼s
Ġkap lÄ±
Ġgetir ilmiÅŁtir
Ġah ÅŁap
ĠÃĸrgÃ¼t Ã¼
Ġolan lar
ĠsonuÃ§ landÄ±
Ġdok u
ĠTur n
ĠKaz akistan
as hi
ĠA la
ĠH un
Ġor dunun
Ġgir diÄŁi
Ġkoy u
ĠWr est
uz u
Ġuyg ul
Ġ lev
Ġm obil
ĠdoÄŁ ur
ĠKan unu
T an
i en
ĠG Ã¼Ã§
ĠE min
Ġak tÃ¶r
Ġ193 7
Ġgazet eci
Ġperson el
l asÄ±
Ġtarih Ã§i
ĠÃĩ oÄŁu
oz om
ĠD am
D on
eÅŁit li
y eni
Ġk Ã¼Ã§
ĠY al
Ġyarar lan
ĠAvrup alÄ±
es ir
li p
Ġist is
Ġyol culuk
ĠAnd roid
ĠSez ar
r ok
ĠR a
ĠeleÅŁtir iler
ĠkeÅŁf ed
Ġbelg esel
ĠdÃ¶v Ã¼ÅŁ
Ġyen di
M ah
Ġver ilmiÅŁ
ĠgÃ¶z Ã¼k
Ġv ek
Ġkaynak lar
meler ini
U n
Ġd Ã¶
Ġyap masÄ±
Ġ192 5
ĠsuÃ§ lu
ĠÅŀir ket
7 4
ĠbÃ¼y Ã¼y
0 5
Ã¼k sel
Ġgeri de
ĠYÄ±l dÄ±rÄ±m
ĠS lav
Ġgeldi ÄŁini
la caÄŁÄ±
ĠT our
ĠP ot
ĠKom isyonu
Ġbahs et
Ġr iba
c ilerin
Ġy eÄŁ
ĠaÃ§ mÄ±ÅŁtÄ±r
ak ta
ĠP akistan
len in
ĠÃ§ocuk lar
Ġkav uÅŁ
ĠIn ter
K on
ĠH elen
alar ak
Ġbelir siz
Ġv ide
ĠE P
mak tan
malar da
Ġdayan arak
Ã¢ tÄ±
ĠÃ¶zellik lerini
Ã¶n Ã¼
ĠMur ad
ĠSilah lÄ±
Ä± dÄ±r
Ä±l Ä±ÅŁ
Ġkullan mÄ±ÅŁtÄ±r
ĠsÄ±r aya
ĠyapÄ± t
h ol
st ri
eb b
Ġkom edi
ĠÃ§evr im
Ð ´
ĠL Ã¼b
elen en
Ġlab oratuvar
Ġp ul
ĠF en
ĠhÃ¢ len
ĠaÃ§Ä±klama da
ĠiÃ§in den
ĠdÃ¼zen lendi
Ġdil leri
Ġi ma
ĠT RT
ĠbÃ¶lg esine
ĠsÃ¶z Ã¼
m ad
Ġz ek
ĠdanÄ±ÅŁ man
D P
Ġs kor
ĠL ab
ĠMahm ud
ĠM ol
Ġkend isinden
ĠS iyas
ĠsÃ¼r Ã¼k
iÄŁ inde
ĠkarÅŁÄ± t
ĠÃ§eki ci
Ġal eyh
ograf i
f e
ĠÅŁ eri
Ã¢ m
ĠtÃ¼r et
ĠÃ¼y elerinin
S ovyet
Ġbir Ã§
ĠB M
ĠK Ã¼b
ĠT en
ĠN AT
ĠÃ¼r Ã¼nÃ¼
Ġsev gil
ĠMad onna
Ġkurt ul
Ã¼ ÄŁÃ¼
ĠalbÃ¼m Ã¼nÃ¼n
ĠÄ°mparator luk
Ä±l masÄ±ndan
ma ck
ĠMar y
ĠÃĩ erkes
Ġyan gÄ±n
ĠdÃ¼zen ledi
T Ã¼m
ĠAr ist
ard o
Ġhiss et
Ġmatematik sel
ib e
ĠiÅŁ leri
Ġdayan Ä±k
ro g
ĠsaldÄ±r Ä±sÄ±
Ġ3 7
Ġle z
ÄŁ Ã¼n
Ġm ag
ĠS as
Ġoyun larÄ±
lendir me
Ġih rac
ĠÄ°skoÃ§ ya
v i
ĠkÃ¶ pek
ĠbaÅŁla mÄ±ÅŁtÄ±
K P
lar ken
Ġteor ik
Ġcez alandÄ±r
sim um
Ġzam anÄ±
Ġn am
Ġbel ediy
Ġsal tan
ĠBÃ¶l ge
M uh
ĠyapÄ± lar
6 1
ĠK i
Ġyar Ä±sÄ±
Ġat mÄ±ÅŁtÄ±r
ulu ÄŁunu
ĠAÅŁ aÄŁÄ±
M o
T Ãľ
Ġolab ileceÄŁi
ĠakÄ±l lÄ±
Ġol un
ĠV iet
Ġuy arÄ±
Ġanlam Ä±nda
Ġhizmet e
enk o
ĠkeÅŁf et
de mir
ĠyÃ¶net meni
Ġbur adan
Ġplan Ä±
ĠkÄ± v
ĠDÃ¶n em
oley bol
ĠAl tÄ±
Ġuy uÅŁturucu
Ġalan Ä±na
eti ci
ĠdeÄŁiÅŁ ir
ĠÄ°l Ã§e
f an
0 8
Ġkem ik
ĠKul lan
Ġdiy erek
ĠpÃ¼s kÃ¼r
ĠY ay
ic al
ĠI t
199 9
ĠBilim ler
k ul
ĠmÃ¼s abak
Ġay gÄ±
Ġraki bi
Ġolm az
Ãĸ n
Ġem ri
ĠHal il
Ġihtiy acÄ±
ĠSin an
Ġolm alarÄ±
sh ip
p az
w n
iÅŁ ik
ĠgerÃ§ekleÅŁtir ildi
áĥ ĺ
ler ken
Ġal gÄ±
ĠN ic
n iyet
T ur
ĠH ab
Ġolab ileceÄŁini
z Ä±m
ĠK Ä±ÅŁ
ĠÃĸ te
Tar ih
Ġd u
ĠgeÃ§ mi
ĠÃ¶z et
ĠaÃ§ an
ĠaÅŁ ir
ĠsaldÄ±r gan
ĠS eb
Ġp ah
ĠgÃ¼ven ilir
Ġkork u
ĠniÅŁ an
Ġbir inde
at Ä±n
ok e
Ġhal if
m r
ing s
ĠalbÃ¼m Ã¼nde
Ġvur gu
s us
ĠdÃ¶nem ine
Ġyed ek
6 7
Ġk us
ĠY Ä±lmaz
ĠsÃ¼r mÃ¼ÅŁtÃ¼r
ĠiÅŁ ken
Ġk a
om i
ĠmÃ¼ÅŁt er
Ġs tadyum
ĠAlbÃ¼m Ã¼n
ĠS Ä±
ĠT ev
Ġ193 4
o o
ĠC a
ĠL enin
ĠW in
Ġsay Ä±sÄ±nÄ±n
Ġayr Ä±lmÄ±ÅŁ
198 0
S K
Ġyap ay
Ã¶l Ã§
ĠkÃ¶ le
Ġdem iÅŁtir
Ar ap
ĠayÄ±r t
cÄ±lÄ± ÄŁÄ±nÄ±
o ut
ĠmÃ¼ h
ak lÄ±k
ĠÅŁey ler
D oÄŁ
Ġhar ic
Ġgazet esi
ĠÅŁehr inin
K an
iy eli
Ġger il
Ġter fi
Ġuygulam alar
ol itik
Ġn iyet
ĠS eferi
Ġn a
Ġzaman lÄ±
o jen
ĠÅŁ aÅŁÄ±r
os hi
Ġkur muÅŁ
ĠKay seri
elenek sel
Ġel eme
Ġ193 5
ĠPh ilip
ĠyoÄŁun luÄŁu
ĠiÅŁg ali
ap ort
Ġ19 12
Ġet ken
ĠArab istan
Ø ±
ĠN okia
T h
s inin
ĠG ab
Ġgrup tan
fer ansÄ±
AB D
es in
Ġver g
ĠdeÄŁiÅŁtir di
r ick
ĠOsmanlÄ± lar
z abeth
Ġt Ã¶r
ey tin
ĠKon t
Î ¿
ĠB re
Ġsorun lar
ĠrÃ¼z gÃ¢r
ĠB erk
Ġdir ekt
Ġann esinin
Ġkariyer inin
Ġistih barat
0 9
Ġb e
ĠT ol
ĠbaÅŁ lÄ±klÄ±
Ġkullan maya
ĠBir kaÃ§
ĠgÃ¶ster ilir
ĠÄ°n ternet
Ġik il
an tep
ÄŁ imiz
ant ik
Ġoksi jen
roman yetik
ĠbÄ±rak arak
Ġdayan maktadÄ±r
Ġstratej ik
AÅŁ aÄŁÄ±
ĠyÃ¼rÃ¼r lÃ¼ÄŁe
Ġmuhalef et
ĠAfgan istan
l uluk
Ġv it
tÄ± ÄŁÄ±nÄ±
Ġkat Ä±lm
ĠÃ¶ldÃ¼r dÃ¼
Ġkayb eden
Y Ä±l
ĠseÃ§ imi
ĠMih ail
ĠH ad
ĠV ideo
ĠdoÄŁ muÅŁtur
tr op
ĠSon unda
Ġ192 6
lan mÄ±ÅŁtÄ±
Ġuyg ula
ĠgÃ¶r mÃ¼ÅŁ
g or
ĠB l
ĠP arkÄ±
len mektedir
Ġak ar
ĠKÃ¼t Ã¼phan
s iye
Ġm oment
Ġsebep le
D own
al eti
Ġev i
Ġfaaliyet leri
Ġpr opag
Ġb etim
ĠaÃ§ Ä±lmÄ±ÅŁtÄ±r
edik leri
uk lu
ĠhazÄ±r ladÄ±ÄŁÄ±
Ġform Ã¼l
ĠiliÅŁk ilendir
langÄ±Ã§ ta
E D
an dan
ĠT ib
ĠgÃ¶rev den
ĠÃ¼lk eyi
Ġiyi ce
yalÄ± lar
8 3
Ġev e
Ġ195 1
Ġaray Ã¼z
Ġg Ã¼l
um p
us s
Ġtop ladÄ±
Ġst il
ĠDani el
i es
n el
Ġs Ã¼l
E ÄŁer
Ġyav ru
0 6
ĠAl f
ĠBaÄŁ Ä±m
ĠNob el
Ġ Âł
ĠH ac
Ã® ler
ĠG il
masÄ± dÄ±r
Ã º
et men
la j
Ġal ay
ĠÃĩ ay
end ik
Ġdeniz e
ĠPr emi
Ġvol kan
ĠF ederal
ĠL az
ĠsaÄŁ lamaktadÄ±r
Ġiz leyen
Ġat Ä±f
ĠtakÄ±m larÄ±ndan
ĠSt udi
K uzey
ĠAb bas
mem esi
Ġpsik olojik
ĠÄ°b n
ĠtÄ±b bi
A F
du m
Ġdevam lÄ±
ĠuÃ§ aÄŁÄ±
gen eral
n ar
Ġad Ä±ndaki
ĠoluÅŁ uyordu
Ġot orit
Ġtoplum un
Ġbay rak
ĠFried rich
B ey
K Ã¶y
ul e
ab ildi
ĠÃ§Ä±k Ä±p
meler ine
Ġkemer ini
Ġb ebek
tern ational
Ġic ra
Ġyenilg iye
ĠJ im
Ġavuk at
ĠP C
Ġr ivayet
asyon al
Ġ192 7
Ġkaybet miÅŁtir
ĠBil g
Ġpar mak
ĠsaldÄ±r dÄ±
Ġerkek ler
8 1
lÄ± yor
Ġiz leyic
I V
k eli
it ter
Ġtan Ä±k
ĠMus a
ah ya
Ġyaz Ä±nda
ĠW ay
ĠW ood
Ġolur lar
Gen el
j e
ÅŁt en
lem iÅŁ
Ġkarakter ini
suz luk
ĠsoÄŁ ut
ĠNAT O
Ġ Ä±ÅŁ
ĠB an
im p
Ġgir miÅŁ
gel e
Ġyeter ince
ĠM eg
ec ik
yan i
ĠZel anda
ĠgeliÅŁtir di
Ġhizmet i
ÄŁ Ä±mÄ±z
Ġp ort
Ġolay larÄ±n
Ġrady asyon
E T
G B
g ah
Ã§ iliÄŁi
ĠL ord
Ġam el
iliÄŁ e
Ġkadros una
Ġsip ar
Ġsav unan
Ġgal ip
Ġsuy un
iskop os
ĠMuh afÄ±z
Ä± lab
Ġdil inde
Ġtoprak larÄ±nda
ey ecek
Ġgerek ti
m adÄ±ÄŁÄ±nÄ±
ter ek
ĠkiÅŁi den
lovak ya
Ġ6 5
GÃ¼n Ã¼mÃ¼zde
ĠOlimpiyat larÄ±
ĠkÄ±yas la
ĠEnter tainment
b el
et s
Ġmey v
ĠsÃ¼rec inde
0 7
eng iz
B iz
v az
g Ä±z
ĠÄ° li
Ġam atÃ¶r
ĠDonan masÄ±
is ar
Ġalan larÄ±nda
Ġev de
Ġyol c
Ġkem eri
Ġge omet
ans Ä±z
ĠÃĩal Ä±ÅŁ
ĠN ec
Ġetm esini
ĠÃ¼Ã§ lÃ¼
Ġtoplan t
Ġ ;
ĠkÄ±s alt
ĠbÃ¼y Ã¼me
Ġalg orit
8 2
s Ä±na
ĠH izmet
ĠÃĩ Ä±k
ĠÃľ y
Ġ6 00
Ġtut an
Ġdisip lin
es iydi
ĠkiÅŁ iyi
Ġhaft asÄ±nda
M ay
Ä° ÅŁ
Ġn in
Ġkomut a
Ġtat lÄ±
0 3
l iliÄŁini
or os
Ã¼r t
Ġgibi dir
Ä°n san
ĠmÃ¼r ette
ĠH on
Ġyaz an
ĠBelediy espor
ĠV I
ĠÃľ s
Ġmem nun
Ġf ar
Ġenerj isi
Ġmes lek
: "
S al
un Ã§
Ġter c
ĠÃ§Ã¶zÃ¼n Ã¼r
ĠM Ã¼ttefik
ĠyÄ±l dan
Ġbilin meyen
oh um
Ġ25 0
ĠyaÅŁ amÄ±
Ġ5 5
Ġbilin memektedir
ĠSistem i
Ġv asÄ±t
ĠH aw
Ã¼s Ã¼nde
ret eri
Ġbir ine
ad o
Ġar alÄ±
Ġbel ki
ĠgeÃ§ir mek
Ġkarar laÅŁtÄ±r
199 8
ĠÄ° oann
ĠsÄ±nÄ±r Ä±
Ġkitab Ä±n
s burg
Ġkon ak
Ġkor san
ĠkiÅŁi dir
Ã¡ n
Ġol gu
us una
ch o
ĠparÃ§ alan
ĠkÄ±r Ä±k
Ġyok sul
sin iz
Ġdep lasman
hel m
ĠkÄ±y Ä±sÄ±nda
Ġrej im
c es
h as
op ter
Ġb ant
ĠB alt
Ġel b
áĥ Ĳ
ĠÃ§Ä±kar Ä±ldÄ±
k tan
Ġb ed
ilm esinin
ĠgÃ¶r mÃ¼ÅŁtÃ¼r
ĠN Ã¼f
Ġel en
laÅŁtÄ±r ma
ĠÅŁey in
ĠSc ott
ĠAnn esi
ĠÃ¶ mÃ¼r
os unda
anÄ± yordu
iÄŁ e
Ġes k
Ġhayat Ä±nÄ±n
Ġkaynak lanan
Ġform at
ĠdÃ¼ny adaki
ĠÄ°t tifak
ay acak
if ik
Ġyak Ä±ndan
Ġnit eliÄŁ
Ã³ n
med iÄŁini
Ġyer leri
ĠGenÃ§ ler
ĠbaÅŁlangÄ± c
Ġyaz maya
Ġetk isini
ĠÅŀampiyon luÄŁu
ĠÅŁun larÄ±
Ġtop u
ĠÃ§ocuk larÄ±n
Ġidar esi
ĠyanlÄ± sÄ±
Ġintik am
ef i
ĠÃ¶nem i
iver pool
ab ilmesi
Ġhat a
M A
ĠoluÅŁ muÅŁtur
ĠyumuÅŁ ak
ĠbiÃ§im inde
d iy
ĠyaÅŁ Ä±na
Ġi han
ĠyakÄ±n Ä±nda
ĠÃ§aÄŁ rÄ±
R e
ak Ã¢r
ĠJ er
Ã§Ä± lar
ĠbÃ¶ cek
l Ä±lÄ±ÄŁÄ±
Ġver mesi
Ġfark Ä±
Ġkil it
in en
Ġy uvar
Ġz emin
ĠdÃ¶nem e
Ġpiyan o
t iy
if er
okr at
Ġkam era
ĠK Ä±lÄ±Ã§
ĠD or
Ġyer den
Ġsan dal
Ġorgan ik
ĠPh il
ĠdaÄŁÄ±t Ä±m
6 2
em an
ĠD u
ĠP ier
ĠtÃ¼r b
ĠfarklÄ± dÄ±r
Ġmev z
ĠtanÄ±t Ä±m
Ġyed inci
Ġor g
iliÄŁ in
Ġhap s
Ġenf eksiyon
ĠdÃ¶n dÃ¼r
ĠJ eff
alarÄ± yla
Ġlist elerinde
B ab
ĠyÃ¶net ilen
ĠyÃ¶netmen liÄŁini
Ġbiz zat
ĠJon es
ĠÅŀ im
Ġkazan Ä±r
Ġm Ã¼t
os a
ĠL eh
ĠhÄ±z landÄ±r
ĠsÄ±k Ä±ntÄ±
ĠSanat lar
ĠS Ã¼n
ekt aÅŁ
ĠL uc
ers ek
ĠViet nam
F C
Ġzaman Ä±n
ĠbÃ¶lg esindeki
Ġtehlik eli
ĠTrak ya
H az
b ab
h em
ĠK ub
ĠG rek
ĠbaÅŁarÄ± yla
Ġliber al
ĠB BC
ĠS i
ĠsÃ¶y ley
Ġhizmet leri
ĠsÃ¶zcÃ¼ ÄŁÃ¼
ro v
iv an
Ġdem ektir
att le
Ġv il
ĠM otor
ĠHal l
ĠTim es
Ã ¯
Ġinsan lara
Ġpol itika
ĠhazÄ±r ladÄ±
Ġolur ken
ov an
Ġser isinin
Ġhareket leri
ĠkaldÄ±r Ä±ldÄ±
Ġsiyaset Ã§i
Ġya ÅŁta
Ġ6 4
ĠÃ¼st Ã¼
Ġser may
Ġiht imal
z en
Ġanay as
c ektir
Ġad res
art h
laÅŁtÄ± ÄŁÄ±
ĠSel anik
Ġkolay laÅŁtÄ±r
ĠaÅŁam asÄ±nda
Ġbulunm amaktadÄ±r
Ġbirlik lerinin
ĠPan zer
ĠK ast
Ġmey ve
8 4
g s
ist er
malar Ä±nÄ±n
Ġmad denin
ĠSan ayi
ĠTÃ¼m eni
Ġbozuk luk
ĠgÃ¶ ÄŁ
ĠN ar
uy du
Ã§ek im
Ġsistem ler
al isyon
iÄŁ inin
Ġsah te
ĠAm atÃ¶r
ĠÃ¼yesi dir
ĠÃ§atÄ±ÅŁ ma
ĠkuÅŁat ma
ĠÃ§oÄŁ unu
S er
u larak
ĠK amp
ĠG aga
Ġver me
lin ik
ĠkatÄ±l Ä±mÄ±
ĠsÃ¼r er
ĠÃ§alÄ±ÅŁ mak
Ġalan Ä±n
Ġuzun luk
201 9
Ġtal eb
ĠPr usya
ĠAÄŁ Ä±r
Ġbul muÅŁtur
Ġgetir mek
ĠHaz ar
Ġ192 8
ly wood
Ġistik rar
eÃ§ en
Ġkur muÅŁtur
Ġl og
ĠaÄŁ ab
ĠparÃ§ alar
201 7
ĠsÄ±k Ä±ÅŁtÄ±r
Ġkitap ta
ĠolaÄŁan Ã¼stÃ¼
ĠM ersin
ab ileceÄŁini
ĠÃ¶l mÃ¼ÅŁtÃ¼r
Ġhal i
r ez
Ġan Ä±lÄ±r
Ġdurum una
ĠPri x
Ġal et
ĠÅŁ ub
ĠOr kest
ĠaÃ§Ä± ÄŁa
Ġism iyle
A z
ĠS um
Ġgi dip
Ġortam da
ĠKal kÄ±nma
6 3
is on
ĠD is
and o
der e
ĠÃ§al Ä±n
ÄŁ day
ĠdÃ¶nem lerinde
Ġkes kin
6 9
Ġb Ä±
Ġt az
Ġam ac
ece p
ĠÃ§evr esindeki
lin s
ĠNapol yon
ĠbaÄŁlan tÄ±sÄ±
Ġhapis han
r ev
Ġver ilmesi
Ġek lendi
ĠaÄŁ z
elen di
Ġk Ã¼me
ĠÃ§Ä±k maya
Ġbun lara
ĠtakÄ±mÄ± yla
ult anÄ±
Ġus ul
E S
Ġs itesi
ĠÃ§iÃ§ ek
0 2
eÄŁ inin
ĠanlaÅŁ masÄ±
Ġaktiv it
ag o
ĠsÄ±ral am
ĠRoy al
ĠÃ¼lk eden
ĠKul Ã¼p
Ġdef n
ĠYarÄ±m adasÄ±
Ġk Ä±lÄ±Ã§
da dÄ±r
Ġar aba
lam ayÄ±
Ġtamam landÄ±
ĠSavaÅŁ larÄ±
ĠMon t
ĠAlex ander
ĠLÃ¼b nan
la dÄ±ktan
Ġimz alanan
ĠhÃ¢ kim
ĠtÃ¼k en
Ġk Ã¶r
ĠT ut
ĠBay ram
B o
Ġy alan
Ã¼n tÃ¼
ĠÃ¼lk esi
Ġeski den
ĠAs lÄ±nda
la manÄ±n
Ġil ah
ĠF al
Ġkor udu
ĠYak laÅŁÄ±k
Ġakadem isyen
Ġver ilmektedir
Ġolm asa
ĠdeÄŁer leri
Ġkatli am
ĠÃ§ elik
ĠKÃ¶rf ezi
d Ã¶n
ĠF red
ĠR uh
ut b
ĠsÃ¶y lenir
ĠdÃ¼zen lediÄŁi
Ġplan a
Ġrefer ans
l ilerin
Ġar dÄ±
ĠCh ica
Ġlist esi
K Ä±r
m elerin
Ġk anÄ±
ĠbÃ¼yÃ¼k lÃ¼k
leÅŁ mesi
ĠÃ¼ret en
Ġsat tÄ±
Ġrez erv
P ol
Ġ aÄŁÄ±
el iÅŁ
ut e
ĠgeliÅŁtir ilmiÅŁ
ĠEli zabeth
ĠP KK
ĠO lay
ĠN it
Âł Âł
ĠseÃ§ ilmiÅŁ
Ġdurum un
Ġordu larÄ±
Ġsp ons
ĠGazi antep
A li
Ġk aya
es ince
ĠH y
ro f
Ġtan Ä±mÄ±
Ġkonu larda
Ġmadd eler
ĠMahm ut
l imi
ilm esinden
Ġkonum unda
ĠAn tak
Ġayr Ä±ntÄ±lÄ±
Ġf e
ĠRom alÄ±lar
Ġkr itik
ĠhÃ¼kÃ¼m darÄ±
Ġuy an
led iÄŁini
Ġs esi
ĠyÃ¼z lerce
199 7
ĠKomut anÄ±
Ġmac er
la ÅŁtÄ±k
ĠRus lar
Ġhak larÄ±nÄ±
ĠÃ§evr ili
d ing
Ġm uk
Ġbu gÃ¼ne
ĠC at
Ġgerek se
Ġkim se
ĠTopl uluÄŁu
iÄŁ ine
ĠyÃ¼k lÃ¼
Ġsistem inde
Ġsor gu
iyor lardÄ±
Ġhafta da
ĠmaÄŁlu b
0 4
il af
da ha
ĠM id
Ġyap mayÄ±
Ġmotor u
oks it
kur may
al Ä±m
ĠF izik
Ã¢ s
Ġkay de
Ġ192 9
Ġuygulam aya
r ef
ĠM ans
it ar
alar Ä±ndaki
ĠL es
ĠsayÄ± larÄ±
ĠMar s
Ġkaynak larda
Ġdon at
ĠRe ich
Ġdeste ÄŁini
Ã ±
ÄŁ im
ĠC lar
199 6
ĠDoÄŁ an
K ay
b le
ĠD ub
Ġbak Ä±r
ilm ekte
ilir ken
Ġsan atÄ±
ĠChica go
Ġk Ä±lÄ±
ĠD ok
Ã¼y Ã¼
Ġc az
Ġt ok
ĠN iÅŁ
o du
Ġoy unda
Ã¼s Ã¼ne
ĠKur ul
ÅŁ ek
Ġmak simum
Ġman z
ĠYer el
ĠyaÅŁ ar
Ġgit mek
ev k
Ġr engi
Al bÃ¼m
B atÄ±
p o
Ġkap tan
Ġcer rah
Ġkar iyeri
ĠOr gan
Ġses siz
ĠdirektÃ¶r Ã¼
ÄŁ iyle
Ġm Ã¼f
Ġilg inÃ§
ĠtanÄ±m lamak
ĠMan astÄ±r
Ġy al
Ġve da
ur ta
ĠL aw
ĠN ih
ĠAy ak
5 1
G rup
ar ta
ĠH ast
ĠF e
ĠN ight
Ġtah rip
201 8
ĠKole ji
ĠS of
ĠS pe
ĠG ol
Ġkay dÄ±
ĠaÃ§Ä±k lar
Ġbomb ardÄ±
ĠJo han
Ġrah ip
ĠbaÅŁ bakan
Ġdiplom atik
s Ä±n
w w
ĠyÃ¶net ici
Ġelem an
ĠBolÅŁev ik
Ġseviy esi
Y er
u lar
iÅŁ e
ĠR aw
Ġdav ul
Ġkanal Ä±nda
h ay
ĠI P
Ġayak ta
Ġih lal
ĠÄ±s rar
mack Down
ĠÄ°oann is
Ġp encer
ĠgÃ¶r mek
Ġgrup ta
Ġgrub una
ĠgeliÅŁ imi
Ġkayb Ä±
Ã¶v aly
Ġimk Ã¢nÄ±
Ġmahk eme
ĠUy gur
h id
Ġbil imi
Ġkral lÄ±k
ĠaraÃ§ larÄ±
c Ã¼l
id o
Ġsay Ä±lÄ±r
l iydi
yon a
od in
Ġoyn amaya
Ġel inden
ĠtanÄ±m lar
ĠÃ¼rÃ¼n ler
ĠHarek et
g Ã¢h
Ġk lav
te g
ĠAn na
ĠgÃ¶rev leri
Y ar
ĠS oÄŁ
Ġar ÅŁiv
Ġat Ä±ldÄ±
ĠKar aman
las h
Ġordus una
ĠKah ire
ĠYardÄ±m cÄ±sÄ±
ĠF as
ĠiÅŁ ler
Ġtasar lanmÄ±ÅŁ
led iler
ĠsanatÃ§ Ä±nÄ±n
Ġraki b
Ä° z
ic iler
Ġanla tÄ±
Ġsent ez
C o
r ib
li ga
ĠN ov
ĠÃ§ok lu
ĠkÃ¶ p
ĠtaÅŁÄ±m aktadÄ±r
Ġkat k
ĠAr s
ĠBir lik
Ã¼p hane
ĠseÃ§im lerde
ĠkÄ±sm Ä±nÄ±n
Ġnih ayet
ĠG od
ĠV eli
Ġtop Ã§u
ĠAl tay
ĠbÃ¶lÃ¼m Ã¼n
ĠÃ¶rnek leri
ĠÃ¶ÄŁrenc ileri
Ġw ith
Ġtamam layan
ĠyapÄ± ya
ĠgÃ¶rÃ¼n en
Ġhakk Ä±nÄ±
ĠyaÅŁam aya
B ar
Ġdevam Ä±
Ġhaned an
Ġmir as
ri a
Ã¼r r
iz me
ĠG em
Ġek lem
ĠkÃ¢ ÄŁÄ±t
el in
M art
Ġs ultan
ĠdÃ¶n Ã¼m
ĠÃ¶nc elikle
Ġsavun du
Ġyum urt
ĠMill iyet
ĠTun Ã§
Ġv s
ĠH ik
ĠY am
ĠaÅŁ kÄ±n
Ġmak ine
ĠsÃ¼r Ã¼l
Ġtan Ä±nÄ±r
Ġhede fi
Ġb ronz
de ÄŁer
ĠN il
Ġdev ral
Ġisim lendir
orum a
C umhur
ĠI S
Ġtarih e
ĠhÃ¢l ine
Ġbeste ci
el ler
Ġprogram larÄ±
Ġgem ileri
ĠbaÅŁv uru
ĠsÃ¼v ari
t edir
ĠkÄ±s aca
. <
5 8
u de
Ġd iÅŁi
ur y
ĠL ist
ĠgeÃ§ mesi
Ġetm ekte
ĠAt eÅŁ
Ġkitap larÄ±
ĠmaÄŁ az
ĠRum eli
Ù ħ
Ġsay Ä±sÄ±nÄ±
leÅŁtir me
ĠSer v
ĠOyun larÄ±
ev in
od yum
ĠOs car
Ġimz alan
tÄ±k larÄ±
Frans Ä±z
c inin
Ġb oru
Ġk ok
Ġis kel
ĠÃ§Ä±k arÄ±
ĠdÃ¶n Ã¼ÅŁtÃ¼
ĠU Ã§
si on
Ġduy gusal
ĠÃĸz bek
Ġpolitik asÄ±
ĠC up
op a
ĠÃ¶l Ã¼r
Ġedilm esini
Ã¼v ey
Ġ193 2
Ġdemokr atik
ĠN A
ĠHar p
ver engi
199 5
7 3
iy ye
ĠM aÄŁ
tr ol
ĠÃ¶ÄŁren ir
Ä±lm asÄ±nda
ĠAbdÃ¼l ham
ĠsÃ¶y leyerek
Ġeser in
f eri
la mÄ±ÅŁtÄ±
ĠD air
ĠAn ne
Ġn Ã¶r
ekt eki
Ġver ilerine
ĠyaptÄ± lar
Ä±p lak
k ov
ĠS ing
Ġdur uÅŁ
leÅŁtir ilmiÅŁ
ĠKon feransÄ±
ĠTop rak
A f
ĠO ÄŁ
ĠÃĩ at
erj i
ĠtaÅŁÄ±m a
Ġotob Ã¼s
ĠÅŁark Ä±sÄ±yla
ĠTeÅŁ kil
il in
ĠÃ§ek iÅŁ
Ġmahal le
ist iyan
Ã¶r dÃ¼ncÃ¼
ĠÄ±ÅŁÄ± ÄŁÄ±n
Ġpropag anda
( "
ĠO ri
Ġilg isini
Ġkop y
Ġum ut
E k
ĠiÃ§er iyordu
ret ti
Ä°l Ã§
Ġdey iÅŁ
Ã§ er
Ġp lastik
leÅŁ en
ĠyapÄ±lan dÄ±r
ĠP ir
Ġyaz arlar
Ġ4 8
Ġfilm leri
Ġboy un
Ġtopl uluÄŁ
ĠPremi er
j inal
Ġb eb
ĠÃ§ek tiÄŁi
Ġmuhtem el
Ġfinans al
Ġikin cisi
n iz
ĠH il
ĠdÃ¶n g
Ġkli bi
ĠB Ã¼l
Ġbirlik ler
Ġyol larÄ±
qu es
ĠGre en
Ġol gun
ĠyarÄ±ÅŁ masÄ±
Ġ19 13
Ġbit en
Ġb on
ĠÃ§ Ã¶l
ol i
Ġper iy
Ġmes l
ĠSu udi
Ġyeten eÄŁi
ĠL et
ĠKan al
his ar
7 9
g eler
ĠP ic
Ġ4 2
ĠgiriÅŁ imi
Ġekonom isi
Y ak
ar o
ĠgÃ¶ster mek
Ġtakdir de
g ul
ĠO ut
ĠyaptÄ± ÄŁÄ±nÄ±
y az
ci ÄŁer
Ġyarat tÄ±ÄŁÄ±
Ġoyunc unun
ĠHit it
J ap
p an
Ġyer leÅŁik
ĠBoÄŁ azÄ±
Ġ ul
Ġkon ut
Ġot uz
ĠtanÄ±m lanan
Ġuzak laÅŁ
ĠMad al
Ġekip man
ĠkÃ¶k eni
g at
ĠG S
ĠkarÅŁ Ä±l
Ġ190 8
GÃ¼n ey
ibir ya
is ki
kin g
Ġmuhareb e
g es
eb ileceÄŁi
ĠgÃ¼n e
Ġmev k
Ġinan c
ĠTar Ä±m
ĠBalÄ±k esir
ĠChampion ship
y r
nam e
Ġbirisi dir
ĠyÃ¶netic isi
5 4
iy esi
Ð ¼
Ġt Ã¼n
ĠK endi
ĠV as
Ġbelirt ilen
Ġbek lenen
Ġkomp oz
S avaÅŁ
t ra
t uk
Ġp u
ĠgÃ¼n lerde
n at
ĠO li
Ġkon umu
Ġyat ak
Ġpas aport
5 2
M al
ay eti
or ta
ĠÃ¶ mr
Ġgit tikÃ§e
ĠRad yo
Ġil ki
ĠmaÃ§ larÄ±
199 4
ĠyoÄŁun luk
it ch
Ġyap Ä±nÄ±n
os unun
Ġyaz ma
Ġtab l
B eÅŁ
ay ir
ĠR ah
ni e
Ġyer yÃ¼z
Ġyol unu
ĠbÃ¶lÃ¼m Ã¼nÃ¼n
ĠÃ¶nc elik
ĠBaÅŁ ka
Ġolay Ä±n
ĠAlek sand
l ini
z aman
Ġh elik
st on
Ġn o
ĠAn t
Ġart tÄ±
ĠE instein
Ġsan al
ebilir ler
ĠmÃ¼dÃ¼r Ã¼
Ġal Ä±cÄ±
ark lÄ±
Ġtoprak larÄ±nÄ±
C D
l um
Ġtarih inden
Ã¼s Ã¼nÃ¼n
Ġek ledi
Ġyarat tÄ±
ĠK enn
Ġan laÅŁtÄ±
Ġfor masÄ±nÄ±
Ġbirbir leriyle
Ġveri ci
K Ä±z
un um
ĠyÃ¶n lÃ¼
ĠsÄ±r alarda
bo x
Alman ya
F ran
Ġv as
Ġp ros
ing rad
Ġik tis
Ġkomut asÄ±nda
Ġmed res
at Ä±nÄ±n
Ġtaraf Ä±
ÄŁr ul
ĠsaldÄ±rÄ± larÄ±
Ġt ac
ut o
Ġsoy ut
B S
Å «
Ġt Ä±k
ĠA dÄ±
ed im
ĠO p
Ġrast lan
Ġsava ÅŁtan
>" </
it ion
ĠC lub
ĠiÅŁ leme
Ġetm esine
ĠbÃ¶lÃ¼m leri
uÄŁ la
ĠFars Ã§a
e us
ĠBro wn
ĠbÃ¼yÃ¼ dÃ¼
ĠAntak ya
Ġi v
Ġteor i
Ġtav siye
Ä°s lam
ist a
Ġfor masÄ±yla
Ġbenz eyen
Ġdepo lama
Ġs atÄ±
ĠD ef
Ġar an
ĠdÃ¼ÅŁÃ¼n dÃ¼
ĠN ak
lÃ¢ m
ĠazÄ±n lÄ±k
Ġson bahar
Ġkur an
ĠW at
S u
ĠM iz
ildi ÄŁini
ĠmÃ¼z aker
ek siyonu
Ġf ederal
ĠhÃ¼kÃ¼m eti
un lar
ĠEr ken
Ġmak ale
Ġarke olojik
az lar
Ġ193 1
Ġcez asÄ±na
Ġbelir lemek
ĠgÃ¶rÃ¼n Ã¼ÅŁ
Ġtal im
ĠPol is
ĠgerÃ§ekleÅŁ ir
ĠÃ¶y le
iz in
ĠÅŁ ik
av Ã¼z
Ġalan Ä±nÄ±n
ĠmaÃ§ Ä±nÄ±
ĠdÃ¼ÅŁÃ¼n Ã¼len
199 2
Ġkral iyet
ĠGer Ã§ek
c al
ak tif
ĠB ra
ĠAl as
id in
Ġberaber e
Ãĩ ok
ĠdaÄŁ Ä±lÄ±mÄ±
Ġnumar adan
Ã¶yl edir
ĠKart aca
ĠAnay as
Ġ len
is m
Ġed itÃ¶r
Ġhav z
ĠgeliÅŁtir ilmiÅŁtir
ĠalÄ±r ken
ĠÃ§ap lÄ±
ĠKÄ±r gÄ±z
ĠHo ca
dim ir
ĠK um
ĠP ost
Ġsal g
ĠkatÄ±l mak
ĠaÃ§ tÄ±ÄŁÄ±
Ġtopl uluÄŁu
ĠJo e
Ġharic inde
r aÃ§
ĠÃ¶ÄŁren im
Ġhayvan lar
Ġb o
ĠbaÅŁ Ä±ndan
ĠÃ¶l dÃ¼ÄŁÃ¼
Ġnum arasÄ±
ĠKÃ¼b a
Ġyap acak
Ġbelir ten
Ġli gin
Ġdin amik
ĠmaÄŁlub iyet
ĠgÃ¶z e
ĠHÄ±rvat istan
il diler
Ġy uv
us unun
os s
anÄ± yor
ĠW olf
Ġvar sa
ĠoluÅŁtur ul
ĠAs h
ĠBun des
ĠkalÄ±ntÄ± larÄ±
Ġitir af
Ġkonus undaki
k Ä±rÄ±
ÅŁ ak
ĠAl bert
l ow
it leri
ĠF ord
Ġver iler
ĠÃĸ l
ĠtakÄ±m Ä±nÄ±
ĠaÃ§Ä±k lan
ĠhazÄ±r lan
ĠkatÄ±l ma
Ġm Ä±
ĠY azar
ot el
Ġmerkez inin
ĠGÃ¶r ev
div en
iy ev
ev eyn
ĠL iverpool
Ġbelir lenen
Ġok uma
Ġdiz ide
ĠNew ton
Ġolacak tÄ±
Ġduyur uldu
Ä±l masÄ±nÄ±n
ĠS es
lÄ± ca
Ġyer ler
Ġc ad
ĠTÃ¼rk lerin
Ġuy andÄ±r
ĠbaÅŁar mÄ±ÅŁtÄ±r
Ġkamp any
ĠrÃ¶portaj da
ĠKonser vat
E M
Y ap
Ġ Å
us a
Ġtarih Ã§iler
ĠtakÄ±m dan
ĠÃ¶ÄŁret meni
Ġstan dar
Ġekip lerinden
il dikten
ĠT if
Ġver ileri
Ġen str
c t
ĠH aber
Ġr it
Ġkas aba
ĠkoÅŁul larÄ±
Ġgizli ce
Ġdam ar
Ġnef ret
ĠbaÄŁ layan
Ġpar am
ĠdÃ¼z eni
Ġl ok
199 3
Ġmit oloj
Ġfikr ini
ĠCad desi
ĠÃ§Ä±k ma
Ġdiz isinin
ĠsonuÃ§ lanan
Ġrad ikal
ĠbaÅŁ lÄ±k
Ġad alet
ĠV ali
Ġfilm ler
e a
Ġkaz a
ĠtaÅŁ Ä±yÄ±
ĠyÃ¼ksek liÄŁi
ĠyayÄ±m lanmÄ±ÅŁtÄ±r
Ġdin sel
Ġmer mer
D oÄŁu
I C
T un
Ġal mÄ±ÅŁtÄ±
ĠY azÄ±
Ġtem in
Ġbilg isi
ĠHav alimanÄ±
Ġb isiklet
Ġt uÅŁ
Ġdiren Ã§
Ġhab eri
5 9
Ġkay da
Ġsay Ä±lan
Ġbulun abilir
Ġtor unu
ĠÄ°b ran
Ġf esh
Ġyol unda
isay ar
ÅŁ e
ĠBu z
ĠaldÄ± ÄŁÄ±nÄ±
lama da
ĠEn g
ĠAp ol
ĠTakÄ±m Ä±
Mac ar
Ġat Ä±lan
ecek ti
Ġsev k
ĠdaÄŁ lÄ±k
ĠtÃ¼c car
elen miÅŁtir
ĠsÄ±k Ã§a
ĠgÃ¶z den
Ġgazet esinde
ĠWil helm
Ġkoordin at
Ä± ÄŁ
ĠseÃ§ ti
Ġifade si
ĠgerÃ§ekleÅŁ miÅŁtir
197 0
C on
le j
ĠM eÅŁ
Ġson landÄ±r
art man
Ġsal Ä±n
ĠEl ekt
Ġmilletvek il
Or ta
la caÄŁÄ±nÄ±
ĠF i
Ġcumhur baÅŁkanÄ±
ÅŁ ar
ĠB ut
am adÄ±ÄŁÄ±
ĠY ukarÄ±
maktadÄ±r lar
Av ust
en de
uk a
Ġat f
ĠYo ung
ĠK es
ĠyÃ¼z Ã¼
ĠoluÅŁtur uldu
ĠeÄŁlen ce
ĠÃľl kenin
ĠA lev
im de
ĠH ein
ĠP iyade
Ã¶r ler
ĠÃ¶nem ini
ĠilÃ§ enin
al ama
ĠC ev
K it
ĠN in
Ġzor la
doÄŁ usunda
c aya
ĠÃ§ ember
ĠK lasik
av v
Ġser inin
ĠkaÃ§ tÄ±
ĠyÃ¶ntem leri
Ġpuan la
Ġs adÄ±k
Ġi OS
ĠC es
lik ten
Ġik amet
ĠKral iÃ§e
Ġbab a
ĠFo x
ĠGram my
at or
Ä±m Ä±n
Ġkur b
Ġkur ma
ĠyÃ¶net ti
Ġseslendir di
Ġ lan
ĠT una
ĠRus Ã§a
Ġhaft alÄ±k
Ġevren sel
D r
ĠÃ§ek er
raf t
Ġelekt romanyetik
ĠkulÃ¼b Ã¼n
ĠAnay asa
Ä± lacak
ar ik
ah an
du ÄŁunu
Ġsonuc una
Ġb acak
ĠÃ§arp tÄ±r
ĠSal ih
Ù Ĭ
Ġzaman dan
ĠakÄ±m Ä±
Ġgerektir ir
Ġkadros unda
la dÄ±klarÄ±
Ġ( ),
ĠR ecep
ladÄ± ÄŁÄ±nÄ±
ĠKar ar
Ġsun ulan
G Ã¶r
Ù Ī
em be
Ġh im
Ġnum ara
ĠdoÄŁr usal
Ġderec esi
Ġevr enin
Ġkullan Ä±lmÄ±ÅŁ
ĠÃ¼lk edeki
Ġdurum unu
liÄŁ iyle
ĠyapÄ± lab
Ġkaynak lÄ±
ĠanlaÅŁ Ä±lmaktadÄ±r
ĠyarÄ±ÅŁ maya
ĠAb b
Ġters ine
Ġihan et
Ġk m
ay dÄ±
mak tÄ±r
Ġav cÄ±
Ġihtiy ac
Frans a
b or
5 7
Ĥ ¬
Ġal Ä±yor
Ġis pat
ĠAl bay
ĠmÃ¼z e
ĠPo lat
" ).
M il
Ġm isyon
Ġger gin
ĠJohn son
ĠC E
gi e
ĠgÃ¶rev lisi
os e
ĠZ ir
ĠcanlandÄ±r dÄ±
ĠTe am
A p
B as
o ul
da d
ob i
ph en
. (
Å Ĥ
Ã§ Ã¼
Ġy or
ed y
Ġyap Ä±sal
ĠsÃ¼r esince
ram anÄ±
ĠbÄ±rak Ä±r
med ik
ĠBak an
T er
Â »
ĠS ci
ĠAn ti
ĠÃ§ek ilmiÅŁtir
ĠdoÄŁr ulan
Ġal Ä±yordu
om on
op ot
ĠU p
Ġ8 00
ĠKan un
An d
Ġuc uz
ĠB ru
Ġal mayÄ±
ĠÅŁ Ã¶
ok er
ĠP azar
Ġver dikleri
ter s
he im
ag ram
Ġiz ledi
Ġob j
ĠkurÅŁ un
Ġr ep
yan usu
ĠeÄŁ r
ĠoÄŁ ullarÄ±
ĠdÃ¼ny asÄ±nda
ĠMal at
Ġfak ir
ĠcÃ¼m l
b oy
c in
m amak
ar ch
is er
ĠÃ§ atÄ±
ĠG og
Ġkon san
ĠTem el
ĠEy y
i ÅŁt
l op
ĠbaÅŁ lÄ±ÄŁÄ±
ĠsÃ¼r edir
ĠkarÅŁ Ä±lÄ±ÄŁÄ±
ĠiÅŁlem leri
lÃ¼ÄŁ Ã¼nde
ĠSal dÄ±r
Ġkons ol
d ara
ĠK oruma
Ä±m lar
Ġtoprak larÄ±nÄ±n
199 1
O M
j yon
s es
al iz
Ġt rafik
ĠG old
ĠJ or
ĠHol lywood
Ġdevrim ci
Amer ikan
re e
ĠKar adaÄŁ
Ġbunun la
Ġtec avÃ¼z
Ġmezh ep
Ġseviye de
b Ã¼r
d ol
ÅŁ k
ik o
ĠD ah
ĠD ig
Ã¼k r
ĠÅŀ en
ĠbaÅŁ a
ĠbaÅŁkan lÄ±ÄŁÄ±nÄ±
Ġkamu oy
g ini
ap ur
Ġbu y
Ġkul ak
Ġolmak tan
utb ola
af ir
Ġoyn ay
Amer ika
| |
Ġt etik
ĠD est
Ġyap arlar
Ġiy ileÅŁ
ĠA K
Ġfilm e
Ġot or
Ãĩ in
ĠMah all
ĠGenel kurmay
Ã¢h il
Ġkup a
H e
d Ã¶rt
ĠV in
Ġedilm esine
Ġtemsil c
Ġsoy undan
ĠGir it
ĠÃ¶nder liÄŁinde
ĠkÄ±yaf et
ĠÅŀ ey
Ġmen z
Ġk in
ĠH ill
Ġev li
ĠaraÅŁtÄ±rma cÄ±
Ġhipot ez
/ /
ah am
ĠH ur
ĠBu d
ĠSt re
alt Ä±na
Ġtaki ben
c er
Ġs log
gi a
ĠtanÄ±m lan
Ġmon arÅŁ
Ġo m
is por
Ġ19 16
ĠdÃ¼ÅŁ mÃ¼ÅŁtÃ¼r
ĠdÃ¶nem inden
Ġedilm iÅŁti
ĠSo ci
S en
Ġs ans
aÃ§ aÄŁ
Ġ19 10
ĠR NA
Ġ3 9
ĠeÄŁitim ine
G Ã¼r
ÄŁ ur
ĠB rian
Ġpro f
si a
Ġtemel ini
ĠyÃ¶netim ine
ĠmÃ¼hendis lik
ĠprodÃ¼k tÃ¶r
landÄ± ÄŁÄ±nÄ±
ĠulaÅŁ Ä±r
Ã¼mr Ã¼k
Ġs Ã¶n
ĠC ena
Ġver ilebilir
Ġl it
ĠaÃ§Ä±k lanmÄ±ÅŁtÄ±r
Ġmut lu
eks Ã¼el
ĠKÃ¼t ahya
Ġtekn iÄŁi
ĠFil ip
Ġfutbolcu dur
ĠaygÄ± t
ĠTÃ¼rk leri
ĠyapÄ± larÄ±
Ġkil ometr
Ġkurdu lar
R aw
el ektrik
ay ol
Ġal Ã§ak
Ġzar f
Ġbirinc il
P r
m ut
s alar
z et
Ã¼y dÃ¼
ĠdeÄŁiÅŁ imi
ros kop
Ġyok sa
ĠÄ°ÅŁ let
Ġh ekt
aÄŁ Ä±m
ĠHÃ¼kÃ»met i
ĠTem sil
ĠyoÄŁun laÅŁ
Ġbahs eder
ĠCol le
Ġbask Ä±sÄ±
Ġted bir
k ab
w art
Ġp laz
Ġkal masÄ±
Ġyaz Ä±ldÄ±
Ġ4 1
ĠgÃ¼ney de
ĠyaygÄ±n dÄ±r
Ġay Ä±nÄ±n
ĠeÅŁ liÄŁinde
ĠyÃ¼ksel miÅŁtir
ĠHastan esi
in us
Ġp eygamber
ĠL en
Ġyaz Ä±t
Ġayr Ä±ntÄ±
ĠgeÃ§ir ildi
dÃ¼k leri
ĠS ub
ĠD ede
ĠtÃ¼r ler
ĠÄ°m am
Ġpop Ã¼lasyon
Ġkaps ar
ĠC ast
Ġyar alandÄ±
Ġsil indir
ĠHÄ±r istiyan
ĠgÃ¼nde me
Bur ada
Ġitir az
ĠtÄ±r man
ĠÃ§ ar
us uz
ĠY olu
Ġduy duÄŁu
ĠgeliÅŁtir mek
Ġprens ip
Ġkoc asÄ±
ĠÃ§ et
ĠM TV
ĠBÃ¶lg esel
tes tan
en ci
ĠH ard
ĠP res
Bir Ã§ok
ĠyapÄ±m Ä±nda
ĠSch ool
ĠYap Ä±lan
bat Ä±sÄ±nda
É Ļ
is in
av en
ĠY aÄŁ
ĠyÄ±ldÄ± zÄ±
ovi Äĩ
Ġt Ã¼p
Ġoyunc uluk
Ġkurtar mak
Ġbay ram
Ġmadde si
Ġgerekli dir
x ford
TÃ¼rk Ã§e
Ä± h
Ġm us
Ġr ing
ot op
od ik
ĠgÃ¶rÃ¼l dÃ¼ÄŁÃ¼
Ġko alisyon
Ġkesin likle
ĠÄ±sÄ± t
ĠF orm
Ġyay Ä±lan
Ġaz Ä±ndan
Ġdin Ã®
ĠIn ternational
ĠRob in
ĠbileÅŁ ik
ĠtÃ¶r eni
p Ä±nar
Ã¼ dÃ¼
ĠBu da
ĠsÃ¼r ece
ĠÃ§evr esi
Ġanay asa
K ul
um i
Ġvur uÅŁ
Ġdonan masÄ±
Ġtat il
ĠÃ§ocuÄŁ un
ĠÅŁik ayet
Ã¼l t
ĠAr tÄ±k
ĠÃ§alÄ±ÅŁmalar Ä±nÄ±n
Ġmilyon dan
t akÄ±m
in n
ĠY Ã¶r
Ã¶z ellikle
D em
Ã¢ b
áĥĲ áĥ
Ï ģ
Ġp ak
ĠR og
ĠKar ÅŁÄ±
ĠÄ°Ã§ iÅŁleri
ĠHarek eti
ol ay
Ġok ula
ĠsÃ¼rdÃ¼r mektedir
Ġkon t
od y
ĠbÃ¶lg eden
ĠÃ¶ÄŁren imini
Ġgit tiÄŁi
Ġkr izi
cel ona
Ġkuzey de
y em
er in
Ġt ef
Ġh us
ĠÅŀ er
ĠÅŀ ehrin
Ġkat lÄ±
Ġih raÃ§
sh ire
duk larÄ±
H am
ĠG Ã¼nÃ¼
os en
ĠAl b
ug o
ĠfarklÄ±lÄ±k lar
w ork
Ġ19 11
Ġyer altÄ±
ep e
Ġbelir lenir
ĠbaÅŁlangÄ± cÄ±
K ral
Ã¼m lÃ¼
Ġbu ÄŁday
ĠoluÅŁ umu
ĠÃ¼lk elerinde
Ġoyuncu larÄ±n
ĠboÅŁ alt
E m
r Ã©
Ġs tr
Ġt aÃ§
ĠÅŁ Ã¶yledir
ot te
Ġsay Ä±sal
Ã§ek imi
las s
Ġbelirt ilmiÅŁtir
Ġplan lanan
Ġetkil eyen
ĠBundes liga
g ulan
Ġkar e
ĠtÃ¼r Ã¼dÃ¼r
ĠÃ¼y eliÄŁi
Ġgol Ã¼
ĠgenÃ§ lik
ĠEv ren
Ġderg isinin
ĠtÃ¼f ek
Y aÅŁ
Ġd Ã¢hil
ĠS ig
ol as
Ġbur adaki
ĠR ev
asyon lar
ĠKo Ã§
ĠÄ°slam i
ĠbaÅŁlam asÄ±
M ad
Ġal dÄ±klarÄ±
ĠKar ÅŁ
: //
R es
es se
ĠÄ°l han
ĠyapÄ± p
ĠGrub un
ĠmeÅŁ ru
ĠÅŁimd iki
ĠArs lan
s atÄ±
Ä±l dÄ±ktan
ĠA C
ĠS ok
ĠS om
ĠS ibirya
âĢ Ń
ĠTel evizyon
Ġsipar iÅŁ
Ġar tar
Ġin iÅŁ
ĠOr man
Ġilg isi
Ġderg isinde
ĠanlamÄ± yla
ĠÃ¶ f
ĠT L
ĠÃ¶r g
ou ch
Ġokul un
bo ok
ĠmaÄŁ ar
Ġkorun masÄ±
an ti
Ġs ik
Ġal dÄ±ktan
ih anna
Ġin Ã§
ĠÃ§Ä±k maktadÄ±r
Ġtam ir
ret t
Ġeser lerini
ĠolmasÄ± yla
dik lerini
Ġfelsef i
Ġah lak
Ulus lararasÄ±
Ġbir imleri
Ġm iz
Ġal ak
Ġbulun uyor
Ġkom Ã¼n
ĠKaz ak
Ð ³
ĠdÃ¶n mÃ¼ÅŁtÃ¼r
Ġkarar lÄ±
ĠgÃ¶nder diÄŁi
Ġasker lerin
s ever
ÄŁ una
ĠÃ§ if
ĠK le
Ġkur ak
ĠyazÄ± lar
Ġism inin
ĠvasÄ±t asÄ±yla
s oy
ĠT ony
iler iyle
Ġzorunda dÄ±r
ĠtartÄ±ÅŁ malar
I P
u dur
ĠgÃ¼n eye
ĠAs ur
ĠbÄ±rak mÄ±ÅŁtÄ±r
ĠÃ¶ÄŁrenc ilerin
may la
Ġspons or
d is
am uk
Ġmuh afÄ±z
ĠdeÄŁiÅŁik liÄŁi
Ġh asÄ±
Ġiz ler
ĠÃ¼st lenmiÅŁtir
Ġayak lanma
S tar
ĠÃ§ eliÅŁ
ĠL ak
lam asÄ±na
ren si
arb on
Ġyarat Ä±k
rag on
Ġpah alÄ±
ĠAlas ka
S P
Ġoyun lar
Ġmodel leri
ĠdÃ¶nÃ¼ÅŁ Ã¼r
Ġb y
en ter
Ġ19 00
ĠsÄ±r alan
ÅŁtÄ± ÄŁÄ±
ĠkaÃ§ ak
Ġkuvvet ler
ã Ĥ
il k
ÄŁ Ã¼nden
ev Ã®
Ġbulun tu
Ġmuh ab
ĠbÃ¼y Ã¼t
Ġpat lak
ĠSonr asÄ±nda
an larÄ±n
Ġan ak
Ġmesaf e
Ġantren Ã¶r
ĠY Ã¼r
eÅŁ al
ĠÃ¼z Ã¼m
ĠÃ§alÄ±ÅŁmalar Ä±nda
Ġokul da
Ġib aret
ĠiÃ§er isindeki
Ġtah liye
ĠO rada
Ġpol imer
Oy un
m ektir
Ġo cak
ĠH u
Ġan Ä±sÄ±na
ĠsaÄŁ ladÄ±ÄŁÄ±
Ġbulundu ÄŁunu
b iye
ĠL yn
Ġser gi
ard in
ĠkÃ¶y de
ĠHaÃ§lÄ± lar
ĠAndre w
Ø§Ù Ħ
Ä±l mak
ĠM oz
âĢ ¦
ĠH in
ĠP i
Ġik limi
ĠÃ¶ner di
ĠKil is
ĠendÃ¼str iyel
ĠalÄ±ÅŁ veriÅŁ
opot am
h y
ĠsaÄŁ lanÄ±r
ĠoluÅŁtur muÅŁtur
ĠÅŁampiyon luÄŁunu
Î ½
ĠB eh
ĠS he
ev re
ĠH ans
ĠÅŁark Ä±sÄ±nÄ±n
ĠtÃ¼m Ã¼yle
ĠKon f
Ġilgili dir
Ġrast gele
Ġb oya
ĠÃ§ Ã¶m
ĠBay ezid
ĠCar ol
Ġsekiz inci
F akat
Ñ į
ĠB Ã¶yle
ab e
ekt ey
Ġkon gr
ri e
ing en
Ġmad des
Ġmem lek
ĠvatandaÅŁ Ä±
ĠcoÄŁraf ya
ĠComp any
r anÄ±
Ã¼m er
Ġr eng
ladÄ± lar
Ġrol Ã¼yle
tiv e
ĠÃ¶rgÃ¼t Ã¼
Ġkadro ya
ĠDÃ¼k Ã¼
ĠFrancis co
t Ä±m
Ġyar alÄ±
ĠiÅŁ bir
Ġer t
ĠGÃ¼ney doÄŁu
ĠyÃ¼ks ektir
ĠÃ¶lÃ§ek li
s Ä±nÄ±n
Ã «
Ġolay dan
198 9
Ġriba und
S am
ĠL ar
ĠsÃ¼r Ã¼len
ĠU lu
mas yon
ĠyayÄ±n ladÄ±ÄŁÄ±
ĠBr yan
Ġtic areti
ĠOk yanusu
ĠKÄ±zÄ±l der
pt om
K asÄ±m
ĠgÃ¼n Ã¼nde
ĠKend isi
Ġaltyap Ä±
Ġm asa
ĠC emal
ĠÅŁekl indeki
Ġib adet
ĠVla dimir
J ohn
s ine
Ġist asyonu
ĠKon gre
Ġede bi
ĠTr ip
ĠOrkest rasÄ±
b al
lÄ± larÄ±n
Ġel endi
ĠaÅŁaÄŁÄ± da
Ġortal amasÄ±
ĠÃĸn ce
ĠÃľlk e
Ġpor tr
v ili
ĠB ad
ĠbaÅŁ layÄ±p
ĠgeÃ§ meden
ĠPol on
ĠStev e
g raf
st e
ĠC av
Ġgrup larÄ±n
ĠÃ¶ÄŁren di
B al
Ġn ah
ĠbÃ¼yÃ¼k el
ĠÃĩek os
Ġettik ten
ĠP il
Ġel veriÅŁ
ĠU niversit
19 60
Ġkes int
Ġtel es
Ġamel iyat
ĠbombardÄ± man
Ġk adem
Ġk ubb
Ġh orm
Ġgrub unu
ĠyazÄ± larÄ±
ĠUn der
ĠD ik
ĠP la
ĠkarÅŁ Ä±sÄ±na
ĠÅŀ ili
ĠgÃ¶rev de
Ġsal onu
ĠSt one
ĠSh ak
ĠsÃ¶yledi ÄŁi
ĠP av
lu lar
ĠyapÄ± labilir
ĠCumhur baÅŁkanlÄ±ÄŁÄ±
Ġmo da
ĠbÃ¼t Ã§
K Ã¼Ã§Ã¼k
h ard
ĠK uv
it lerin
Ġp olar
ĠJ e
Ġev liliÄŁ
Ġ4 4
Ġsun ar
ĠyapÄ±m cÄ±sÄ±
ori da
Ä°s rail
Ġsur etiyle
et ro
ac aÄŁÄ±na
ag og
ĠolmuÅŁ lardÄ±r
ĠHak larÄ±
ĠCez ayir
A D
ec iler
Ġsah ib
ĠÃ¶z deÅŁ
Ġpart isi
ĠHarek Ã¢tÄ±
Rus ya
ĠbarÄ±ndÄ±r an
H ol
ĠSeÃ§ im
et ri
cen t
Ġkom bin
Ġdeste ÄŁiyle
ĠiÃ§eri ÄŁi
ĠgÃ¶rÃ¼nt Ã¼l
ĠMeydan Ä±
Ġy aban
Ġh op
Ã¼l k
ĠÃ¶zel liÄŁini
yl es
Ġkonu larÄ±
ĠdoÄŁu da
St ation
ĠimkÃ¢n sÄ±z
Haz iran
Ù Ĩ
ĠgerÃ§ekleÅŁtir diÄŁi
ĠTun us
ĠtÄ±p kÄ±
ĠNapol i
Ġakar su
ĠS ec
ĠF el
ĠÃĩ ayÄ±
amp ir
ĠÃ§Ä±kar mÄ±ÅŁtÄ±r
ĠPro testan
ĠsÃ¼rdÃ¼r en
Ġeg z
ĠKuÅŁ at
I M
Ġt ohum
ĠgÃ¶r el
ĠL iv
Ġkap ital
H z
ti hat
Ġan i
Ġad r
Ġtur ist
ĠKÃ¼tÃ¼phan esi
S ch
lar lar
av uÅŁ
ost on
ĠbirÃ§ oÄŁu
ĠgeÃ§mi ÅŁte
es ki
ĠaÃ§ Ä±sÄ±
ep si
Ġsan tral
Ġtasar lanmÄ±ÅŁtÄ±r
Ġtedav isi
Ġente gre
Ġh el
ĠM ob
Ġal masÄ±na
Ġp omp
ĠÅŀ ehri
ĠyaÅŁ amÄ±ÅŁtÄ±r
bak anlÄ±k
ĠDÃ¶n emi
Ġmadal y
ĠÅŀir keti
Ġsaha da
B ul
P h
f iye
ab Ä±n
ĠgÃ¶v de
Ġseyir ci
Ġyam aÃ§
ĠyeÄŁ eni
G o
c aÄŁÄ±na
m und
ĠÃ§ aba
Ġkurul duÄŁu
ĠÃ¼Ã§ te
Ġhaz in
ĠuzaklÄ±k tadÄ±r
ĠEyal eti
M Ã¼z
il ecektir
dÄ± ÅŁÄ±
ĠaÄŁÄ±r lÄ±ÄŁÄ±
ĠB illboard
ĠÄ°n Ã¶nÃ¼
ĠÃ§ek imi
si os
ĠÃľr dÃ¼n
am o
Ġbulun makta
iyet in
Bu gÃ¼n
mem ek
Ã¼ldÃ¼ ÄŁÃ¼
Ġettir di
m aÄŁÄ±
ĠA P
or gi
ĠC engiz
ĠN er
Ġsay Ä±m
ĠEk onomik
Ġtak tik
I N
al anÄ±
ĠH Ä±z
ĠÅŀ iir
ĠsayÄ± lar
ĠBÃ¼yÃ¼k el
Ġoran la
ĠFestiv al
Ġces aret
ĠgÃ¶revlendir ildi
Ġg ey
ĠBar celona
Ġalg Ä±lan
Ġay kÄ±rÄ±
ĠsÃ¼r Ã¼lmÃ¼ÅŁtÃ¼r
Ġkuvvet li
S in
ĠKon g
ĠÃľniversit e
Ġdurumda dÄ±r
Ġanal izi
Ġf amily
ĠL ew
ĠÃĩ eÅŁitli
Ġyok sun
ĠTif lis
it asyon
ci d
Ġyeten ekli
Ġgitar ist
ĠMez arlÄ±ÄŁÄ±
s ist
st em
ĠO w
ĠÃľ zer
ĠyaÅŁam ak
Ġkarakter ler
ĠUy gu
ĠpÃ¼skÃ¼r t
O cak
Y ah
Ġk ade
ĠT ime
ĠR y
Ġkur arak
ĠV ah
Ãľ lk
ĠtÃ¼k etim
ĠHÃ¼kÃ¼m eti
ĠNÃ¼f us
Ġy alÄ±
ey z
ĠY et
Ġbil en
Ġkap ak
ĠSan d
ĠPro t
Ġalan Ä±ndaki
Ġ4 3
ĠgÃ¶rev inde
Ġbin anÄ±n
ĠaraÃ§ lar
Ġsertif ik
p oz
ĠB Ã¶ylelikle
Ġgem inin
Ġherkes in
ĠbÄ± Ã§ak
Tun es
Ġh iyer
ĠMillet vek
Ġanim asyon
ĠNit ekim
ĠdeyiÅŁ le
ĠR Ä±za
Ġgal aks
Ġac il
Ġvil ayet
t Ä±na
ĠÅŁ em
Ġorg anÄ±
Î ¹
im inde
dÄ± ÅŁ
ĠN am
Ġanlay Ä±ÅŁÄ±
E kim
Ä° H
Ġkomp lo
Ġyum urta
ĠÃ§Ã¶k Ã¼ÅŁ
F F
Ġm Ã¼st
du c
Ġp osta
eb ilmesi
ĠyÃ¶net en
ĠbÃ¶lÃ¼m den
ĠkaldÄ± lar
Ġders ler
Ġincel eme
Ġyap Ä±sÄ±nÄ±
ĠoluÅŁ muÅŁ
Ġolas Ä±lÄ±ÄŁÄ±
Ġleh ine
ĠMekt ebi
ĠpiÅŁ ir
at ta
ĠZ iya
ent o
Ġkav g
ĠColle ge
ÅŁ ir
ĠT ru
ĠgÃ¶r Ã¼leb
ĠsÃ¼r gÃ¼ne
Ġkab uk
Ġayr Ä±lÄ±k
ĠÅŀampiyon u
ĠgÃ¼c Ã¼nÃ¼n
B ay
I T
X T
k esi
Ġd oz
Ġh iz
ĠK aÃ§
Ä° D
ĠgÃ¶rev li
ĠBel grad
ĠBen zer
red din
ĠProj esi
Ġvez ir
ĠMadal yasÄ±
ek om
ĠS lov
Ġor ant
ĠdÃ¶n erek
Ġat ar
Ġmut f
ĠYak Ä±n
on larÄ±n
kin s
Ġail esine
Ġkah verengi
Ġfir masÄ±
Ġ lam
ĠK ey
ĠdÃ¼zen leme
Ġyen ildi
Ġkontrol Ã¼nÃ¼
ĠsÃ¼r mektedir
Ġzaman ki
Ġyol lar
ĠEr n
m elidir
v ille
Ġtaraf Ä±na
Ġgir mesi
ĠdÃ¼z gÃ¼n
ĠÃ§ek miÅŁtir
ĠAlman yasÄ±
Ġmo tif
l ast
Ï Ĥ
ad Ä±nÄ±
ĠN ah
Ġhak em
ĠÃ§alÄ±ÅŁmalar a
ĠgÃ¼ven liÄŁi
ĠIn di
Ġg Ã¼v
oloj inin
Ġsev diÄŁi
ĠkaÃ§ an
Ġuzak tan
teg ral
el eyen
at om
ĠD im
lam adÄ±
ĠseÃ§ kin
Ġmil li
Ġtak ma
Ġdonan ma
Ġzih insel
K az
S ar
ĠM az
ĠT u
Ġp ist
ĠyaÅŁ ama
iliÄŁ ine
ĠparÃ§asÄ± dÄ±r
ĠKol omb
ĠLa ur
Ġorkest ra
opotam ya
ĠK Ã¶l
ĠG Ã¶n
Ġad larÄ±
Ġat Ã¶ly
elen miÅŁ
ĠYayÄ±n larÄ±
ĠKarab aÄŁ
b ank
Ġg ur
as us
if f
Ġsay Ä±sÄ±z
ĠÃ¼Ã§ Ã¼nc
Ġsezon unu
B e
c ast
et y
ĠD un
ĠHan n
Ġolab ilecek
ĠLib ya
Ġcep he
A zerbaycan
D eniz
ĠK ant
Ġil ave
ĠT eb
Ġf emin
ĠtakÄ±m larÄ±
ĠkonuÅŁ ulan
ĠbÃ¼yÃ¼y en
Ã¼rr iyet
k Ã¶
ĠgÃ¶ster erek
Ġak ciÄŁer
ĠbaÅŁar Ä±sÄ±nÄ±
ĠBaÅŁ bakanÄ±
v arÄ±
Ġm eden
ĠK aÄŁan
ĠÅŁ ap
ĠBaÅŁ langÄ±Ã§ta
Ġkonusu dur
ĠVal isi
ĠHak k
t atÃ¶r
ĠG uy
ĠI ÅŁÄ±k
ĠgeliÅŁtir ilmesi
ĠMet al
Ġsoruml uluk
k aya
n ot
ĠT ig
Ġdestek lemek
ĠÅŁehr ine
Ġhayvan larÄ±n
Ġ190 9
don ezya
S el
g ili
Ä± yla
ĠÃ§ Ä±plak
ral Ä±k
ĠalÄ±r lar
ĠbaÅŁkan lÄ±ÄŁÄ±nda
adÄ±k larÄ±nÄ±
Ġbenim sen
ĠAlf red
ĠÃ§evr esel
Ġengel lemek
Ġfil tr
ĠdÃ¼zey inde
ĠTopl um
Ġk alarak
Ġm ini
or b
ĠT ac
Ġyaz Ä±sÄ±
Ġ4 7
ub uk
ĠKaz an
Ġic at
ĠH ap
ĠoluÅŁtur ulmuÅŁtur
Ġ190 5
Ġmolek Ã¼ler
ĠÄ±ÅŁÄ± ÄŁÄ±
Ġted arik
Ġparam etr
B er
ĠsÃ¼r Ã¼cÃ¼
ĠMal ta
Ġes t
Ġik iz
ĠyÃ¼zyÄ±l larda
Ġkonu lar
ĠbatÄ± da
ĠMÃ¼dÃ¼r Ã¼
Ġkilis enin
Ġikin cil
Ġkoruy ucu
o e
ĠM iss
ĠT urg
Ġkullan maktadÄ±r
Ġmas raf
Ġikti dara
ĠTay lor
ĠÄ°k tis
ĠN iz
ĠÃ§alÄ±ÅŁ mÄ±ÅŁ
Ġtem eli
ĠgeÃ§ir miÅŁtir
ĠmÃ¼l te
Ġdos ya
ĠB ran
ut in
Ġad anÄ±n
Åŀ ehir
ch t
ley ecek
Ġtes ti
Ġsun ul
ĠT s
ĠAr da
ĠÃ¶nc eleri
Ġhareket inin
mo dern
ĠBalkan lar
k un
ĠH Ã¢
Ġart masÄ±
Ġhim ay
l Ã¼t
ÅŁ an
ĠR eg
eb ileceÄŁini
Ġkal mayÄ±
ĠÃĩ iÃ§
Ġyan g
Ġ5 2
Ġoyn amÄ±ÅŁ
Ġbak Ä±ldÄ±ÄŁÄ±nda
Ġyazar Ä±n
ilm esinde
ĠV II
Ġbel ge
Ã§e ÄŁi
f urt
an dum
Ġd ed
ĠHam il
ĠsÃ¶zleÅŁ mesi
ĠPas ifik
Ġp ik
ĠyarÄ±ÅŁ manÄ±n
ĠgÃ¶rÃ¼ÅŁ Ã¼
Ã¼ler ek
Ġhayvan cÄ±lÄ±k
ĠF az
ĠdÃ¶n gÃ¼
ĠsÃ¶y leyen
por t
ĠnÃ¼f uz
ĠrÃ¼tb esine
Ð ¹
Ġt raf
ap e
ĠÅŁ ok
ĠulaÅŁ mak
ĠÅŁeklinde dir
ĠK h
Ġen zim
ĠÃ§Ä±k masÄ±na
Ġyol da
se a
ĠamaÃ§ la
d istan
et o
ĠR ab
ĠÃ§Ä±k Ä±ÅŁÄ±
Ġetm ez
ĠÃ¶lÃ¼m cÃ¼l
ell y
ĠtarÄ±m sal
Ġotur um
Ġhelik opter
Â ´
Ġh ediye
Ġturnuv a
Ġtav siy
ĠtapÄ±n ak
p ro
Ġk esi
ĠT ip
ĠN ij
ĠÃ¼Ã§ gen
ĠKar s
Ġhareket in
Ġnokt asÄ±na
ĠyaÅŁan dÄ±
Ġkategor isinde
ĠMim ar
Ġredde der
ilm eleri
ĠF ah
Ġyol una
ĠtÃ¼r ev
ĠÅŁekilde dir
Ġdolar lÄ±k
Ġhit ap
s ol
Ġ Ä±lÄ±m
ĠdoÄŁ duÄŁu
Ġbit ti
Ġgrub unda
zÄ± ÄŁ
ĠMc C
May Ä±s
Ġp res
ĠN ick
ĠÃ¼lk elere
ĠÃ¼st lendiÄŁi
Ġfazla dÄ±r
ĠbaÄŁÄ±m lÄ±
Ġkem an
ĠTer ak
ĠkullanÄ±cÄ± larÄ±n
ĠÃ¶de me
c Ä±n
n al
o ter
Ġsat Ä±r
Ġbenzer lik
ĠBil gi
Ġtakv iye
Ġsos y
Ñ ı
ĠY avuz
Ġkur gusal
ĠÃ¼y elerinden
ĠtanÄ±m lanmÄ±ÅŁtÄ±r
Ġkural larÄ±
Ġrekor unu
P a
iÅŁ li
ĠF K
ĠL ife
Ġ4 6
ĠÃ¼st len
Ġoyuncu larÄ±
ĠSte phen
Ġfayd alan
Ġk afa
ĠB iy
ap t
ĠC amp
ru vaz
ĠÅŀ ek
Ġhad is
ĠS us
eh an
Ġdur an
Ġsahiptir ler
adÄ±k tan
Ġturnuv ada
Ġk Ä±n
ik atÃ¼r
Ã¼l ler
Ġu laÅŁtÄ±r
Ġat let
Ġkend ileri
Ġsilah lar
Ġhap se
ĠmÃ¼hendis liÄŁi
m adÄ±r
ĠB azen
ĠM Ã¼f
ĠP sik
ĠmaÃ§ larda
ĠâĢ Ķ
Ġbildir ildi
ĠsÄ±cak lÄ±ÄŁÄ±
iliÄŁ inden
ĠkayÄ±t larÄ±
ĠsÃ¼t un
Ġs iv
Ġtarih ini
Ġdevlet ler
Ġkariyer inde
w ig
ĠF ik
ĠV illa
Ä±ÅŁÄ±k lÄ±k
3 00
k Ã¢n
eyi ci
An kara
Ġhey ec
ĠkatÄ±l maya
ĠhÃ¼cr eleri
Ġkapas itesi
ĠiÅŁken ce
Ġ aff
ÅŁ im
ĠS ul
Ġan ket
ĠgÃ¼n Ã¼n
Ġek lenmiÅŁtir
Ġtur unda
ĠyaptÄ±k tan
Ġmuhafaz a
ĠEst onya
Ä±m Ä±nÄ±
ok i
ĠyÃ¶n Ã¼
Ġasker lik
Ġmec lisi
Ġtaz min
ĠS aat
Ġetk isiz
Ġkom isyon
ĠoÄŁ ul
ĠyerleÅŁ en
ĠeleÅŁtir i
ĠyÃ¶netim indeki
Ġetraf Ä±ndaki
M L
at Ä±nÄ±
Ä° span
ĠO xford
ayÄ± t
ĠU S
Ġsistem de
ĠAd olf
Ġtarz Ä±nda
Ġyakal adÄ±
Gen Ã§
Ġs Ã¼n
ed isi
Ġkur umu
ĠgÃ¶z et
ros s
ĠÃ§aÄŁr Ä±ldÄ±
Ä± d
ĠS ultanÄ±
Ġkar Ä±n
ĠY alnÄ±z
ĠgeÃ§ ip
ĠyÃ¼z Ã¶lÃ§
ĠÃ§Ä±kar mak
ĠaraÅŁtÄ±r malarÄ±
Bir inci
Ġuygulan Ä±r
ĠGaz ze
Ġfos il
ĠAmeri can
et li
ĠB ag
Ġkay aÃ§
Ġden eme
ĠCol umb
ĠKah raman
ĠsaÄŁlay acak
ĠYÃ¶net imi
Ġkus ur
P G
ĠR ihanna
ĠL as
ĠGal ler
ĠÅŁirket inin
ĠAlek sios
o x
s che
ĠL ef
ĠAlman lar
Ġ" âĢľ
Ã¶n es
ula cak
ĠyÃ¶ntem ler
P er
u ÄŁu
Ġd Ã¼r
la d
ĠB ush
Ġen d
ov iÃ§
ĠAr sen
ĠÃ¼ret ildi
Ġtut mak
Ġsavun masÄ±
ĠBab il
ĠTÃ¼rkÃ§ eye
ĠAnton io
v is
du s
ĠyaÅŁ ay
ĠaydÄ±n lat
ĠdÃ¶ ÅŁ
al am
or gan
ĠG ez
Ġyat ay
Ġmer m
Ġdel eg
ĠdÃ¼ÄŁ Ã¼n
Ġeb eveyn
Ġkomplek s
am onu
ĠS ky
malar Ä±nda
Ġist ila
Ġkab lo
ris on
Ġbenz et
ĠParlament o
ĠParlament osu
Ġgelec ekte
c eli
ĠM ike
iz ma
Ġhal ini
ĠsaÄŁ lÄ±ÄŁÄ±
Ġdeniz altÄ±
ĠgÃ¼nÃ¼mÃ¼z deki
Ġegemen liÄŁi
ĠK y
ey sel
Ġharek Ã¢t
Ġkaynak lara
ĠMa ur
ĠiÅŁlet me
ĠÂ «
M y
T ube
g usu
Ġp ayÄ±
Ġr ob
mesi dir
aw n
ĠaraÅŁtÄ±rma cÄ±lar
ĠSim on
ĠAil esi
ĠÅŁ ebek
ĠmaÃ§ lar
ĠgÃ¼Ã§ lerini
ĠÃ¶nc Ã¼lÃ¼k
Ä°n g
ĠkullanÄ±m a
Ġarac Ä±n
Ġeksik liÄŁi
ĠyaratÄ± cÄ±
Ġyuvar lak
R ob
k ob
Ġr akÄ±m
Ġgel miÅŁti
ĠgÃ¶ster ilebilir
ĠdÃ¼ny ayÄ±
Ġuyar Ä±nca
u er
Ġol unca
im um
Ġhay Ä±r
Ġhareket li
Ġsahn ede
ĠÃ§oÄŁun luk
Ġtaht tan
Ġâ Ĥ¬
Ġs eferi
em emiÅŁtir
ĠV ek
Ġbas amak
ĠKar ay
ĠfÄ±r satÄ±
r eti
y Ä±ldÄ±z
ĠA mas
Ġar adan
Ġr ot
ĠÅŀ ev
Ġak Ä±ÅŁÄ±
Ġordu ya
ĠHal ife
ĠFl orida
Ï Ħ
Ä° m
Ã¼m in
ĠO na
Ġmerkez leri
Ġbak anÄ±
Ġesn ek
Ã ª
ĠB ang
ĠE la
Ġkal eci
ĠsaÄŁ lÄ±klÄ±
Ġsistem e
Ġada ya
ĠyayÄ±m ladÄ±ÄŁÄ±
ĠdaÄŁ Ä±n
ĠkÃ¼tl esi
D er
o de
ĠG Ã¼mÃ¼ÅŁ
ĠF ace
Ġed ilecek
ĠdÃ¼ÅŁ manÄ±
ĠÃ¶rnek ler
ĠsanatÃ§Ä± lar
Ġperformans Ä±nÄ±
Ġtav Ä±r
ĠWil son
K im
Ġr Ã¼y
Ġist iyordu
ĠbÃ¶lg elere
ĠgÃ¶rev lerini
ĠÃ¼r etir
Ġer dir
Ġgec esi
R NA
ĠÃ§Ä±kar Ä±lmÄ±ÅŁtÄ±r
Ġtak lit
ĠBrit an
ĠP ay
Ġkullan ma
ĠkarÅŁÄ± lamak
ĠÃĸ y
ĠolduÄŁ unun
ram a
ĠÅŀah in
Ġkuz eye
l iyor
ik alÄ±
alar ca
ĠF et
ĠV el
ĠÄ°ngiliz ler
ĠAli ce
sas por
T e
Ġas il
Ġverdi ÄŁini
Ġhiss ed
Macar istan
M ak
Ġk linik
et ta
iÅŁ sel
ĠÃĸz erk
ĠÃ§ocuk luk
Ġzarar lÄ±
ĠGÃ¶k tÃ¼rk
Ġi ade
ĠA ust
ĠS ant
Ġver ecek
Ġedildi ÄŁini
muÅŁ lardÄ±r
ĠPlay Station
D E
ad Ä±ÅŁÄ±
ĠS ami
Ġbelir lendi
ĠtanÄ±n dÄ±
ĠrÃ¼z gar
Ġreh ber
s unu
ur an
ĠÃ¼r eme
ley ip
Ġey aleti
ĠOn ur
ĠKap tan
Ġteknoloj isi
ĠboÄŁ az
Ġparlament o
im o
ĠE z
ĠR em
Ã¢ tÄ±n
Ġsan cak
ĠhikÃ¢y esi
ĠNA SA
ĠbÃ¼yÃ¼k lÃ¼ÄŁÃ¼
ĠmaÃ§ larÄ±nda
Ġlist ede
ĠgiriÅŁ i
ĠChar lie
K ara
f on
Ġk eÃ§
Ġk ast
eÄŁ men
ĠaÅŁam ada
Tem muz
l Ã»
m atik
Ġkal esi
ro jen
ĠÃ§al gÄ±
ĠâĢ ¬
Ġtut uldu
Ġbitir en
Ġhey et
ĠArt vin
ĠYas asÄ±
ĠmÃ¼rette bat
ĠKonservat uvarÄ±
S e
Ġb ize
ĠC orn
ĠoluÅŁtur ulmuÅŁ
Ġpr Ã¶m
ĠKil ise
ĠNo el
Ġleh Ã§
Ġt eb
at lÄ±
ĠD arb
ih a
Ġtem s
ĠsaldÄ±rÄ± lar
ĠDer gisi
arÅŁ Ä±
ĠOrt ak
ĠArt hur
Ġyans Ä±m
E ylÃ¼l
S ur
ĠT ug
ĠT eor
ĠF elsef
ĠJ ane
Ġvar ol
ĠbÃ¶lÃ¼m Ã¼ne
ĠCh el
Ġimparator u
Ġsendrom u
ers ey
iyet ini
Ġdik ey
kur gu
Ø ¯
ĠM elik
ĠM Ã¼cadel
eg o
Ġkayb eder
ĠMil ler
Ġbah ar
ĠTur an
ĠkoÅŁul lar
Ġmis afir
ĠaÄŁab eyi
k it
ĠK oz
ot ten
Ġayr Ä±lÄ±p
ĠÃ¶lÃ¼m Ã¼nÃ¼n
Ġedeb iyatÄ±
Ä±yor lardÄ±
Ġoper atÃ¶r
ĠtanÄ±t Ä±ldÄ±
en ti
ĠT av
Ġgel iÅŁti
ans al
Ġduy an
K Ã¶
Ã¼r ler
ĠM is
ĠiÃ§ e
ĠR and
Ġsun maktadÄ±r
ĠbatÄ± ya
ĠTurn uv
ĠB lo
ĠV it
Ġli ge
Ġfaaliyet lerini
ĠdoÄŁr ul
ĠQ ue
Ġsembol Ã¼
ĠyÄ± la
ĠfakÃ¼l t
R oma
y as
ĠB oston
ĠÃ§ Ã¼r
ĠT asar
ĠÃ§Ä±kar ma
ĠSanat Ã§Ä±
ĠTÃ¼m en
ĠMek ke
ĠSw ift
C ar
Ġg ri
ĠS Ä±nÄ±f
ĠÄ°s lÃ¢m
Ġdevlet inin
Ġikti darÄ±
Ġbiz im
" :
y id
as ter
laÅŁ an
Ġyem in
Ġsek reter
Ġdokuz uncu
Ġnadir en
ĠVictor ia
v ad
ĠbaÄŁ landÄ±
Ġtehlik e
ĠEyal et
o ugh
ĠB ec
Ã¼k s
ĠL iz
ac i
Ġvar y
ĠyÄ±ldÄ±z lar
ĠTw itter
ĠGog h
K urt
d il
Ã§ ois
Ġf ant
ĠC eb
ĠMez opotamya
ed on
ĠN ational
ĠÃ¶l mÃ¼ÅŁ
Ġev in
Ġkitap lar
ĠTur izm
ĠWal ter
ĠFlor ansa
k ut
am adan
ĠÄ° let
19 50
ĠZ en
ulu ÄŁa
ĠSt yles
Ġman ev
ĠBe at
um uz
Ġyol larÄ±nÄ±
ĠÃĩ ar
ĠkiÅŁ ilere
ĠdeÄŁiÅŁtir ilmiÅŁtir
olog lar
ĠatÄ±f ta
S c
Ä «
ĠparÃ§ acÄ±
ĠÅŁirket leri
Ġpat lama
Ġyorum lar
ĠMÃ¼slÃ¼m anlar
Ġrast lanÄ±r
ar os
lan Ä±p
Ġ7 00
Ġtab let
Ġtasar lanan
ĠgÃ¶k yÃ¼z
Ġuzan Ä±r
Ã§ Ä±l
Ġuy ku
gil ler
Ġkarakter istik
ĠSad razam
Ġtanr Ä±sÄ±
b iy
o i
x t
im on
ĠH ong
ĠJ un
ĠÃ¶nc Ã¼lÃ¼
ĠyarÄ± Ã§
ĠÄ°z landa
ĠyÃ¼rÃ¼t Ã¼len
ĠbakÄ±m dan
A ralÄ±k
m amaktadÄ±r
ĠM etin
Ġ( ,
Ġ5 7
ĠgÃ¶z altÄ±na
Ġtur u
ĠgeliÅŁ miÅŁtir
Ġdestek ledi
Ġyetkil ileri
ĠPier re
ĠBÃ¼l ent
b eri
art esi
ĠbaÄŁ lanmÄ±ÅŁtÄ±r
ĠdÃ¼ÅŁ Ã¼nÃ¼
ĠÃ§ek ilmiÅŁ
Ġsit esinde
ĠÅŀark Ä±nÄ±n
m iyor
Ġkur gu
ĠyaÅŁ adÄ±klarÄ±
Ġkap Ä±sÄ±
Ġoyn amaktadÄ±r
Ġteh di
ĠbaÅŁlar lar
Ġlider leri
bur y
Ġkonsan tr
C P
M ich
em at
ran Ã§
Ã® r
ĠgeliÅŁ mesi
Ġbirey lerin
li g
Ġn ehri
Ġpolitik acÄ±
Ġadam Ä±n
Ġden ge
ĠEl ektrik
Ġyazar larÄ±
ĠgÃ¼c Ã¼ne
ĠÅŁar j
Ġkesim inde
ĠSak arya
ed ilmiÅŁtir
ĠY urt
ĠdÃ¼zen lenmiÅŁtir
Ġimz alandÄ±
Ġmadd elerin
N o
at ur
ĠB Ã¼r
Ġkon f
ĠgeÃ§ mek
ildi ÄŁinde
Ġkazan Ä±lan
ĠtÃ¼r Ã¼n
ĠeÅŁ deÄŁer
ĠteÅŁ ebb
Ġseviy esinde
Ġmahall esi
t eÅŁ
ĠK Ã¢
ĠÄ° ler
ĠÄ°n ÅŁ
ĠoÄŁlu dur
Ġanlat Ä±lÄ±r
Ġtoplant Ä±sÄ±nda
ul l
ĠAn th
ĠgÃ¼n den
ĠgeÃ§ir miÅŁ
ĠtanÄ±m ladÄ±
ĠalÄ±ndÄ± ÄŁÄ±nda
ĠiÅŁlev i
Ġokuy ucu
ĠbaÄŁlam da
Ġg ev
as p
Ä±m larÄ±
Ġam casÄ±
Ġhakim iyeti
K o
Ù Ħ
Ġt ort
ĠM uk
ĠH af
ĠsÃ¶z lÃ¼
ĠsÃ¶z lerini
ĠkÄ±r dÄ±
ĠbaÅŁlat Ä±lan
ĠkÃ¶ÅŁ e
Ġkrom ozom
h one
Ġbir leÅŁik
ĠH art
ĠyapÄ±m cÄ±lÄ±ÄŁÄ±nÄ±
ĠKÄ±r mÄ±zÄ±
ĠÃ§evrim iÃ§i
ol n
Ġtah sis
Ġkut u
Ġgider ken
ĠKam u
s Ã¶z
âĢĻ âĢĻ
Ġkur maya
Ġsay fa
Ġyas asÄ±
ĠKons ey
ĠtaÅŁÄ± dÄ±
ĠantlaÅŁ ma
ĠYou Tube
ĠTok yo
D A
t z
al es
os una
Ġtaraf sÄ±z
dar ma
ĠgeÃ§ir ir
ĠyarÄ±ÅŁ Ä±
Ä±lm adan
Ġkitab Ä±nÄ±
ĠkanÄ±t lar
ĠiÅŁlev sel
gini a
t am
ak al
Ġyaz Ä±lÄ±r
Ġfilm lerinde
Ġdil in
ĠÅŁehir ler
ĠanlaÅŁ maya
Ġkuz eni
Ġdetay lÄ±
Ġ Ã¼vey
ĠÄ° h
ĠP S
ĠsÃ¼r Ã¼
Ġsay Ä±sÄ±nda
ĠdÃ¼zen siz
ĠkÃ¼ltÃ¼r Ã¼nÃ¼n
Ġb ana
et rik
ĠÃ§ im
Ä° Ã§
Ġpro v
ĠgeÃ§ir erek
Ġduy ulan
br ek
ĠkarÅŁÄ±laÅŁ Ä±r
ĠU s
Ġat Ä±k
ĠEn donezya
Ġtah mini
ĠhazÄ±r lanmÄ±ÅŁ
ĠMil ano
Ġerkek lerin
Ġetkilen en
ĠLin ux
ĠProfes Ã¶r
o on
r el
Ġgel iyordu
Ġor aya
Ġdil de
kÃ¼ dar
ĠÃ¶ldÃ¼r mek
ĠuzaklÄ±k ta
Ġma aÅŁ
h en
il imi
Ġk aÄŁÄ±
ÄŁ undan
Ġtaraf ta
ch en
ĠSal onu
R om
Ġy end
ĠO pen
mektedir ler
Ġfilmi dir
unt y
S ultan
d iye
ap a
Ġp az
ĠiÅŁ Ã§
Ġkarar Ä±nÄ±
Ġtoprak lar
ĠÅŁar tÄ±
l Ã©
Ġkend isiyle
ĠyarÄ±ÅŁ mada
ĠÃ¶dÃ¼l Ã¼ne
Ġkonser ler
Ġdef ter
b ack
Ġh ekim
Ġal acaÄŁÄ±
Ġdestek lem
ari us
Ġemr iyle
ĠMalat ya
k abÄ±
m aÃ§
an ce
Ġt itr
ĠyÄ±l lardan
ĠC r
iÃ§ esi
ĠAs lan
ĠkÃ¼t Ã¼phane
ĠHik met
M eh
ar di
Ġk lor
on c
la ir
ĠR i
ĠdÃ¶n dÃ¼kten
ĠtÃ¼m en
Ġrom antik
Ġnes ne
]] '
Ġyenil gi
Ġkup ayÄ±
ĠÅŁah Ä±s
ĠKolordu su
Ġv a
Ġkar Ä±
ro z
ĠiÅŁ areti
Ġsezon una
ĠEk onomi
Ġhav ada
ĠaÅŁir et
ĠgÃ¶ÄŁ Ã¼s
h u
l asyon
ĠK eÅŁ
oy unlu
Ġyaz Ä±lÄ±mÄ±
Ġgir ip
ĠsÄ± Ã§
Ġlist e
ĠyÃ¶netim inin
y at
ĠyÃ¶n Ã¼nden
ĠbaÄŁlan t
Ġmark a
O R
Ġf Ä±k
ĠE fes
ĠC re
ĠKar aca
Ġdevlet leri
ĠDair esi
eri ck
ĠaÄŁ ac
ĠErmen iler
ĠhÃ¢l inde
ĠFÄ±r at
ĠAugust us
S Ã¼r
Ġbul duÄŁu
Ġkur amÄ±
Ġede ceÄŁini
Ġrol Ã¼nde
ĠX box
N isan
ĠB es
Ġbelir terek
Ġkab art
ĠSon y
ĠkÄ±r k
Ġko lej
ĠÄ±s Ä±n
ĠÄ°spanyol ca
AÅŁaÄŁÄ± daki
k ili
v ard
Ã £
Ġboy n
ĠÃ§Ä±kar an
ĠkullanÄ± cÄ±nÄ±n
ĠÃ¶zellik lere
mÃ¼ÅŁ lerdir
ĠKay nak
ĠKit abÄ±
K a
M er
ĠbÃ¼yÃ¼k tÃ¼r
Ġok sit
ĠYahud ileri
Ġbitk iler
Ġsevgil isi
k Ä±rÄ±m
Ġ ...
Ġh e
ti ci
Ġbelirt ilmektedir
ĠmÃ¼ d
Ġverir ler
ĠkullanÄ±m Ä±nÄ±
Ġkir alÄ±k
Ġtr op
ĠMas s
ĠkarÄ±ÅŁ Ä±mÄ±
ĠS aman
Ġdevlet lerin
ĠYar gÄ±
ĠKup a
tu ÄŁrul
Ġkral Ä±n
ĠEm re
ĠdÃ¼ÅŁÃ¼nÃ¼l Ã¼r
ĠEyy ub
y osu
ĠT ag
ĠH D
ĠG un
ĠyÃ¼ksek lik
ĠgÃ¶rÃ¼n dÃ¼
ĠHay van
SC O
Ġgerektir en
M P
Ġz eytin
ec eli
ĠBaÅŁ k
Ġ190 7
ĠmÃ¼h im
ĠTerak ki
en h
iz li
ĠyÄ±l lara
Ġ5 4
Ġtah Ä±l
ĠÅŁehir leri
Ġdik tatÃ¶r
Ġprofes Ã¶rÃ¼
ĠÅŀeh zade
Ġmoment um
Ġg ram
ĠL ud
Ġkay dÄ±r
ĠbaÅŁar an
ĠMar ie
Ġtekn olojik
ĠDeniz li
Ġzir a
M on
b eyi
s or
st il
ĠF ot
Ġan t
Ġis abet
ĠÃĩ am
ĠÃ¼ret mek
Ġres ep
ĠÅŁarkÄ± larÄ±nÄ±
her e
Ġbulundu klarÄ±
Ġbir takÄ±m
Åŀ arkÄ±
Ġem in
ĠAd nan
Ġetkin liÄŁi
aman Ä±n
ub le
Ġman tar
Ġtep e
g it
Ġi Tunes
ĠA lem
ekt Ã¼el
Ġkon uÅŁtu
ĠgÃ¼n ah
ĠsÃ¶y l
ĠilÃ§ ede
Ġkli b
ĠWh ite
ĠoÄŁl unun
Ġvolkan ik
Ġs ir
Ġm Ã¼n
ĠK ob
ĠBu diz
yon un
Ġkazan mak
og en
Ġiz otop
ĠdeÄŁi ÅŁti
ĠAb haz
ĠgerÃ§ ekte
Ġazalt mak
b all
y m
Ġs eks
ĠbaÅŁ larÄ±na
Ġilk bahar
tr ik
ĠDÃ¼n yanÄ±n
ĠAr ke
ĠBur saspor
ĠgerÃ§ekleÅŁtir ilmiÅŁtir
Ġhav uz
Ġelektrik li
ĠStre et
Ġk ruvaz
ab le
Ġz em
lam asÄ±yla
ĠTÃ¼rk istan
Ġyol la
Ġgerek iyordu
ĠaÄŁ acÄ±
Ġkim liÄŁi
inc oln
S a
ÄŁ Ä±m
ay acaÄŁÄ±nÄ±
ĠK oc
iz an
ĠH igh
ut her
Åŀ ubat
ĠgeÃ§ it
ĠseÃ§ ilir
ĠgeliÅŁtir ildi
ĠPh one
Mo dern
g az
in can
ur o
Ġm ayÄ±n
ĠÃ§ anak
esi fik
Ġin ter
tr y
ag on
Ġdestek ler
Ġkarakter in
Ġkil isesi
Ġsem ptom
ĠyukarÄ± da
ĠOv asÄ±
ĠT ech
Ġtop lamÄ±
ĠÃ§ek imleri
ĠiliÅŁk ilerini
ĠyÃ¶netim ini
ĠUniversit y
Y Ã¼z
y ip
ĠB oÅŁ
esi h
ĠN orth
Ġkr edi
Ġmek Ã¢n
Ġesn ada
ĠChris tian
T S
ĠR u
Ġz evk
Ġev lat
ĠÅŁarkÄ± larÄ±n
fi ce
Ġkurum sal
BÃ¶l Ã¼m
D av
ĠK op
ĠT ri
ĠT ank
ĠE ver
ĠR ic
Ġzaman larÄ±n
ĠBer g
r ir
Ä± tÄ±
Ã¶ tesi
ĠB i
Ġkad Ä±nÄ±
Ġteknik leri
Ġsol unum
ĠHay dar
Ġba ÅŁtan
ĠÃ¶rt Ã¼sÃ¼
M at
Ġ Ä
ĠS n
Ġil ine
cu lar
ĠBizans lÄ±lar
Ġeyalet inin
Ġoda sÄ±
Ġmalzem eler
ĠÄ°t tihat
Ġgeomet rik
P eter
Ġ ),
ĠK evin
ap i
ok a
ĠE lec
Ġas istan
Ġtut ulan
Ġhareket ini
Ġdestek lenen
ĠRe is
da e
at han
ad din
ĠG B
ĠAl len
Ġetm edi
Ġnokt aya
ĠdÃ¼ et
ĠRos e
t anÄ±
en li
Ġh om
ac iÄŁer
Ġgel iyor
Ġen stit
ĠaynÄ± dÄ±r
ĠadlandÄ±r Ä±ldÄ±
198 8
Ġastr onom
ĠÃ§eÅŁ idi
ĠKi ev
is iydi
ab rika
Ġuz manÄ±
asyon larÄ±
tr on
Ġplan larÄ±
ĠtartÄ±ÅŁ malÄ±
ĠkÄ± ta
ĠeÅŁit lik
Ġolam adÄ±
r Ä±sÄ±
Ġv ali
la tÄ±
ĠD ost
ĠH ip
ĠgÃ¶r me
ĠMil an
Ġm Ä±sÄ±r
Ġkal kan
Ġkal mÄ±ÅŁtÄ±
ĠÃľ ret
ĠÃ¼lk esinin
Ġrek ab
arÅŁ ova
Ġbirey in
Uz un
ĠAnayas asÄ±
Ġh ediy
Ġal ev
ĠG ame
Ġyap Ä±sÄ±na
ĠV i
ĠÃ¼lk esine
ĠtÃ¼r Ã¼nÃ¼n
ĠEn dÃ¼
Ġnokt alarÄ±
Ġortal amalarÄ±
Ġla zer
ĠHo use
Ġver meyi
Ġisten en
ĠSamsun spor
li d
Ġn ic
Ġkend inden
lerinden dir
Ġinan Ä±lÄ±r
Al tÄ±n
ĠMah al
Ġmer diven
ĠbaÅŁlat Ä±ldÄ±
Ġstat Ã¼sÃ¼
Y Ã¼ksek
Ġt Ã¼rk
ĠAn kar
Ġ4 9
ley ebilir
lÄ±ÄŁ Ä±ndaki
ĠgÃ¶nder ir
Ġgem iler
ĠateÅŁ kes
Ġistem iÅŁtir
Ġmen aj
Ġsergil edi
Ġzirv eye
Ġinf az
B ak
am amÄ±ÅŁ
ĠL eg
Ġz ul
ĠdÃ¶n me
ing ham
Ġsanat sal
Ġfinal i
ĠÃ¶t esinde
Ġihrac at
s c
el im
ok im
alÄ± ÄŁÄ±n
Ġin tegral
eÄŁ iyle
ĠÃ¶nem lisi
ĠgÃ¼Ã§ lerinin
Ġzor dur
Ġbayr aÄŁÄ±
A na
Ġtar ikat
ĠC in
Ġkur ut
ĠÃ§Ä±k mak
Åŀ Ä°D
Ġneden lerle
Ġfor vet
ĠArap lar
opol it
ĠtanÄ±t tÄ±
n ut
t y
ĠA ile
ĠS iyah
ĠO st
os it
Ġgel ece
ĠkazandÄ± lar
amak la
ĠÄ°st ih
bey az
ĠhastalÄ± ÄŁÄ±n
ĠSoÄŁ uk
K ap
S Ä±r
d elik
Ġ ej
Ä±ÅŁ Ä±nÄ±
ĠE sp
Ġyer lere
ĠbÃ¶lÃ¼m ler
Ã» n
ĠAf rik
Ġsefer e
ly mp
ĠkatÄ± larak
ĠBat man
Ãĸr neÄŁin
Ġorant Ä±lÄ±
dÄ± ÄŁÄ±nda
lu p
Ġbulun mayan
ĠaÅŁ Ä±
ĠÃ§Ã¶z Ã¼l
ĠMer yem
ĠkÄ±sÄ±m larÄ±
ĠÅŁer ef
so ci
A ÄŁustos
Ġd inin
ĠsÃ¼r t
ĠgÃ¶rev ler
ĠOr ton
Ġsin dir
ĠÃ§alÄ± ÅŁtÄ±k
Ġnit el
Ġboyut u
ĠHen ri
el and
ĠB us
ĠG ot
Ġr et
Ġgel ince
Ġis yanÄ±
ley e
ĠbaÅŁladÄ± ÄŁÄ±nda
Ġses li
ledik leri
D o
iÅŁ imi
ĠD ili
ĠD Ã¶rdÃ¼ncÃ¼
der es
ĠÄ°s met
Ġeser ini
ĠWh it
ĠMahall esi
dÃ¶rt gen
ĠSlov en
E E
G re
p on
z ak
ĠS efer
Ġsu ya
Ġedil ip
Ġvak it
ĠProgram Ä±
Ġcen aze
A K
em iz
ĠuÃ§ aÄŁÄ±n
ĠuÃ§ak larÄ±
Man ia
ĠanlaÅŁmaz lÄ±k
Ġn ehr
uk uki
ĠÅŀ i
ĠW y
Ġder hal
Ġprogram Ä±na
ĠkullanÄ± cÄ±lar
ĠgerÃ§ekleÅŁtir miÅŁtir
ĠdeÄŁiÅŁtir me
Ġ189 0
ĠOper a
H an
Ġi ÄŁ
ĠK aya
ĠbaÅŁ bakanÄ±
ĠC amb
Ġn an
ĠTek sas
ĠkullanÄ±l mak
odin amik
al p
at ay
Ä° ran
Ġkar ayolu
ĠY emen
Ġc on
ĠaÃ§ Ä±lÄ±r
ĠAm b
ĠdeÄŁiÅŁ mez
ĠbaÅŁlam adan
ĠgeÃ§erli dir
B at
ul i
ĠH ow
ĠmaÃ§ tan
ĠZ er
ĠGÃ¼n Ã¼mÃ¼z
ĠMan isa
Ġfil osu
kar deÅŁ
Ġdek or
tel ektÃ¼el
4 00
T el
k Ã¢r
ĠD izi
ĠR as
te b
ĠÃ§ek mek
Ġgelen eÄŁi
ĠsÄ± fat
Ġbat Ä±r
ĠTekn oloji
Ã¼ ya
ĠS id
ĠK iÅŁ
Ġar ist
od or
Ġ lik
Ã§ Ä±n
al ist
ĠÃ§ ukur
ya b
Ġet ek
Ġkar g
lam asÄ±nÄ±
ĠgÃ¶re ce
ĠÃ¼lk esinde
ĠÃ¼lk elerden
âĢĿ "
ord on
Ġkoy un
ĠPer forman
Ġkoruy an
st en
Ġdevr inde
ĠhÃ¼cr eler
ir men
em it
iy ad
li c
ĠinÅŁ asÄ±
ĠateÅŁ i
Ġdakik alÄ±k
ĠÃ¼retic isi
NE SCO
Ġsans Ã¼r
P C
R ad
c esi
ĠÃ§alÄ±ÅŁ masÄ±nÄ±
eli a
ĠÄ°n an
ĠÅŁart larÄ±
ĠYÃ¼z yÄ±l
Film in
ĠsÄ±ÄŁ Ä±r
Ġgereksin im
Ã§ ent
ah isar
ab Ä±nÄ±
Ġda ima
ĠAl ay
Ġok ur
landÄ±r ma
Ġhaf Ä±z
ĠamaÃ§ layan
ĠÃ§oÄŁ unun
ĠVir ginia
K end
Ä±n dÄ±k
Ġy e
em ent
ĠT as
ab ad
Ġtab ur
ĠkuÅŁ ak
Ġkoy muÅŁtur
Ġfelsef esi
ĠGro up
ĠGazet esi
Ġima j
C an
M a
k ay
s Ä±r
oc tor
Ġaz dÄ±r
Ġyen ilerek
pr iz
198 5
ĠkarÅŁÄ±laÅŁ mada
Ġtutuk lu
Ġan lamak
ĠY eh
ĠW es
Ġoyla ma
on ca
la g
Ġkar ikatÃ¼r
Ġgir iÅŁti
ĠZ eyn
Ġtamam ladÄ±ktan
ĠÄ°z nik
ĠTrab lus
ĠOt to
ĠÅŁef i
ĠsoruÅŁtur ma
ĠWill ow
Ã¶nes ans
ĠArsen al
teÅŁ em
et tin
Ġbelir lenmiÅŁ
Ġenerj inin
ĠyaÄŁ mal
198 7
ĠeÅŁit tir
Ġfel aket
ĠmÃ¼d det
ÄŁ ra
ed an
le Mania
ĠP adiÅŁah
ĠaÄŁ rÄ±
ĠÃ§Ä±kar Ä±r
ĠaltÄ±nda dÄ±r
Ġkr iter
ĠolasÄ±lÄ±k la
ĠHamil ton
) âĢĻ
ĠÄ° pek
Ġz af
Ġkom it
Ġasker lerinin
ĠyerleÅŁ miÅŁ
din av
Ġrek oru
198 6
Ġfil o
Ġkah ramanÄ±
k oÅŁ
Ġs am
dir ler
ĠN ag
ĠOk yanus
ĠDe ad
ĠTay yip
ĠB ayan
ĠK ale
ĠR eÅŁ
ĠmÃ¼cadel esi
Ġnokt asÄ±nda
Ġistih dam
ĠC um
Ġan arÅŁ
Ġen z
ĠÅŁekil lendir
por ation
ilece ÄŁine
Ġpsik oloji
ĠMod el
W e
s ir
Ġanlam lÄ±
dem li
ĠBat Ä±lÄ±
ĠPo e
ĠChel sea
Ġ Ø§ÙĦ
ĠY ok
Ġtamam Ä±nÄ±
Ġsat Ä±ldÄ±
Ġkons ept
Ġkenar Ä±nda
Ġmuhafaz akÃ¢r
Ġ Ä±sÄ±r
en os
ĠG eleneksel
Ġbu Ã§uk
Ġkullan Ä±rlar
Ġ3 60
Ġpro ton
Ġsay Ä±sÄ±na
ob an
ĠSan ta
Ġkuvvet lerini
all y
Ġkitab Ä±nÄ±n
ĠbaÅŁkan lÄ±ÄŁÄ±na
Ġanlat Ä±m
Ġkapat Ä±ldÄ±
Ġkalit eli
ul duÄŁu
ĠS D
Ġbelir ler
20 20
Ġbirbir iyle
lanÄ±r ken
ĠayrÄ± c
Ġrefer andum
Ġgr ev
ĠsÃ¼v ar
B un
H ersek
k z
Ġol uyordu
lan maya
ĠT ed
Ġr as
Ġn az
ĠsÃ¼r dÃ¼ÄŁÃ¼
ĠHol landalÄ±
Ġbildir ir
Ġuygulan masÄ±
ĠdÃ¶ndÃ¼ ÄŁÃ¼nde
Ġmas k
ĠÃ§oÄŁ al
ĠKonstantin os
ĠgÃ¶m Ã¼ldÃ¼
Ġfinans e
Ä±r da
Ġz Ä±t
ĠaÃ§ Ä±lmasÄ±
kan dinav
Ġli f
ht t
ation s
Ġetik et
ĠÅŁer it
ĠÃ§Ã¶m lek
ĠiÃ§ ecek
ĠH ikÃ¢
ĠÃ ī
Ġon larla
sel l
Ġ5 1
Ġsistem atik
Ġayr Ä±lmasÄ±
ĠyaÅŁam Ä±n
Ġsun ulmuÅŁtur
Ä±mÄ±z a
ĠBah Ã§
ĠPot ter
j amin
Ñ ħ
Ġs Ã¼p
ig a
Ġel indeki
ĠgÃ¶ster iyor
Ġj ener
ĠSa id
ĠMor a
ĠoluÅŁtu ÄŁu
m us
al ya
Ġf lor
ĠG ece
Ġkal enin
Ġkab ile
Ġfark Ä±nda
ĠgÃ¼Ã§ ler
Ġtur a
ĠLig a
An adolu
Ġmes le
Ġbomb a
ĠayrÄ±l dÄ±ktan
Ġg raf
de ÄŁ
ist en
Ġkal ite
ri x
Ġort aÄŁÄ±
ign s
Ġdurum lar
Ġbas Ä±lan
tar af
ĠBr ad
Ġnak led
ĠYÃ¶net men
ĠKast amonu
ĠG len
Ġgel diler
ĠN es
Ġort amÄ±
ĠbÃ¶lÃ¼m e
ĠMar x
Ġart mÄ±ÅŁtÄ±r
Ġart Ä±ÅŁÄ±
Ġof is
ĠKan e
Ġkir eÃ§
Ġkariyer ini
ĠLu ci
Ġir ade
Cumhur iyet
Ġhiyer arÅŁ
Ġ áĥ
ĠB oh
lan masÄ±na
Ġko du
Ġ187 7
ĠkÄ±yÄ± larÄ±nda
ĠGre g
ĠÃ¼z eri
ĠgÃ¶ster im
tal yaspor
ĠÃ§ift lik
Ġzarf Ä±nda
A ÄŁ
ek k
em ik
Ġsah asÄ±nda
Ġser amik
adÄ±k Ã¶y
Ġoran larÄ±
__ __
b Ã¼yÃ¼k
ey ip
ini anus
Ġkal eyi
ĠJ r
Ġpro to
ĠSt ore
Ġgit miÅŁtir
Ġsaat lik
ĠyÄ±ldÄ±z Ä±n
Ã¼slÃ¼m an
Ġmim arlÄ±k
ĠÃĸÄŁr etmen
M ill
aÅŁ ist
ĠN i
Ġek s
ĠyÃ¼zyÄ±l lar
Ġiht im
Ġmodel ler
ĠfÄ±r tÄ±n
lamÄ±ÅŁ lardÄ±r
Ġkompoz isyon
Ġs h
lÄ± yordu
ĠJ uan
Ġdevlet e
ĠbÄ±rak Ä±p
ĠHor asan
Ġmezh eb
E L
c unun
f oni
Ä± cÄ±lar
li f
ilm ekteydi
oy d
ĠyapÄ± larÄ±n
Ġeser lerinin
Ġsun duÄŁu
ĠnÃ¼fus a
ĠÃ§ab alarÄ±
Ġnih ai
T am
at in
ĠB araj
ĠD ream
ti a
ĠF abrik
Ġan lar
iÄŁ inden
Ġ3 000
Ġyak alandÄ±
Ġek mek
ĠEr ic
tal ama
ĠOy unun
Ġmer ak
ĠÅŁifr eleme
ĠBalt Ä±k
g Ã¶z
la ce
eb ildi
ĠsÄ±r ayÄ±
ri el
Ġper de
198 4
Ġkonum una
ĠUn ivers
ĠTok at
ĠAj ansÄ±
hol m
Ġp rom
ĠG ur
ĠE leÅŁtir
Ġeser lerinde
ĠBey ler
Ġbirey ler
GÃ¼n eÅŁ
Ġs unan
dÄ±r an
Ġhat larÄ±
ektÃ¶r Ã¼
Ġgazet ec
ĠÅŁiir i
siy um
Ġtopr aÄŁa
ovan ni
h ret
Ġd alÄ±
ĠN an
ib al
Ġoyn at
ren ce
ĠkadÄ±n lara
Ġbab asÄ±nÄ±
ĠÅŁirket ler
ĠCarl os
KÄ±z Ä±l
B Ã¼tÃ¼n
Ġd oy
ĠK ork
us undaki
Ġyay Ä±ldÄ±
Ġtamam lamÄ±ÅŁtÄ±r
ĠÃ§alÄ±ÅŁmalar da
ĠgÃ¶nder erek
Ġci h
ĠBur adaki
Ġ190 6
Rus Ã§a
ĠÃľs kÃ¼dar
k apÄ±
n ez
ĠG eri
ĠO dasÄ±
os fer
Ġyer inden
ĠtanÄ±m layan
Ġeser lerin
ĠAt ab
Ġgiy s
ĠÅŁekl ini
Ġk Ã¢r
ĠD ic
âĢ Ķ
ĠE ug
ig an
Ġtop landÄ±
ĠsaÄŁ lanmasÄ±
ĠalbÃ¼m den
ĠMar g
oh bet
Ġkuvvet lerin
ĠAvust ur
ĠakÄ±ÅŁ kan
ĠÃ¶dÃ¼llendir ildi
Ã ł
Ġol uyor
ĠM P
eri cho
Ġr iski
ĠÅŀ ar
Ġ5 6
ag en
ĠEr tuÄŁrul
Ġem retti
ĠÄ°talyan ca
Ð¾ Ð²
ĠGel iÅŁtir
ĠÃ¼stÃ¼n lÃ¼k
Ġf ah
ĠbaÅŁ lanan
ĠN um
ĠdoÄŁ muÅŁ
Ġik isinin
Ġsor unun
Ġkuzey indeki
ĠilÃ§ esinin
Ġyat Ä±r
ĠSch w
itt le
ĠBek ir
ĠPolon yalÄ±
Ñ Ĭ
ĠH id
Ġn azar
Ġtaraf lÄ±
Ġtop lamak
Ġkat il
Ġsahip leri
lab ilecek
ha us
ĠSp ace
Ġdemokr as
ĠseÃ§en ek
ĠMÃ¼hendis liÄŁi
Tan rÄ±
ĠBaÄŁÄ±m sÄ±z
Ġkatk Ä±sÄ±
Y ukarÄ±
b ran
at larÄ±
ĠL incoln
ĠV arÅŁova
Ġ7 2
Ġdair esel
Ġfizik Ã§i
ĠCla udi
asyon un
ĠyayÄ±n lamÄ±ÅŁtÄ±r
larÄ±ndan dÄ±r
Ġprogram Ä±nÄ±n
ĠMich el
ĠHak an
Ġcis min
ĠdÃ¼ÄŁ Ã¼m
ĠKole j
Ġiz ni
Ġtut ulur
Ġres imleri
Ġkan lÄ±
ĠMar eÅŁal
Ġturnuv aya
Ġcumhur baÅŁkanlÄ±ÄŁÄ±
Ġmilliyet Ã§i
ĠNij er
K ut
z y
Ġy y
Ġn amaz
Ġbirlik lerini
ĠÄ°s ra
Ġem isyon
ĠHer ak
Ġiler leme
Ġkaybed erek
ĠTapÄ±n ak
g enin
il iÅŁ
Ġs k
ĠyÃ¼r Ã¼m
ĠiÅŁlem ci
ĠIn tel
Ġoyunu dur
Ġsenar ist
p i
u al
Ġd is
ĠÅŀ em
ĠÃĩ elik
Ġtr ib
Ġfabrik asÄ±
ĠÂł ĠÂł
M et
s ayÄ±
ir Ã¼s
ev a
Ġf olk
ti j
laÅŁ maya
Ġkurul masÄ±na
Ġ15 00
Ġbur un
Ġprogram lama
Ġgi diÅŁ
ĠHristiyan lÄ±k
Ġref ah
ĠkazandÄ±r dÄ±
Ã£ o
S ev
g y
ir it
Ġy Ä±r
ĠL y
ĠyaklaÅŁ Ä±mÄ±
Ġkav ga
ĠBro ad
ĠhasÄ± lat
ĠÃĩekos lovakya
s ah
s ey
Ñ ĩ
Ġb eni
ĠdÃ¼zen lenmiÅŁ
ĠÃ¼ret ilir
Ġprogram Ä±nÄ±
ahat tin
ĠMes lek
Ġac Ä±m
ĠJac ob
k lar
ÄŁ Ã¼nÃ¼n
ĠÃ§ in
Ġp laj
Ġyaz mÄ±ÅŁ
ĠbÃ¶lg esini
Ġdurum dan
Ġoyn ar
ĠoluÅŁtur ma
Ġ8 5
Ġdeniz den
ĠgÃ¶rÃ¼ÅŁ leri
ond o
Ġpat ent
es pe
at Ã§Ä±
ki e
ĠdÃ¶n Ã¼k
ĠgÃ¶ster miÅŁ
ĠbaÄŁlan Ä±r
Ġlim anÄ±
ĠÃ¶ldÃ¼rÃ¼l mesi
Ġhastan eye
Ġmu am
ĠNet work
Ġgelec ekteki
Ġc o
Ġprogram da
Ġmadd eleri
ĠMilletvek ili
E t
b ach
Ġitib ar
ĠuÄŁr amÄ±ÅŁ
ĠRe igns
Ġmut fak
ĠkÄ±sm Ä±na
ĠKÃ¶l n
Ġan Ä±nda
Ġen telektÃ¼el
ĠgÃ¼n leri
Ġmet ot
ĠdeÄŁer ler
Ġplan da
Ġlider liÄŁindeki
Ġ190 4
Ġegemen liÄŁine
Ġkayded ildi
ĠT ra
ĠN ormal
ĠsÄ±nÄ±r landÄ±r
Ä°ngil tere
ĠCel al
Ġterm inal
V er
k rip
ĠÄ° yon
ĠR ep
Ġkal em
ĠAr m
Ä±y aka
ide s
Ãĸ lÃ¼m
ros e
Ġplat in
ĠKÃ¶pr Ã¼sÃ¼
i der
ĠH emen
ov en
Ġam ino
Ġser vet
ĠtÃ¼m Ã¶r
ĠSavaÅŁ Ä±n
ĠMar cus
ĠRad io
Ġmiz ah
ĠgÃ¶rel ilik
p ol
Ñ Į
ĠK id
Ġam p
ow ski
ĠyapÄ±l masÄ±nÄ±
ĠrÃ¶ van
ĠvÃ¼cu d
L A
im ize
ĠS Ä±nÄ±r
Ġal k
Ġf ederasyon
ĠP ale
Ġail esiyle
Ġanlat tÄ±
ĠDoÄŁ al
ĠAbdÃ¼lham id
Ġ1 01
ĠH ic
ĠgeÃ§ tikten
Ġbel le
ĠyapÄ± larak
ĠAt h
Ġbelirt mektedir
ĠÃ§iz im
Ġdo larÄ±
Ġpay laÅŁtÄ±
ĠEv i
Ġkah v
Ġhip er
ĠendÃ¼ stri
Ġkoz m
ĠSek reter
ĠHein rich
Ġpak eti
Ġv ampir
it us
Ġzor un
Ġbak Ä±nÄ±z
Ġmerkezi dir
Ġmotor lu
Ġortal am
ĠkatÄ±lÄ±mÄ± yla
b us
Ð ±
Ġ qu
Ġf ren
Ġyay Ä±na
ĠOsmanlÄ± larÄ±n
dÄ±k larÄ±nda
ĠkÄ±z larÄ±
Ġdestek li
Ġform u
ĠdeÄŁiÅŁtir erek
ĠÃ¶ldÃ¼rÃ¼l mÃ¼ÅŁtÃ¼r
S ab
t ah
an mÄ±ÅŁ
ev it
Ġr ev
ĠyÃ¶n elt
asyon el
ĠyayÄ±n lanmÄ±ÅŁ
Ġdil inin
Ġbilg iye
ĠbaÅŁarÄ± lar
Ġimparator luÄŁun
Ġy eme
Ġs ound
ĠB ed
Ġyay Ä±nÄ±
Ġetm eleri
iyor uz
Ġsen s
ĠÃĸr nek
Ġtal ebi
ĠyarÄ±m ada
Ġfazl asÄ±
G al
em on
Ġn em
ĠiÅŁ it
Ġmet ab
Ġkol tuk
198 3
ĠÃ§ap raz
Ġyetk ili
Ġb ran
Ġas lan
ran ge
Ġak l
ĠEn erji
Ġpop Ã¼
Ġmekt ub
Ġkayded ilmiÅŁtir
Ġpu anÄ±
K Ä±s
in san
ĠN uri
ta at
ot u
ĠdÃ¼ÅŁ mÃ¼ÅŁ
ĠSon g
Ġef ekt
ĠCor poration
ĠeleÅŁtirmen ler
áĥĺ áĥ
E P
ĠÄ° van
ĠF arklÄ±
ĠsÃ¼r priz
Ġolm amasÄ±na
ĠyÃ¶n den
ley iÅŁ
Ġtamam layarak
ĠFran z
may acak
Ġcihaz lar
ĠbirleÅŁ erek
Arap Ã§a
k ap
ut a
ĠiÅŁ ini
ĠgÃ¶rÃ¼ÅŁ ler
Ġdefn edildi
G az
Ġt ap
Ġil hak
Ġbelirt ildi
Ġberaber lik
tiv a
ĠkaldÄ±r Ä±lmasÄ±
Ġih mal
ĠAlbÃ¼m de
ĠÃ§evir di
Ġolas Ä±lÄ±
Ġhoc asÄ±
ĠAmas ya
Ġej der
ĠS ava
ĠbÄ±rak tÄ±ÄŁÄ±
ĠKat edral
Ġderin lik
ĠEdeb iyatÄ±
Ġb Ã¼k
ĠS Ä±k
ĠP rag
ĠY our
Ġ5 3
Ġiz ole
ĠRus larÄ±n
Ġkuzey doÄŁu
Ġkaybet miÅŁ
Ġoynan dÄ±
Ã¶ÄŁr en
Dev let
ĠTrip le
h oÅŁ
st ra
ĠP ower
up er
ĠZ Ã¼r
ĠdeÄŁer ini
Ġkarakter leri
ĠÃ¼retim inde
ĠayÄ±r an
ĠAz eri
ĠBilim leri
O t
Ġy unus
ul maz
im ar
ĠbaÄŁ Ä±
ag u
Ġman evi
Ġkonu larÄ±nda
Bir leÅŁik
ĠyÄ±ldÄ±z larÄ±n
Ġyarar lÄ±
ĠCen ter
ĠdayanÄ±k lÄ±
ĠtÃ¼n el
K om
Î »
Ġyap Ä±yor
ĠL ong
asyon a
Ġsistem lerinin
ĠgÃ¶nder me
Ġkuzey batÄ±
ĠFer n
ĠYaÅŁ am
m iye
Ġ ec
an yasÄ±
ĠgerÃ§ek Ã§i
Ġsar mal
Ġdon dur
ĠkullanÄ±m Ä±na
ĠcanlandÄ±r dÄ±ÄŁÄ±
Ġseslendir diÄŁi
ĠFrank furt
espe are
c ol
Ġar da
ĠY Ã¼ksel
ĠL id
ĠdÃ¶nem deki
Ġolmak sÄ±zÄ±n
ĠBak anlar
Ġinan cÄ±
Ġsar s
ĠUz ak
ĠiP hone
ĠfÄ±rlat ma
aft iz
s avar
Ġbir leÅŁti
Ġver miÅŁti
Ġyay Ä±lmÄ±ÅŁ
Ġbilg inin
Ġkarakter lerin
and al
ĠHam burg
Ä°l Ã§e
Ġteles kop
ĠG ood
ĠL am
ĠtÃ¼m Ã¼
Ġmad enc
Ġail esinden
ĠAf yon
Ġbirbir ini
ĠgÃ¼ney doÄŁu
Ġhan e
ĠKÃ¼r e
ĠSen ato
iter atÃ¼r
m il
Ġv ade
ĠK Ä±p
Ġil etim
af i
av er
ĠÃ¶z Ã¼r
Ġkay alÄ±k
Ġak siyon
ĠÅŁehir lerde
ĠOn lar
ĠtaÅŁÄ±m ak
ĠÄ°st ik
Ġnef es
Ġk Ã¼p
ĠyÃ¼r Ã¼dÃ¼
ĠOrdu s
ĠgeÃ§miÅŁ i
Ġdost luk
ĠGenÃ§ler birliÄŁi
c uk
ĠB est
ĠS hane
ĠD C
ĠD ark
ĠY at
ĠAn Ä±t
ĠaÃ§ Ä±sal
Ġtarih Ã®
ĠbaÄŁ Ä±ÅŁÄ±klÄ±k
Ġfaaliyet e
enc ere
Ġhatt Ä±nÄ±n
s y
il et
Ġh ik
Ġm Ã¼c
Ġyap mÄ±ÅŁtÄ±
Ġolm am
Ġ6 3
Ġberaber inde
ĠAnd erson
Ġileri de
ĠbasÄ±n cÄ±
ĠRol lins
n esi
p osta
Ã§ eri
Ġd ua
at ed
di e
ez ir
ĠÃ§eÅŁit lilik
Ġgiy diÄŁi
lob al
ĠÃ§Ã¶zÃ¼nÃ¼r lÃ¼k
Ġg ran
ĠP or
ĠsÃ¼r Ã¼c
men ler
Ġsu da
ĠHan lÄ±ÄŁÄ±
ĠYap Ä±m
ĠP ak
Ġolan larÄ±
ĠJ ericho
Ġbek lem
Ġkelim esinin
Ġdolay lÄ±
ĠdoÄŁu ya
Ġvak Ä±f
ĠPet ers
amay acak
O H
S ah
k Ä±s
ek e
Ġda ire
ĠaÃ§Ä±k lamak
Ġim al
ĠsaldÄ±r Ä±sÄ±na
Ġuzak ta
Ġrahat sÄ±zlÄ±k
n it
Ġg azÄ±
as Ä±n
iy al
ĠS k
Ġr af
ĠY e
Ġolan aÄŁÄ±
ĠL um
Ġtop lar
ĠdÃ¼ÅŁÃ¼n en
Ġdik dÃ¶rtgen
ĠÃĩin li
ĠPer u
ĠSo uth
ĠtaÅŁÄ± dÄ±ÄŁÄ±
ĠyÃ¶rÃ¼n ge
Ġkar aya
Ġyan Ä±ndaki
ĠiÃ§er isine
ĠÃ¼ret tiÄŁi
Ġmet rek
ĠgÃ¶rÃ¼ÅŁ lerini
Ġmesaf ede
ĠyÃ¶nel di
Ġcen az
M ust
ab ilme
len meye
Ġhal ife
ust ik
Ġhayat Ä±nda
esel a
Ġkum andan
ĠTÃ¼rkÃ§ esi
Ġtor p
ĠdÄ±ÅŁarÄ± dan
ĠÄ°li ÅŁk
g eleri
ar n
ad alÄ±
li van
ĠD re
ĠE mek
Ġan iden
ĠI ÅŀÄ°D
Ġter mal
ĠMÃ¼cadel e
Ġresep tÃ¶r
b ine
Ð ·
Ġb Ã¶ylelikle
Ġf an
eri us
Ġu cu
op her
Ã¢ de
ĠÃĩ ukur
ĠU NESCO
atÄ± yla
Ã» l
ich i
Ġkonum da
Ġelektrik sel
ĠPh o
ĠÃ§ab uk
ĠErz incan
g as
Ġk ost
iy op
ru f
od rum
Ġbin alar
ĠÅŁey tan
Ġhav aya
ĠÄ°k ili
ĠMen deres
ĠÄ°d man
ĠAleksand r
U y
ut t
ĠyÃ¶n Ã¼ndeki
Ġkab a
eg el
Ġada da
Ġgelir ler
ĠkÃ¶k lÃ¼
Ġdeplasman da
er on
Ġp eyn
ĠF ort
Ġver it
ĠiÅŁ lerini
ĠdÃ¶nem den
ĠbÃ¶lg elerine
Ġ6 8
ent in
ĠgeÃ§ir diler
ĠAs soci
Ġbur s
meler e
E d
N S
Ġ( ;
ĠalbÃ¼m e
ĠLig de
ĠuÄŁr ayan
Ġsp esifik
ĠRos s
W indows
Ġh eter
Ġ5 8
Ġuyg arlÄ±k
Ġpat ron
ĠMac h
Ġle jyon
ĠolmadÄ± ÄŁÄ±ndan
Ã¼min yum
K or
T O
Ã¼ hr
ÄŁ Ã¼ne
Ġm uz
ĠG ay
Ġn orm
Ġilk el
ĠIn c
ĠkayÄ±t lÄ±
ĠkarÅŁÄ±lan dÄ±
ĠMilliyet Ã§i
l aki
Ä± ya
ÅŁ a
Ġk ey
Ġp o
ti h
ĠÃ¶z en
he w
Ġsay gÄ±n
ĠaÅŁ amasÄ±
ĠEn ver
ĠkuÅŁ lar
ĠÃ§Ã¶z Ã¼mÃ¼
ĠKen an
Ġyetkil iler
Ġyel ken
ĠM os
ĠÃ§evr eleyen
ĠÃ§ekir d
ĠHin du
eb ir
ĠJ ersey
Ġuy uÅŁ
ĠsaÄŁ lanan
Ġede cektir
ĠÃ¶ldÃ¼r Ã¼len
ĠBr un
ĠkullanÄ± lacak
ĠsÃ¼rdÃ¼r mÃ¼ÅŁtÃ¼r
ĠoluÅŁturur lar
Ġaleyh ine
ĠMob ile
ĠFace book
G P
T T
Y az
Ï ĥ
as u
Ġhak aret
Ġgetir ilmiÅŁ
oÄŁun lukla
198 2
au x
Ġdost u
ĠGi orgi
ĠA Ã§
lan masÄ±nÄ±
ĠP el
ĠO d
lam adan
Ġc asus
Ġkad er
Ġolm amÄ±ÅŁtÄ±r
Ġbelir leyen
ĠeÅŁ ya
ĠgÃ¶rÃ¼n ce
ĠLig ht
Ġedil emez
Ġotur an
ĠGaz ete
ĠKim ya
Ġetik etiyle
ĠÅŁans Ä±nÄ±
Ġt raj
ĠY edi
lem eler
ĠAr ena
Ġsaat lerinde
ĠkÃ¼l t
K adÄ±n
g Ã¶l
Ġf utbola
Ã¼l mektedir
ĠY urdu
ĠL ey
Ġver ildiÄŁi
Ġkal dÄ±ktan
ĠgeÃ§ im
Ġtop ar
ĠyaÅŁ Ä±ndan
ĠÄ°s kandinav
ĠgeliÅŁtir ic
Ġtemel inde
Ġsey r
Ġlider lik
Ġkolay lÄ±kla
Ġdevr eye
ĠDoÄŁ ru
ĠdavranÄ±ÅŁ larÄ±
ÃŃ a
ĠiliÅŁkili dir
Ġaray Ä±ÅŁ
ĠÃĩev re
Ġvide osu
z ig
on im
Ġm asal
esi f
eÃ§ h
Ġ7 6
Ġsat Ä±lan
ĠBey liÄŁi
Ġfaaliyet lerine
ĠÃĩal Ä±ÅŁma
ÅŁ et
ĠK rist
ĠI van
ĠÄ°n cil
ten do
Ġkes me
Ġpolitik alarÄ±
ĠHak kÄ±
ĠartÄ±r mak
ĠNik olay
Ġdemokr asi
ĠhÃ¼kÃ¼met inin
Ġantren man
Ġban ka
Ġkims enin
Ġten is
ĠgÃ¼z erg
Ġvah ÅŁi
Ã ¸
ek kÃ¼r
ĠaÃ§ Ä±lmÄ±ÅŁ
Ġkap lÄ±dÄ±r
ĠÃ§ek ilmek
ĠeleÅŁtir el
mez ler
Ġko Ã§
ĠBen jamin
ĠGer Ã§
Ã¼kle er
ĠCen evre
ĠmÃ¼lk iyet
ĠTurg ut
ĠCamb ridge
g esel
ĠS mackDown
Ġtarih lerde
Ġyaz Ä±n
Ġetm esiyle
adÄ± lar
Ġpar ad
ĠsaÄŁ landÄ±
Ġim tiy
oÄŁraf ya
ĠFran Ã§ois
ĠkarÅŁÄ±laÅŁ masÄ±nda
ĠPlat on
r il
el iler
Ġh ukuki
ĠK aÅŁ
ĠM r
ĠD J
ĠH ell
ĠÃ§alÄ±ÅŁ Ä±rlar
ĠyÃ¼k Ã¼
Ġedilm eye
ĠalÄ±n dÄ±ÄŁÄ±
Ġkuvvet lerine
ĠSp ike
ĠÃ¼retim ine
Ġkurum larÄ±
ĠÅŁiddet le
ĠRes mi
pek tif
ĠTeÅŁkil atÄ±
Ġv oleybol
Ġal masÄ±nÄ±
ĠN ow
Ġyer in
tÄ±r aÅŁ
ĠSt ock
ach el
Ġkaf at
ĠtÃ¶ren inde
ĠparÃ§acÄ±k lar
G Ã¶
Z aman
l iyordu
mak am
ĠaÃ§Ä±k lamasÄ±
bu gÃ¼n
Ġbes lenme
ĠCharl otte
ĠDiz inin
lÃ» k
U R
Ã§ al
es yon
Ä±nÄ± p
ĠF A
Ġbirlik lerin
ĠZ eki
Ġdil bilim
Ġbar Ä±n
ĠSer best
ĠOn u
ĠkÄ±ÅŁ kÄ±r
Ø§ Ø
6 00
C O
Y Ä°H
à ¤
es un
ĠÃ§ iÄŁ
ĠÃ§ Ä±ÄŁ
ĠT ir
ĠD eb
ĠP unk
Ġetk ilerini
Ġharek at
Ġsor ar
ĠkaÃ§ ar
Ġtasar landÄ±
Ġkam yon
ĠbaÅŁarÄ± ya
Ġkorum asÄ±
ĠSam uel
olog y
Ġmeden iyet
ĠT own
ĠL ag
Ġin anan
Ġetm ekteydi
Ġkazan dÄ±klarÄ±
ĠaÃ§Ä±k layan
Ġail esini
Ġrest ore
h os
v ay
Ġtaraf Ä±n
ec isi
ĠKur um
Ġtemsil cileri
Ġadet a
Ġmimar isi
ĠkÃ¼m esi
Ġlak abÄ±
ĠAtlan tik
Ġlev h
Bey az
ĠÃĸzbek istan
ĠelveriÅŁ li
ĠÄ°let iÅŁim
k az
r aki
ĠH ep
eg a
ĠtÃ¼r Ã¼nde
ĠgeniÅŁ liÄŁi
ĠÅŁehr ini
D Ã¶n
ad er
ĠT ang
Ġolan Ä±
ĠBu h
ro und
Ġbulun mak
ĠU ÄŁur
ĠyÃ¼z eyi
iyor sa
ĠsÄ±nÄ±r larÄ±nÄ±
ĠSh in
Ġpiyas a
Ġbeklen medik
ĠendiÅŁ e
lÄ±lÄ± ÄŁÄ±nÄ±
ĠWrest leMania
Ġom urg
M us
ĠA R
Ġan ki
og ram
ĠÄ°l Ã§esi
ĠhÃ¢ le
C A
s inde
t re
ĠyÄ±l Ä±nÄ±
ĠR yan
ec ht
ĠyaÅŁ Ä±
ĠU N
iv a
Ġkazan Ã§
Ġsan iy
ĠtÃ¼r lerin
Ġsat arak
Ġsat Ä±ÅŁÄ±
ĠanlaÅŁ Ä±lÄ±r
Ġfet ih
ĠC IA
ĠL ock
ĠbaÄŁ lar
ĠdÃ¼ÅŁ mesi
ĠbÃ¶lg esinden
ĠZ or
ĠMah k
Ġcerrah i
ĠLew is
t ika
ĠS uz
ab ildiÄŁi
ĠJ a
Ġyas ama
ĠÃ¶zellik lerine
ĠDÃ¶n emin
- -
Î ³
el ey
ĠV at
od ot
ĠgÃ¶ster imi
ĠMar c
ĠÅŁey h
Ġincel eyen
ĠGir l
ĠTom my
iforn ia
Ġ #
ey ken
ti ons
Ġbul ma
Ġon lardan
oz an
ĠÅŁekil lerde
ĠsÃ¶y lenen
ĠÃ¼y elik
ĠRes im
ĠsÃ¶mÃ¼r ge
ĠgÃ¼z ellik
Ġk ronik
ah it
Ġoyn amak
Ġark asÄ±ndan
ĠbÃ¶ brek
Ġdom uz
YÄ±l Ä±n
ar da
en berg
ah h
Ġp iskopos
om atik
ĠL av
Ġen g
Ġkur s
Ġsah asÄ±
Ġgir mek
ĠsÃ¶z ler
Ġkol tu
ĠgÃ¶rÃ¼n mektedir
ĠHar vard
Ġkaybet tiÄŁi
ĠFer din
Ġ188 0
imiz in
ĠKÃ¶y Ã¼n
Ġteklif ini
Ġith af
B I
c iliÄŁi
l ut
m elerde
Ġs odyum
et he
am en
ĠH ugo
Ġkar aciÄŁer
ĠR oc
Ġuy dur
ĠgÃ¶rev lerinde
Ġkit le
ĠulaÅŁ mÄ±ÅŁ
Ġce bir
Ġmark asÄ±
ĠÃĸÄŁr enc
ĠbaÄŁÄ±r sak
ĠÅŁÃ¶ hret
u duÄŁu
v es
Ä±l Ä±nca
Ġf abrika
Ġilk okul
Ġtek lisi
Ġtah kim
ĠStan dart
Ġsermay e
ĠJor dan
ĠacÄ±m asÄ±z
c iye
et z
eÅŁ me
Ġyer lerinde
Ġpar alÄ±
Ġder nek
Ġsal gÄ±n
ĠKul esi
ĠMoÄŁol lar
S Ã¶z
c ay
in y
ĠS ef
ah t
li a
ĠH omer
ĠR ow
Ġmet od
Ġdav asÄ±
iliÄŁ inin
ly n
S ezon
e e
Ġal Ä±m
ĠR ud
ĠsÃ¼r ek
ĠJ ay
Ġkat Ä±lmasÄ±
Ġat Ä±lmÄ±ÅŁtÄ±r
Ġok ut
ĠbÃ¶lÃ¼m Ã¼nden
lak e
ĠgÃ¶tÃ¼r dÃ¼
Ġhukuk u
Ġham ile
ĠCon n
Ġreak tÃ¶r
ĠmÃ¼ziÄŁ e
ĠprodÃ¼k siyon
M el
o ch
Ġfark Ä±na
Ä±lÄ±r ken
Ġik on
ĠbÄ±rak mak
ĠkÃ¶y leri
Ġkir alandÄ±
ĠparÃ§acÄ±k larÄ±n
ĠteÅŁkil at
we et
ĠSek reteri
ĠColumb ia
al in
on al
ĠB ow
ĠH iÃ§
ĠgÃ¼n dÃ¼z
Ġat mÄ±ÅŁ
Ġhakk Ä±na
Ġdahil inde
Ġpat layÄ±cÄ±
Ġorta da
Ġortam Ä±nda
Ġkurt uluÅŁ
Ġbirinc ilik
Ġceza ev
ĠÄ°bran ice
B una
G el
Ġ Ã¼m
iy se
ĠgÃ¶r meye
laÅŁ Ä±r
ĠW ho
ĠÃĸ k
Ġl ir
ĠAk k
Ã» r
ĠteÅŁ h
Ġbes lenir
Ġkork unÃ§
ĠÃ¶zgÃ¼r lÃ¼ÄŁÃ¼
ĠkÄ±v r
ĠLet onya
' ,
M E
ĠF r
Ã¼s lim
Ġgir meyi
Ġkir al
ĠHat un
ĠgÃ¶rÃ¼ntÃ¼ leri
orat uvarÄ±
Bunun la
ĠaralÄ± ÄŁÄ±nda
Ġs ter
ĠK adÄ±kÃ¶y
ĠAm iral
Ġgetir erek
ĠBak Ä±r
Ġolabilir ler
ĠkeÅŁ iÅŁ
ĠYap Ä±
ĠsÄ±ral ama
Ġviz yona
Ġtitr eÅŁ
h ib
ak si
ĠK ayÄ±t
Ġfilm lerde
lay abilir
Ġform ayÄ±
Ãĩ ocuk
ĠBab asÄ±nÄ±n
ĠdeÄŁiÅŁiklik leri
Ġtarz da
ĠSo und
ĠAÅŁ k
ĠmeÅŁ gul
Ġkons ey
ĠyÃ¶netic ileri
ĠMem luk
Ġgar ip
D an
Ġar g
ĠG ec
ĠyaÅŁ Ä±yordu
ĠsavaÅŁ lar
ĠkÃ¼tle Ã§ekim
Ġproto tip
n on
Ġd uv
Ġh il
ĠH T
Ġbil iÅŁsel
Ġkal maya
ĠÃ§alÄ±ÅŁ arak
Ġalan Ä±nÄ±
Ġtem asÄ±
Ġdem ek
ĠÃ¼rÃ¼n lerin
Ġsava ÅŁtÄ±
Ġuc unda
ĠsÄ±ralam asÄ±nda
B R
c ilere
ĠK uy
ĠM edia
ĠY u
ĠOs et
ĠBel l
Ġsoy kÄ±rÄ±m
Ġ190 3
ach us
Ġdiy alog
ĠsÃ¶ylen ebilir
ĠStudi os
ĠS Ã¼mer
ĠT uÄŁ
ĠG erek
Ġkon v
Ġyak Ä±nÄ±n
Ġfutbol u
Ġtep kim
Ġseviy esine
Ġordus unda
Ġ189 7
Ġdram atik
ĠEla zÄ±ÄŁ
" ",
Ġkadar ki
Ġbirlik t
ĠbÃ¶lÃ¼m lerinde
Ã¼p iter
Ġtut sak
ĠBaÅŁ ar
luÄŁ undan
Ġbirbir lerini
ĠÃ¶ÄŁretmen lik
Ġvol taj
ĠsÃ¼r eliÄŁine
up ik
ĠÃ¶nem e
ĠAv iv
ĠÃ¶ÄŁren me
Ġhareket le
Ġgit meye
ĠkardeÅŁ inin
Ġatan mÄ±ÅŁtÄ±r
ĠyÄ±llar ca
ĠMed ine
Ġbirinc isi
ĠTep e
ĠOw ens
ĠBritan yalÄ±
Ġihtim ali
j an
ĠÃ§ Ã¶
ĠÃ§ ubuk
ĠE g
Ġel li
Ġkal esini
Ã¢ y
ĠgÃ¼n lerinde
Ġ6 2
Ġbilg ilerin
An tik
Ġhey keli
hend isi
m elik
ĠyÄ±l dÃ¶n
Ġyap abilir
Ġn ez
ĠdÃ¶n mek
ĠgÃ¶ster gesi
ĠtakÄ±m la
ĠgÃ¶nder ilir
ĠiÅŁlem ler
Ġayak kabÄ±
ĠPet ro
Le ague
ĠStev en
M Ä±sÄ±r
at osu
ĠG ames
eri a
ĠY unus
eÄŁ inden
Ġalan larÄ±n
ĠaÃ§Ä±k tÄ±r
ĠdÃ¼zen leyen
ĠgeÃ§ir ilen
Ġdiz ayn
Ġhes ab
Ġkans eri
o te
r eb
t t
Ġt h
Ġyap makta
lem eleri
ĠV oleybol
ot ek
ĠCh i
Ġgrup lara
ĠgenÃ§ ler
ĠYahud ilere
Ġdenklem i
ĠhoÅŁ nut
Ġfen omen
Ġsaltan at
A c
F ar
Ġoyun unda
Ġtel graf
ĠgÃ¶tÃ¼r Ã¼r
Ġgar niz
ĠÅŁov unda
Ġje olojik
azz am
ĠÅŀeri f
ĠayrÄ±c alÄ±k
V ID
Ġs ih
os istem
Ġkullan Ä±ÅŁ
ĠAn talyaspor
Ġtel if
Ġbey an
Ġedil iyor
Ġyat an
ĠÅŁart lar
194 5
tak er
ĠVik ing
Ġsenary osunu
Ġs omut
Ġs ohbet
ĠC ur
ĠC ent
ĠÃĩ ince
id or
Ġkab in
Ġgetir ilmesi
Ġ9 3
Ġsen k
Ġmez arlÄ±k
for masyon
Ġsaat te
Ġhayvan larÄ±
Ar t
ĠMÃ¼slÃ¼man larÄ±n
ĠMat ematik
ĠÃ§am ur
Ġenstr Ã¼man
Ġt it
ĠF our
ĠY osh
Ġkur tu
Ġat anan
Ġ6 6
Ã¡ r
Ġkurtar ma
ĠdÃ¼ÅŁÃ¼nc esi
ĠsektÃ¶r Ã¼nde
ĠÄ°skender iye
Ġterc Ã¼me
em ediÄŁi
Ġr ay
ĠÃ§al dÄ±
Ġalt Ä±ndan
Ġkap tanÄ±
ĠÃ§ocuk lara
Ġsin agog
ĠDo ug
avy era
ĠBoÄŁaz iÃ§i
l ot
Ã§ asÄ±
Ġt uv
ĠD ra
ĠH og
Ġkal anÄ±
ĠJ uni
uh af
ĠtÃ¼r lerinin
Ġdin leyic
Ġdayan dÄ±r
Ġrej imi
Ġvarsay Ä±m
Ġarz u
ĠS tad
dan s
ĠG ordon
Ġin tern
ĠgÃ¶ster meye
ĠiÃ§er diÄŁi
ĠFrank lin
ĠGi ovanni
D S
d Ã®
e ing
r iye
s ev
Ġbir a
Ġol imp
ab lo
uÅŁt an
ĠaÃ§ lÄ±k
ĠW i
Ġl iteratÃ¼r
Ġem niyet
Ġderg inin
Ġtas avv
ĠSamsun g
Î µ
Ä±n tÄ±sÄ±
Ġt rom
ĠgÃ¶ lÃ¼
ĠyÄ±l an
Ġbas Ä±ldÄ±
Ġmet af
ĠhÃ¼kÃ¼m etin
Ġtoplum u
Å ¾
il ince
Ġar Ä±
ĠR ub
Ġkur a
ĠEn d
ĠkÃ¶y e
ĠdÃ¼ny asÄ±nÄ±n
Ġcin si
Ġkent sel
ĠÄ°Ã§ in
ĠkarÄ±ÅŁ Ä±m
ĠM un
ĠO la
Ġc h
ĠsayÄ± daki
ĠadlandÄ±r Ä±lmÄ±ÅŁtÄ±r
ĠSu dan
Ġ187 0
ĠendÃ¼str isi
ĠSy stem
rut iyet
ĠtaÅŁÄ±yÄ± cÄ±
p op
y orum
Ġs ul
ur us
ent al
Ġbilim kurgu
ĠLe o
ĠkardeÅŁ leri
ĠÅŁiir leri
Ġbeklen t
ÃľÃ§ Ã¼ncÃ¼
ĠForm ula
v iÅŁ
en leri
Ġs Ã¶k
Ġev lenmiÅŁtir
Ġser isinde
ĠÃ§alÄ±ÅŁmalar Ä±n
ĠTh at
Ġruh sal
Ġsim gesi
Ġmec bur
laz iz
Ġtesis leri
E x
Ġp usu
Ġf rom
ĠN adir
ru gu
ĠkÄ±s mi
Ġe x
Ġdef alarca
n ess
Ï Ģ
ĠD ers
lam alÄ±
ĠgÃ¼n dem
Ġsay Ä±mÄ±na
ĠÅŁarkÄ± ya
ĠPol itik
Ġmem uru
Ġefsan evi
Ġyitir di
Ġith al
x us
Ġ lar
Ġ19 01
ĠY ed
ĠÃ¼ret ti
ĠbaÅŁar Ä±r
Ġkan unu
ĠiliÅŁk iye
Ġhaber dar
ĠMark sist
d Ã¼ÅŁ
f eld
ĠG ust
ĠY ener
ĠAm az
ĠHol ding
ĠbaÅŁlat tÄ±ÄŁÄ±
Ġ187 8
Ġfir ma
ĠShak espeare
b ell
ster dam
Ġgiy miÅŁtir
ĠdanÄ±ÅŁ manÄ±
Ġbozuk luÄŁu
ĠSas ani
ĠCE O
ĠÄ°stih barat
l unun
am ayÄ±
ĠbaÅŁ larda
ez m
ĠR oth
Ġkal mak
iÄŁ it
ĠAr if
Ġhar ita
Ġada sÄ±
ĠiliÅŁk ilerin
bi e
Ġ190 2
ĠAp p
Ġduvar larÄ±
Ġmakin esi
Ġtaht Ä±na
mey ecek
ĠSoci ety
Ġkar arÄ±yla
ĠL and
Ġgel mesiyle
ust on
ĠLig e
per yal
Ġkoy ar
Ãľ niversit
Ġkural lar
Ġkum aÅŁ
M en
at ar
ĠN ot
ig o
ĠyaÅŁ arlar
Ġisim lerle
Ġtemel li
ĠsÃ¼rdÃ¼r Ã¼lebilir
197 9
Ġsub ayÄ±
Ġsergilen mektedir
ĠM av
ĠÅŁ eye
ĠZ ira
ĠÃ¼ret ilmiÅŁtir
ĠÄ°ÅŁ leri
Biz ans
ĠManastÄ±r Ä±
ĠBru ce
ĠKarÅŁ Ä±yaka
w orth
Ġb i
Ġh a
ĠO ff
Ġed ince
ĠL uke
Ġer oz
Ġoynan mÄ±ÅŁtÄ±r
G alat
e i
y aÅŁ
ĠB AL
ĠM avi
Ġyaz maktadÄ±r
ĠÃĩ etin
ĠkaÃ§ maya
ĠyarÄ± da
198 1
197 4
Ġsinem aya
ett s
ĠTay land
F er
N ot
Ġs az
Ä±k nat
ĠÄ° ht
ĠR ag
ĠN ich
ĠV III
ĠeÄŁitim e
ĠarkadaÅŁ larÄ±nÄ±n
Ġinan Ä±ÅŁ
Ġsilah larÄ±
Ġbelg eler
ĠgeÃ§er ken
ĠkarÅŁÄ±laÅŁtÄ± ÄŁÄ±
ĠDis ney
Ä± lam
Ġb oks
Ã§ Ä±nÄ±n
Ġf as
st ad
Ã¼l f
ip t
Ġtarih in
Ġim alat
Ġtrans feri
Ġyeten ekleri
Ġters i
Ġsig ara
b Ã¶l
u ch
Ġy in
ĠY abancÄ±
ip er
ĠÃ¼Ã§ Ã¼
Ġkom ÅŁ
ĠeÅŁ leÅŁ
ĠgÃ¶Ã§ ebe
Ġmon te
ĠdÃ¼k kÃ¢n
ĠÃľn lÃ¼
Ġpros ed
W h
Ġg Ã¼ce
ĠÃ§ alar
Ġkullan dÄ±klarÄ±
ĠÃ§alÄ±ÅŁ mada
Ġbelir lenmesi
ĠoluÅŁ u
tal yan
ebilir iz
Ã© e
Ġyarat an
ĠkeÅŁf edildi
Ġderec esini
Ġsorumlu dur
Ġs ordu
ur da
ĠK Ã¶k
ĠT on
Ġyer leÅŁt
Ġev cil
Ã® y
Ġgetir ilir
Ġbilg iyi
Ġmal iyeti
Ġisyan cÄ±
Ġham am
Ġproblem i
ĠTev fik
ĠDok uz
ĠArda han
i Äĩ
v al
la tÄ±r
ĠC ry
ĠF ri
ĠgÃ¶r mektedir
Ġu ÄŁra
ĠdÃ¶n mÃ¼ÅŁ
ĠV a
ĠiÅŁ leyen
Ġkay Ä±n
ĠÃ¼lk elerinin
ĠMar cel
Ġrenk leri
ann es
Ġkum anda
Ġpot ans
Ġyetk isi
ĠTib et
G Ã¶k
Ġk oku
cen in
ĠtaÅŁ Ä±nÄ±r
Ġasker e
ĠÃ¶lÃ¼m Ã¼yle
Ġ13 0
Ġazal Ä±r
ĠKer im
Ulus al
Ġpir inÃ§
ĠKenn edy
ĠUnder taker
v iv
ul maktadÄ±r
or ia
ĠS han
Ã¼z yon
af fer
Ġalan daki
ĠÃ¼lk elerine
ĠyaklaÅŁ an
Ġiddi alarÄ±
Ġproj enin
ĠYak up
ĠCer men
yak laÅŁÄ±k
Ġelb is
ĠGS YÄ°H
H A
Ġh erk
ĠG ra
Ġl ob
ag Ã¼cÃ¼
ĠÃ§ek ilmesi
lay acak
Ġ9 00
Ġmilyon larca
ĠkardeÅŁ ler
ĠOrdu lar
Ġdo lara
ĠEÄŁ it
ĠtaÅŁÄ±n mÄ±ÅŁtÄ±r
Ġturnuv anÄ±n
ĠWar ner
Ġkapasit eli
Ġbed el
G C
o use
Ġr en
Ġkon uldu
ĠaÅŁ an
Ġiz leyici
ĠÃ§Ä±kar lar
Ġkurum lar
ĠÃ¶ldÃ¼rÃ¼l Ã¼r
koÅŁ a
F i
e o
Ġ eri
at tan
ĠM Ã¼st
ab at
Ġyer Ã§ekimi
ĠJ Ã¼r
ĠÅŁeh it
ĠdeÄŁiÅŁtir mek
ĠBay ern
197 3
enn y
Ġsad akat
ĠLad in
8 00
D i
O L
Ġt Ã¼tÃ¼n
ĠP etrol
Ġyap Ä±sÄ±nÄ±n
ĠadÄ± dÄ±r
ĠkÄ±z Ä±n
Ġhizmet ler
Ġkoy duÄŁu
ĠdÃ¼ny asÄ±na
ĠSer ver
ĠÃ¶ldÃ¼ ÄŁÃ¼nÃ¼
Ġcihaz larÄ±
Ġsek reteri
Ġskor la
o a
s av
lan tÄ±
ĠC uma
Ġel Ã§i
ĠÃľniversit esinde
Ġ188 6
Ġkasab asÄ±nda
ĠYaÅŁ ar
ĠLad y
v ent
Ġb eta
Ġbir leÅŁme
ĠS P
ĠK in
ĠM etr
ĠH im
ĠO lymp
Ġan tis
ada m
ĠÃ§Ä±k acak
ĠgÃ¼ney batÄ±
ĠGenel de
ĠBizans lÄ±
S E
Ġb eton
ĠP ac
ĠF air
Ġ5 9
ĠgerÃ§ekleÅŁtir en
Ġ187 6
ĠDi ego
bur n
ĠDevrim ci
ĠyÃ¼zÃ¶lÃ§ Ã¼mÃ¼
Ġcih azÄ±
ĠS C
ĠK K
Ã¼l in
te in
ĠiÅŁ Ã§iler
Ġak an
Ġkend iliÄŁinden
ĠAk su
Ġhalk Ä±na
ĠyÃ¼rÃ¼t me
ĠvatandaÅŁ larÄ±
ĠOf fice
ĠnÃ¶tr on
ĠWrest ling
ĠRog er
ĠÃ¶rg Ã¼tÃ¼n
Ġar amaya
ĠE ki
malar Ä±ndan
tr is
ĠKon tu
ĠRus sell
Ġsar f
okr atik
Ġsakat lÄ±k
Ġgay ret
Q u
Ã§ ilere
ĠS ekiz
it in
Ġal mÄ±ÅŁlardÄ±r
len mesine
ĠmaÃ§ Ä±nÄ±n
ub a
ĠÃ¼ret ilmiÅŁ
Ġtab los
ĠgeliÅŁtir diÄŁi
Ġbilg ilere
Ġtemsil ci
Ġkonum unu
ĠGir ay
ĠÃ§oÄŁ unda
Ġvek il
ĠSum mer
Ġtazmin at
ak t
ĠL ind
ic us
ri ÄŁi
met ik
ĠyerleÅŁ miÅŁtir
Ãĩ oÄŁu
ĠdÃ¶nÃ¼ÅŁ mÃ¼ÅŁtÃ¼r
ĠSp arta
Ġip ek
ĠSim p
ĠÂ £
ĠÅŁimd iye
Ġo pt
ay ev
ĠM aj
âĢ ²
ti us
ilm elidir
Ġen j
Ġbulun arak
Ġger isinde
ĠÃ§alÄ±ÅŁ Ä±yordu
Ġgir meye
ĠmÃ¼z iÄŁini
Ġbur j
ĠMus ul
Ġbulgu lar
g Ã¼l
Ġi taat
ĠK Ã¼l
ĠÃ§Ä±k arken
Ġyol dan
ĠgeliÅŁtir meye
ĠÃ§Ã¶z mek
Ġgider ler
Ġpart iler
enn et
Ġ189 5
Ġolam az
ĠJac ques
Ê ¿
Ã§ ay
ĠN XT
Ġyet mez
Ġzor lu
Ġgit miÅŁ
Ġprogram Ä±n
Ġgay rim
Ġorganiz asyonu
ĠNin tendo
g arlar
m amÄ±ÅŁtÄ±
ad y
Ã¼m cek
ĠF on
Ġger Ã§eÄŁi
ĠGen iÅŁ
Ġgazet esinin
Ġdikkat li
ĠÄ°z mit
ĠhÃ¼kÃ»met in
taÅŁ Ä±
ĠbabasÄ± dÄ±r
Ġelem elerinde
Ġih tiva
ĠBat um
ĠFu at
ĠrÃ¶van ÅŁ
C ol
w ich
il se
am ba
ĠT Ãľ
ĠiÃ§ ki
Ġar tÄ±
ĠdÃ¶nem indeki
Ġgiy miÅŁ
ĠFransÄ±z lar
ĠFakÃ¼l t
Ġedebiyat Ä±nÄ±n
old ova
ĠayrÄ±l mak
ĠgÃ¶l g
ĠMed res
ĠÃ¶nder liÄŁindeki
Ä±knat Ä±s
M ark
n alÄ±
Ä±m lÄ±
ĠÃ§Ä±k tÄ±ktan
ĠJ ason
ĠtakÄ±m larÄ±n
Ġsan Ä±lmaktadÄ±r
ĠiÃ§inde dir
Ġgrub undan
Ġses leri
Ġetmek le
Ġantr op
Ġsend ik
ĠgÃ¼reÅŁ Ã§i
ĠDiv an
M es
N or
ĠdÃ¶n mesi
Ġat Ä±
Ġalan larÄ±nÄ±n
Ġiz leme
ĠdeÄŁiÅŁtir ilmiÅŁ
maz lar
Ġmed y
196 8
ĠGel iÅŁ
Ġunsur larÄ±
Ġmutlak a
ĠFerdin and
rugu ay
st ar
Ġay da
eler dir
ans k
lem esine
ĠÃĩ eÃ§en
Ġyol unun
ĠZ afer
Ġmat ris
ĠateÅŁ li
197 5
rah man
ĠKart al
ĠkarÅŁÄ±laÅŁtÄ±r Ä±ldÄ±ÄŁÄ±nda
ĠZÃ¼r ih
B ah
Y ine
Ġm uc
ĠS tÃ¼d
Ġ1 18
ĠK oy
aÄŁ aÃ§
ĠH op
ĠC ab
Ġetk isinin
ĠaÅŁ ama
Ġ11 0
ĠyarÄ±ÅŁ mayÄ±
ph ia
ĠÃ¼niversit ede
Ð° Ð½
ĠNik ola
amay acaÄŁÄ±nÄ±
Ãĸz ellikle
Ġfer man
d om
er ali
Ġb alÄ±ÄŁÄ±
ĠB eni
ÅŁt aki
ĠP rensi
Ġyar Ä±k
ede f
ĠÃĸ yle
ĠsaÄŁ layarak
ĠMar sh
ĠdÃ¶nÃ¼ÅŁ Ã¼
ĠkuruluÅŁ larÄ±
Ġ189 6
Ġoda sÄ±nda
ĠhastalÄ±k lar
Ġodak lÄ±
ĠoÄŁl unu
ĠkÄ±l Ä±n
Sovyet ler
ĠyakÄ±nÄ±n daki
á ¸
ay nÄ±
ĠD S
Ġar alarÄ±ndaki
ĠR h
ĠY a
ac aÄŁ
ĠdÃ¼ÅŁÃ¼n Ã¼yordu
.. ."
Ġsilah Ä±
tur e
Ġdes tan
Ġb and
is sa
ad il
ĠbaÅŁ lan
ĠdÃ¶n Ã¼p
Ġyan Ä±l
ĠmÃ¼z iÄŁin
ĠSt ark
ĠKan adalÄ±
edik lerini
Ġkavram Ä±nÄ±
Ġkurt uldu
Ġkural larÄ±na
Ġhastan ede
ĠÄ°ler leyen
d ale
ĠsÃ¼r eyle
sik lop
ĠNew s
ĠBay b
ĠDav is
enn em
Ġip lik
ĠâĢĺ âĢĻ
ĠList esi
Ġb ilir
ĠK uz
Ġn eÅŁ
ĠAr ch
19 20
ĠyÃ¼z Ã¼ne
Ġtab aka
cÄ±lÄ± ÄŁa
ĠYardÄ±m cÄ±
R A
as yum
dan Ä±n
alar daki
ÅŁtÄ±r ma
Ġgel eceÄŁi
ov o
ĠKur uluÅŁ
Ä±lm amÄ±ÅŁ
ĠMÃ¼z iÄŁi
Ġbitir dikten
ĠÃ¼retim inin
Ġeyalet inde
ĠSte p
Ġtr av
ĠSezon un
Ġkuyruk lu
S ak
z av
Ġb asÄ±
Ġs ic
Ġu f
ĠAy r
ĠgÃ¶z leri
Ġ9 5
ĠtanÄ±m lanabilir
Ġmevcut tu
atÃ¶r Ã¼
Ġanlat Ä±lan
Ġgiz emli
ĠHe art
Ġmalzem eleri
ĠgÃ¶rÃ¼ntÃ¼ ler
ĠTeb riz
Ġyend ikleri
K Ä±
d eti
l inin
al ye
Ġh alÄ±
aÅŁ Ä±rÄ±
iz asyonu
ĠbaÅŁ Ä±nÄ±
Ġtop layan
Ġ6 1
ĠBur ak
Ġtasar ruf
ĠYunan lar
ij i
ĠDav ut
ann y
ĠkeÅŁf etti
Ġorman lÄ±k
ĠErk ekler
ĠÄ°dar esi
Ġesin lenerek
Ġsandal y
achus etts
ĠG an
eler indeki
ĠbaÄŁ lÄ±lÄ±k
Ġyol un
ĠOr tad
Ġkarar la
ĠsÄ±nÄ±r Ä±na
Ġkaynak larÄ±nda
oh en
ĠÃ§ey r
Ġalfab esi
Ġnazar an
m inin
ĠC iz
lam asÄ±nda
Ġolm alarÄ±na
ag or
Ġtrans krip
ĠMal iye
Ġetmektedir ler
Ġsemt inde
F L
H ak
K u
Ġs ez
Ã¶ ÄŁ
un der
ĠB ing
Ġp eri
ut sch
Ġkon uyu
Ġoyn ayarak
Ġ8 8
Ġsev g
Ġsavun ur
Ġyarat mak
ĠPap alÄ±k
ĠHÃ¼s rev
Ġkayded ilen
ĠSeÃ§ imleri
ĠBilg isayar
otel es
Galat asaray
o larak
ĠK ru
Ġp ers
Ġf av
ĠR io
Ġolm alÄ±
Ġmet ni
ĠhÄ±z Ä±nÄ±
Ġkaynak larÄ±n
ĠgeniÅŁ liÄŁinde
ĠÅŁehir den
Ġteor emi
Ġkah ve
Yunan ca
ĠOri jinal
ĠAnth ony
ĠT os
he i
ĠÃ¶ÄŁren en
ĠgeliÅŁtir miÅŁtir
ĠsonuÃ§ larÄ±na
ĠÃ¶rn ektir
ĠMim arlÄ±k
G u
Ġy ah
ĠB avyera
ĠAr n
Ġhak lar
Ġaz led
ĠÃ§ev iri
ĠBun lara
Ġmo du
ĠKat li
ĠFilm de
ĠBas Ä±n
ĠYÄ±l lÄ±k
ĠsÃ¼rec ini
ĠsÃ¼rec inin
ĠbarÄ±ndÄ±r Ä±r
ĠalÄ±ÅŁ kan
Ġpas if
ĠLis ans
N C
s Ä±nÄ±
Ġist endi
ĠmaÃ§ larÄ±nÄ±
ĠAy as
ĠKar ah
ĠyapÄ± da
Ġhareket ler
ĠmÃ¼ te
ĠGal ile
ĠfÄ±r Ä±n
Ġdel il
ĠÃĩaÄŁ daÅŁ
Ġpan el
Ġfi il
Ġlam b
g ey
in ik
Ġd uvarÄ±
el y
at ra
Ä° T
Ã¶n etim
ĠL ah
lam enter
Ġtop layarak
est ir
Ġtut un
ĠÃ¶zel liÄŁine
Ġolay lara
Ġsil in
ĠdÃ¼ÅŁÃ¼k tÃ¼r
ĠGer man
ĠMoÄŁol istan
GB T
j in
Ġ lav
ĠC ro
ma g
ot s
ĠU ÅŁak
Ġmil is
ĠaÅŁ aÄŁ
ĠsavaÅŁ an
ĠkÄ±z kardeÅŁ
ĠdaÄŁ Ä±ldÄ±
Ġpres tij
ĠÄ°nÅŁ aat
S il
Ġb asÄ±m
Ġs ilik
Ġyap Ä±yordu
ĠÅŀ Ã¶valy
Ġtarih Ã§isi
Ġyaz Ä±m
ĠEr gen
Ġdil lerinde
ĠtanÄ±m lamÄ±ÅŁtÄ±r
ĠKat e
Ġmer mi
Ġkelim esinden
ĠyerleÅŁtir ilmiÅŁ
au f
ĠGÃ¶z lem
ĠLen ingrad
ĠKÄ±p Ã§ak
Ã ´
ĠD Ã¼ny
ine er
ĠE sas
Ġkar asal
oÄŁ ul
mÄ± yor
ci al
ĠgeÃ§ iÅŁi
Ġneden lerden
ĠtanÄ±m a
Ġkent te
lÃ¼ÄŁ Ã¼nÃ¼n
áĥ Ķ
Ġistem iÅŁ
Ġkop ar
ĠEy Ã¼p
Ġk ub
Ġil inde
Ġu tan
Ä±na cak
Ġbul maya
19 30
ĠkiÅŁ ileri
hur ch
ĠAt las
ĠyÄ±k Ä±ldÄ±
ĠyalÄ± t
l Ã¼lÃ¼k
w ick
Ġk ron
ĠB ektaÅŁ
Ġkar ma
ĠAn laÅŁmasÄ±
Ġtop lanÄ±r
Ġas t
ep p
Ġbilg ilendir
ĠÃ§Ä±ktÄ± lar
Ġetkil edi
Ġfi ilen
ĠÃ¶mr Ã¼
B lack
b un
v en
er isi
Ġh Ã¶yÃ¼k
ĠT H
ti ca
ĠN ez
ĠÃ¼y eler
ĠÃ¶nc esine
Ġdil ini
Ġordusu yla
Ġilgilen en
Ġduyar lÄ±
j u
v o
ĠÃĩ or
Ġsu larÄ±
ĠEf lak
Ã¶v alye
ĠSin ema
ĠÄ°nsan lar
ĠkayÄ±p lar
El ekt
Ġtepk iler
ĠKardeÅŁ ler
ĠLaw rence
Ġheyec an
B ilim
Ġm Ä±z
Ġal Ã¼minyum
Ġet i
Ġkar tÄ±
ĠdoÄŁ asÄ±
od al
Ġ18 60
Ġtem a
ĠÃ§Ä±ktÄ± ÄŁÄ±nda
ĠkaÃ§ mayÄ±
ĠgÃ¼ney indeki
ĠÃ¶ÄŁrenc ilere
Ġgezeg enin
l Ä±nÄ±n
Ġk aÅŁ
ĠF ab
ac t
ĠÃ§Ä±k mÄ±ÅŁtÄ±
Ġsah aya
Ġat adÄ±
Ġzaman larÄ±nda
Ġkab aca
enin ce
ĠgeliÅŁ imini
Ġplan lÄ±
ĠYah ya
Ġj an
196 7
ĠulaÅŁtÄ± ÄŁÄ±
ĠdÃ¼ÅŁtÃ¼ ÄŁÃ¼
ĠbaÅŁlay Ä±nca
Ġtabl osu
D iz
us undan
ist lerin
ĠÅŀ ap
Ġtek il
ĠÃ§alÄ±ÅŁ Ä±yor
Ġgir diler
ĠgeÃ§ir ip
Ġyen en
res s
ĠBil dir
ett iÅŁ
ĠmÃ¼ÅŁt eri
ĠbaÅŁlangÄ±c Ä±nda
O C
V en
Ġo muz
ik li
im izi
ĠyaÅŁ at
ĠyarÄ±ÅŁ masÄ±nda
ĠX V
ĠgÃ¼c Ã¼n
Ġla ik
ĠcoÄŁraf y
ileb ilecek
ras ya
ĠHab sburg
ĠFot oÄŁraf
m ark
n Ã¢
lem eyi
Åŀ u
Ġkol oni
Ġbak teri
Ġdep olan
ĠSin op
ĠDemir el
Ġyurt dÄ±ÅŁ
ĠbaÄŁlantÄ± larÄ±
los uz
Ġsabah Ä±
iskop osu
ĠCih az
ĠKuÅŁat masÄ±
ĠB y
lan t
Ġtar l
ĠR Ã¶nesans
Ġtek stil
Ġev inin
Ġtur istik
Ġeser inin
Ġrad ar
Ġvur du
197 7
Ġtaarruz u
ĠKÃ¶rf ez
ur s
ĠB Ã¼y
iy otik
Ġal maktaydÄ±
ĠV ef
Ġl oj
Ġ7 7
Ġhat alÄ±
Ġfot on
Ġkonum a
197 8
ograf isi
Ġhastan e
Ġkadro da
ĠtanÄ±ÅŁtÄ± ÄŁÄ±
paz arÄ±
B r
lar Ä±mÄ±z
ĠÃ¶ p
ĠH Ã¼r
Ġad Ä±ndan
Ġkaz asÄ±
Ġ6 9
ĠaraÅŁtÄ±r maya
ĠeleÅŁtir di
Ġdok tr
Ġkavram Ä±nÄ±n
Ġism inde
ĠÅŁÃ¼p he
Ġpap az
Ġfiz y
ĠPek in
ĠB is
Ġ3 50
ant Ä±sÄ±
ĠgÃ¼ven ce
Ġodak lan
Ġbulundur an
ĠSaf evi
ĠteÅŁebb Ã¼s
ĠS E
it s
Ġar alÄ±ÄŁÄ±
Ġet ap
ih az
ĠV ers
ÅŁti ÄŁi
Ġprogram lar
Ġmod Ã¼l
dik lerinde
ĠTur k
Ġveri p
ĠyaÅŁan mÄ±ÅŁtÄ±r
Ġisten ilen
Ġtaraftar larÄ±
ĠfÃ¼z e
B aÄŁ
b aÄŁ
ar on
Ä±r lÄ±k
ĠS ap
Ġan Ä±lmaktadÄ±r
Ġgen om
Ġort alarÄ±na
Ġist ediÄŁ
Ġek lenir
Ġsistem lerin
ĠÅŁehir deki
Ġsun um
ĠDer esi
Ġcihaz Ä±n
ĠYer leÅŁ
ĠyapÄ±l masÄ±na
ĠAndre a
Ġnitelendir di
y azÄ±
larÄ±n ca
ĠC y
ĠsÃ¼r mÃ¼ÅŁ
ĠdÃ¶nem ini
ĠÃ§ek mektedir
ĠÃ§ek meye
ĠoluÅŁtur ulmasÄ±
Ġhareket ine
ĠÃ§alÄ±ÅŁtÄ± ÄŁÄ±nÄ±
ĠSer dar
Ġsahibi dir
Ġ189 9
ĠCen eviz
Ġkadros u
Ġevlilik ten
ĠJan darma
E ÅŁ
Ã¼ ÄŁÃ¼n
Ġp rim
ĠD own
ĠP in
Ġad li
iyet ine
dÃ¼ laziz
ĠbaÄŁ lanan
ĠkaÃ§ mak
Ġiler ledi
ĠkaldÄ±r mak
Ġoran Ä±na
ĠhastalÄ±k larÄ±
Ġfikir leri
Ġpazar lama
ĠbaÅŁlamÄ±ÅŁ lardÄ±r
Ġtor un
ĠEx p
ĠÃ§aÄŁÄ±r dÄ±
ĠKulÃ¼p ler
ĠPeters burg
) ",
e um
Ã§ o
ur n
ĠÃ§ adÄ±r
ĠK un
ĠM Ã¼r
ilm emiÅŁ
Ġvar an
Ġiz leri
ĠBur adan
Ġuyar lanan
ĠkullanÄ±m Ä±nÄ±n
ĠsÃ¶zleÅŁ mesini
Ġdram a
ĠVin cent
ĠMarg aret
R ol
et to
ĠS pr
ol on
ĠM am
Ġtaraf tarÄ±
Ġl Ã¼ks
Ġot urt
Ġkarar lar
ĠgeliÅŁ mekte
ĠsÄ±nÄ±f Ä±nÄ±n
lÃ¼ÄŁ Ã¼n
ĠBazÄ± larÄ±
Ġheykel tÄ±raÅŁ
ĠbÃ¼r Ã¼n
ĠÃ¶yk Ã¼sÃ¼
F il
P ort
on to
Ġm ide
ĠG on
Ġsistem lerinde
Ġ6 7
iyor lar
Ġolur du
eÄŁin ce
Ġkarakter ize
Ġteor em
Ġtarz Ä±nÄ±
Ġyasak landÄ±
Ġdam g
ĠCal ifornia
ĠTa arruz
ĠAlan Ä±
ĠÃĸzgÃ¼r lÃ¼k
ĠBudiz m
r Ã®
Ġv aka
Ġg Ã¼
ĠB og
ib ar
Ã¼t le
ĠÃ§ek ilmeye
ĠyayÄ±n cÄ±
Ġkim liÄŁini
Ġteor isini
Ġistem ektedir
ĠyetiÅŁ en
ĠfaktÃ¶r ler
Ġkurucu larÄ±
Ġkonumunda dÄ±r
ã ģ
ek ir
ik ten
em eyecek
Ã¼n t
Ġn emli
ĠR ek
ĠN ef
lÄ±k ta
ĠJ es
Ġyay l
ĠÃĩ akÄ±r
Ä±ldÄ± zÄ±
est o
Ġhay ali
Ġetk iye
ĠgÃ¼Ã§ lerin
ĠmÃ¼zik leri
Ġtoplum da
ĠhÃ¼kÃ»met inin
Ġsembol ik
ĠTep esi
ĠÃ§ekirde ÄŁi
P A
P at
S o
b iyen
d iki
Ġm m
ĠÅŁ Ã¶valy
ĠÃ¶l Ã¼nce
Ġak si
asyon unu
Ġordu yu
ĠbÄ±rak an
ĠGal ax
ĠdÃ¼ny asÄ±
Ġverir ken
Ġkamp anya
Ġindir gen
ĠsÃ¶ylen t
Ġstat Ã¼
ĠÃ§arptÄ±r Ä±ldÄ±
ĠÃ¶f k
ĠLud wig
f in
l ock
ĠÅŁ an
ĠL ip
Ġkur alÄ±
Ġbel de
ĠBir inc
eg as
ĠsÃ¶z leriyle
Ġli b
Ġeser de
ĠHar biye
Ġgiy im
ĠIn stit
ĠakÄ±m Ä±nÄ±n
ĠbileÅŁ eni
ĠPat rik
ĠMax im
Ġard Ä±nda
Ġhik ay
m u
ĠA M
ĠP rim
ĠR iver
ĠbaÄŁ larÄ±
Ġas im
ĠdÃ¼z eyi
ĠdÃ¼zen lenir
ĠdÃ¼ÅŁÃ¼n dÃ¼ÄŁÃ¼
Ġyas alarÄ±
ĠJapon ca
Ġetkinlik ler
Ġalg Ä±l
Ġemr ini
Ġtutar lÄ±
Ġredded ildi
ĠÃľzer ine
u il
ĠM ardin
ĠR ot
Ġkal itesi
ĠJ uv
Ġyay Ä±lma
ĠW ell
Ġsan Ä±k
oloj ide
Ġsu lama
Ġtoprak larda
Ġhey eti
Ġyarar lanarak
Ġah laki
ĠEt iyop
Ġenf lasyon
Ġmevki inde
ĠAvustur yalÄ±
ĠMahk eme
Ã®y ye
N T
al if
Ġt ey
Ġr eÃ§
ĠO da
Ġolan larÄ±n
Ġkur ar
eni x
Ġger eÄŁince
Ġ18 00
ĠtÃ¼r bin
Ġkor uya
ĠHar ezm
ĠyerleÅŁ k
Ġdemir yol
Ġfeth et
sar ay
ĠÄ°lÃ§ enin
ĠJer ry
D Ã®n
ĠB ros
Ġz eki
ĠsÃ¼r ecek
Ġoy u
Ġev ler
Ġsay g
ĠAm sterdam
ĠAb dur
Ġtak as
her ine
Ġbenz in
Hal k
ĠBayram Ä±
Ġsenk ron
Ġs esini
len mesini
Ġtut k
ĠEn gel
Ġtoprak larÄ±n
ĠdÃ¶nÃ¼ÅŁ Ã¼mÃ¼
Ġsoy adÄ±
ĠPort o
ĠDÃ¶n Ã¼ÅŁ
ĠrÃ¶portaj Ä±nda
Ġorkest r
Ġsertif ika
d orf
ar in
den t
ilm eden
Ġat e
Ġkap tÄ±r
han esi
Ġboy unda
Ġsev er
tem elen
ĠiliÅŁk iyi
Ġkonu yla
ĠÃ¶dÃ¼l ler
Ġboz g
ĠsanatÃ§Ä± larÄ±n
ĠPrens es
ĠLef koÅŁa
V P
n g
Ä° talyan
ĠF rig
Ġtaraf a
ĠW ol
gi o
Ġoyun cak
ĠalbÃ¼m deki
Ġdahil dir
ĠÃ¼niversit enin
ĠTÃ¼rkÃ§ ede
ĠhoÅŁ lan
Ġklav ye
Ġest etik
ĠSloven ya
M erkez
leÅŁ ir
Ġak ustik
Ġev vel
ĠEr c
Ġer im
Ġsev ilen
ĠHar ris
Ġuygu ladÄ±ÄŁÄ±
fa ce
Ġproj eleri
ĠateÅŁ e
Ġdakik asÄ±nda
Ġproblem leri
ĠMark siz
Ġkasab asÄ±
Ġgar ant
ĠbeÄŁ eni
V e
ar if
Ã¼ h
em iÅŁti
ĠÃ¶ teki
Ġn Ä±n
ĠI sa
ĠJ en
ĠyaÅŁ larÄ±nda
ĠU ruguay
ĠtÃ¼r den
ĠCh ap
Ġsev gi
ĠÃ¶lÃ¼m e
ĠkadÄ±n larÄ±
ĠgÃ¶rÃ¼ÅŁ me
Ġsefer leri
ĠYahud ilik
ĠHat ay
Ġmekt ubu
Ġhac mi
ĠTech n
Ġpotans iyeli
ek lerin
Ġal amadÄ±
ab ani
Ġan lama
ig i
Ġilk esi
gan Ä±n
ket t
ĠGal ip
adel phia
Ġbulunur lar
uldu ÄŁunda
ĠamaÃ§ lar
Ġuygulan abilir
Ġbenz ersiz
Ġsebep ten
Ġelem anÄ±
ĠHay at
ĠSelÃ§uklu lar
ĠIs land
Ġlen f
ĠAlem dar
V an
Ġs ark
Ġh aÃ§
iy es
ĠT ers
ĠE ast
ĠeÄŁ ilimi
kÃ¼ ler
Ġuzak lÄ±ÄŁÄ±
Ġsar hoÅŁ
ĠAh it
ĠTh or
ĠCo unty
Ġalak alÄ±
L enin
O k
Â ³
Ã Ł
Ġbu laÅŁ
re al
oz gat
ĠÃ¶lÃ¼m sÃ¼z
ĠseÃ§im ler
Ġail eden
ĠyaygÄ±n laÅŁ
lis h
Ġgrubu dur
Ġhaber ini
ĠmÃ¼ziÄŁ inin
" -
G ir
K E
Ġk ant
le bilir
Ġtan kÄ±
ĠÃ§Ä±kar Ä±lmasÄ±
ĠdÃ¼ÅŁÃ¼n erek
ĠÃ§arp an
ĠBo eing
ĠTel ekom
Ġtopluluk larÄ±
Ġtakv im
Ġastr onomi
A sk
E s
M ag
l eden
Û Į
Ī Ĵ
ev her
ĠD og
ut u
Ġkullan mayÄ±
Ġkon ulu
lem enin
ov ski
Ġak r
ĠseÃ§ mek
Ġsan ki
ĠyayÄ±n lar
ent bol
ĠAk Ä±n
Ġrenk te
Ġnit eliÄŁi
Ġbaz lÄ±
ĠdeÄŁerlendir me
ĠilaÃ§ lar
Ġonur landÄ±r
ĠWay ne
vad or
K am
M e
r eli
w an
il de
lar us
ed d
ĠT i
ĠD awn
Ġel le
Ġpar ayÄ±
Ġek lenen
ĠÄ°s yanÄ±
ĠdeÄŁiÅŁ mektedir
Ġres imler
ĠsÄ±nÄ±r Ä±nda
Ġteor isinin
ĠLond on
ĠsÃ¶ylem ektedir
ĠBrit ish
ĠhikÃ¢y esini
ĠSen foni
ĠTak sim
ĠcivarÄ±nda dÄ±r
Ġge ometr
Ġyel paz
ĠkanÄ± tÄ±
ĠJuni or
ĠGalax y
" (
d Ã¼m
ĠT uz
ĠÄ° kin
ĠgÃ¶r eceli
op laz
ĠJ Ã¼piter
Ġhar ika
Ġkurul masÄ±nÄ±
Ġfark Ä±n
ĠoluÅŁ maktaydÄ±
ĠsÃ¶y lemek
Ġik isini
Ġmo di
ĠBar on
ĠyÄ±k Ä±m
Ġ189 8
Ġmin imum
ĠPat rick
Ġfay da
ĠA ward
Ġf Ä±
ĠD iÅŁ
os p
Ġel mas
Ġyaz Ä±p
Ġpar az
ĠAm y
ob a
ĠKon trol
ĠsaldÄ±r Ä±r
ĠgÃ¶rÃ¼ÅŁ e
Ġfaaliyet ler
Ġkamp anyasÄ±
ĠBor is
Ġgar anti
Ġherkes e
Ġincelem ek
ĠTÃ¼r b
Ġprosed Ã¼r
Ġv eli
ĠD uk
Ġl ek
Ġhar fi
ĠdeÄŁiÅŁtir ir
ĠbaÅŁlam asÄ±yla
ĠÅŁiir ler
Ġotob iy
Ä°z mir
Ġkruvaz Ã¶r
o Ã§
Ġm um
Ġkal a
ĠgeÃ§ ersiz
ĠZ aten
ĠsÃ¶z de
ĠÃ¶ldÃ¼r meye
Ġdeney ler
amaz an
Son uÃ§
Ġmetr edir
ĠgÃ¶rÃ¼nt Ã¼len
Ġhac im
o tip
Ġb ini
ik ola
ru h
ĠdÃ¼z lÃ¼k
Ġek olojik
Ġbit iÅŁ
ĠgeniÅŁ leme
Ġokul dan
197 6
Ġuzay da
ĠkatÄ± lacak
ĠKay ser
196 9
ĠTay van
ĠBÃ¶lg ede
Ġsaniye de
ĠKÄ±zÄ±lder il
ĠAnkar agÃ¼cÃ¼
ĠLum ia
S osyal
il emez
Ä±l gÄ±n
ĠH att
ĠG am
Ġen lem
ĠV o
Ġoy larÄ±
Ġken te
ĠbaÅŁladÄ± ÄŁÄ±nÄ±
Ġada p
Ġiz lenen
ĠgÃ¶z le
Ġonun cu
Ġvat an
ĠgÃ¶rÃ¼nt Ã¼sÃ¼
ĠChrist opher
Ġmanz ar
ĠBud ist
Ġplaz ma
c ini
k asÄ±
s Ã¼r
ĠA ur
Ġkar ara
ĠdÃ¶n meye
ĠiÅŁ ine
ĠsaÄŁ lanmÄ±ÅŁtÄ±r
Ġdur gun
ĠseÃ§ men
kan Ä±n
Ġer it
ĠÃ§ocuk larÄ±nÄ±n
ĠAd il
Ġengel ler
ĠSonuÃ§ ta
Ġuyar lamasÄ±
ĠVen ez
ĠsÃ¼rec ine
Ġcins inden
Ġmetr elik
Ġstratej i
ĠtoplantÄ± da
ĠdÃ¼zenlen mektedir
ĠBaÄŁÄ±m sÄ±zlÄ±k
ĠsÃ¼rt Ã¼n
T r
l iya
Ġy oÄŁ
Ġt ram
Ġol salar
ĠH Ã¶yÃ¼k
ĠBu c
ip ler
Ġyar Ä±sÄ±nÄ±
ot al
ĠtaÅŁ Ä±t
ĠtÃ¼r Ã¼ne
ĠKar ag
Ġdil ek
Ġark asÄ±na
Ġanlat tÄ±ÄŁÄ±
ĠtartÄ±ÅŁ malara
ĠCar ter
ĠTer im
Ġmatematik Ã§i
ĠsektÃ¶r Ã¼
ĠTor os
Ġust a
ĠÃ¶ncelik li
ĠKuv eyt
G eor
Ġol aya
op p
Ġyaz arak
iyet e
azÄ± t
Ġkazan masÄ±
ĠkÄ±s kan
Ġik mal
Ġark aya
Ġkam usal
ĠkuruluÅŁ undan
ĠyÃ¼rÃ¼t en
ĠKomut an
ĠVak Ä±f
tra ck
ĠLyn ch
D in
b ut
en te
ul k
ĠC lem
ot os
ĠW all
Ġvar lÄ±ÄŁÄ±na
ĠtaÅŁ larÄ±
ĠgeliÅŁ mesine
ĠanlaÅŁ Ä±ldÄ±
ĠyÃ¼ksel iÅŁ
meler inin
Ġeylem leri
ĠRo ad
ĠSey yid
ĠÃĸnc eki
ĠAssoci ation
Ġv ize
el em
ap p
Ġyap acaÄŁÄ±
ĠL omb
Ġel lerine
Ġder leme
ĠoluÅŁtur ulur
ĠiliÅŁk isini
Ġokul lar
ĠyaÄŁ m
ĠEd ge
dem ort
ĠSte fan
ĠÄ°t ilaf
Ġaj an
ĠperformansÄ± yla
Ġk Ä±ÅŁÄ±n
it Ã¶rÃ¼
Ä° st
ib olu
ro t
Ġbil et
Ġbirlik lerine
og a
Ġdestek lemektedir
ĠOy sa
Ġdah ili
Ġbirbir lerinden
row n
ĠVik tor
d inal
j o
z in
Ġm ol
Ġm oza
ĠN us
ĠJ am
Ġsonu ca
Ġgetir miÅŁ
ĠdÄ±ÅŁ Ä±ndan
ĠparÃ§ asÄ±nÄ±
ĠKur ucu
Ġeser lerinden
Ġhayat Ä±n
Ġkaynak larÄ±nÄ±n
ĠÃ§ap ta
197 2
Ġtelef onu
Ġgerekir se
ĠdÃ¶v iz
ĠBlu e
ĠGab riel
ĠSof ya
Ġal makta
Ġgel mesini
Ġhar can
Ġsay Ä±nÄ±n
Ġetkil emiÅŁtir
Ġsp ek
ĠMi ami
Ġy aÄŁÄ±
Ġs is
ad Ã¼f
ĠÃ¶ dem
Ġyap masÄ±nÄ±
ĠL isa
Ġel Ã§isi
Ġkal eye
Ġoyn ama
Ġsor gulan
ĠeÅŁ siz
ĠgerÃ§ekleÅŁtir mek
Ġokul una
Ã¼lÃ¼ ÄŁÃ¼
ger Ã§ek
Ġkalk Ä±ÅŁ
ĠbileÅŁen leri
ĠMass achusetts
L it
ÅŁ if
ĠM edi
Ġal abilir
ĠF orum
Ġzaman dÄ±r
Ġa er
ust a
Ġtah sil
ĠAb dÃ¼laziz
Ġokul larda
ĠhiÃ§bir i
ĠgÃ¶rÃ¼ntÃ¼l eme
Ã§ inin
Ġy ayÄ±
ĠP ont
Ġen der
Ġel ip
ĠsÄ±r asÄ±
ĠÅŁekil leri
Ġordu larÄ±nÄ±n
ĠsonuÃ§ ta
Ġdal larÄ±nda
Ġruh u
ĠdirektÃ¶r lÃ¼k
ĠbÃ¼yÃ¼ ÄŁÃ¼
Ġkoz mik
ĠKoca eli
y urt
ak ende
ĠyÄ±l lÄ±ÄŁÄ±na
ĠyÃ¼z eye
dar d
ĠyÃ¼ksel me
ĠsonuÃ§ larÄ±nÄ±
ĠmÃ¼cadel eye
Ġsaat i
ĠsaldÄ±rÄ± da
Ġdo Ã§ent
pe ÅŁte
Ġkorum aya
ĠÃ§alÄ±ÅŁmalarÄ± yla
ĠGir esun
ĠMag n
ĠBin asÄ±
ĠkaÃ§Ä±n Ä±lmaz
ĠAmb rose
Ã¼hr er
' m
Ġv aftiz
am amasÄ±
ĠM oldova
ĠL yon
Ġbul uÅŁtu
Ġc over
ĠÃĩ arÅŁ
Ġyan Ä±ndan
ĠAy ÅŁe
ĠsavaÅŁ mak
Ġkol larÄ±
ĠmÃ¼ hendisi
Ġuygun dur
ĠbaÅŁarÄ± yÄ±
ĠÃ§oÄŁun luÄŁunu
196 6
Ġserg iler
ĠEc evit
ĠArk adaÅŁ
O l
Ġd ul
on der
Ġi tici
ĠK ep
ĠÃ§ek erek
ent us
ĠaÅŁ Ä±n
Ġsanat Ä±nÄ±n
ĠHal if
Ã¼mÃ¼z deki
Ġbelirt ilir
ĠbaÅŁarÄ± larÄ±
ĠfÄ±r tÄ±na
ĠyÃ¼zey inde
eliÄŁ in
uluÄŁ un
ĠyÄ± ÄŁÄ±n
ĠHÃ¼kÃ¼m et
Par is
ĠSÃ¼n ni
b es
en lerin
ĠB et
Ġan ten
Ġtop ladÄ±ÄŁÄ±
Ġedilm esiyle
ĠgeÃ§ir meye
Ġedildi ÄŁinde
ĠtanÄ±m lanmÄ±ÅŁ
Ġtab ir
Ġbak anlÄ±k
ĠinÅŁa atÄ±
arl Ä±lÄ±k
Ġdavran Ä±ÅŁÄ±
ĠtanÄ± yan
ĠAlbÃ¼m Ã¼
ĠTer m
Ġnok tadan
Ġetkilen miÅŁtir
ĠtÃ¶ren le
uel a
Ġmekaniz masÄ±
Ġevrim sel
Ġdenet imi
ĠÃ§evrili dir
P lay
ĠK ans
Ä° k
ĠH aÅŁ
ĠG ib
ĠC hurch
ĠÃ¶n Ã¼ndeki
ĠÅŀ ii
ĠAr aÃ§
Ġvar isi
ĠCh am
Ġdil ler
ĠÅŁarkÄ± cÄ±sÄ±
Ġci varÄ±
laÅŁtÄ±r Ä±lmÄ±ÅŁ
Ġmez unu
ĠkaldÄ±r Ä±lmÄ±ÅŁtÄ±r
ĠYeni den
ĠaÅŁaÄŁÄ± ya
Ġbes len
ĠyayÄ±nlan maya
Ġistatistik sel
Ġmecl ise
ĠÅŀim di
Ġrakib ini
Ġihtiyac Ä±nÄ±
Ġ Ä±n
ĠÄ° ÅŁte
Ġhav acÄ±lÄ±k
Ġdalg alan
ĠÃ§erÃ§ev e
Ġtablo da
Ġefsan e
Ġk ed
da ÄŁÄ±
ĠP ok
ĠP ub
ĠY ang
eler ek
Ġkullan abilir
ĠÃĩ ank
ĠsaÄŁ lamÄ±ÅŁ
Ġkab ar
si de
Ġisim dir
Ġitib arÄ±
ĠÅŁey den
tur es
ĠkÄ±y Ä±sÄ±ndaki
Ġ189 4
ain s
Ġmel od
ĠiP od
ĠAyak lanmasÄ±
Ġmedres e
F enerbahÃ§e
g art
g Ã¶ren
Ä ĵ
ĠÄ° leri
Ġson un
Ġyap Ä±sÄ±nda
ĠbaÅŁ lamak
ĠO z
ĠR achel
Ġat lÄ±
ĠsÄ±r ayla
ĠÃ§evr ildi
Ġbilim leri
ĠPol it
Ġrom anÄ±n
kar ahisar
Ġolab ilmektedir
ĠÃ§atÄ±ÅŁ maya
Ġtat min
gresi f
Ġrob ot
C om
H em
S ey
d or
d inde
Ġkat edral
Ġsezon a
ĠÃ¼y eliÄŁine
ĠBay rak
ĠMal ezya
ĠnÃ¶ bet
ĠMaÃ§ Ä±
Ġmensup larÄ±
Ġkin etik
GÃ¼r cÃ¼
ĠsÃ¶yl Ã¼yor
Ġkub be
m ec
ĠM ul
ĠM uz
ĠD ek
ĠP ur
ĠL ang
Ġver iyor
ĠgÃ¶ster ilmektedir
Ġinsan a
ĠparÃ§ anÄ±n
Ġsat ranÃ§
ĠhazÄ±r landÄ±
Ġkarakter inin
Ġnumar ada
ĠCar lo
Ġbilgisay arlar
]] ,
ĠuÄŁraÅŁ an
Ġreh in
Ġprof il
ĠmÃ¼him mat
Ð ¿
Ġs Ã¼z
Ġs eg
ah i
Ġoy larÄ±n
ĠaÃ§Ä±k lanan
ĠÅŁarkÄ± da
ani ÄŁi
ĠkaldÄ±r dÄ±
Ġhesap lama
Ġkork ut
ĠKap Ä±sÄ±
Ġmakin eli
Meh met
b aba
Î ¼
il yalÄ±
Ġs eti
Ġt ekt
ĠA G
Ġm orf
os na
Ã¶r n
ĠseÃ§ me
Ġfilm deki
Ġer miÅŁtir
ud ak
Ġhalk larÄ±
ĠyaÅŁam Ä±na
ĠgÃ¶rÃ¼ÅŁ Ã¼nÃ¼
Ġhast alarda
Ġidar esinde
ĠtanÄ±n mÄ±ÅŁtÄ±r
Ġhaned anÄ±
Ġbuy ruk
ĠA S
Ġar ayan
ĠL GBT
Ġay larÄ±
eler deki
Ġkat led
Ġl astik
Ġfilm ini
Ġdurum larÄ±
ĠCh art
gÃ¼n Ã¼mÃ¼zde
ĠHar un
ĠHam di
Ġkurt ulan
Ġplatform u
ĠolmadÄ± ÄŁÄ±na
Ġbulam adÄ±
F at
Ġbu lab
ĠO m
Ġver ebilir
Ġver ilerin
alÄ± larÄ±n
Ġalan lara
ĠdÃ¼z el
acÄ± lar
ĠBey oÄŁlu
Ġadam larÄ±nÄ±n
Ġsunu cusu
ĠÅŁah it
ĠTÃ¼rkmen istan
ĠgerÃ§ekleÅŁti ÄŁi
ĠGÃ¶z tepe
ĠJohan n
Ä°m parator
Must afa
d ini
Ø ¨
ĠK imi
av un
eri can
Ġbulun maz
Ġkal masÄ±na
ĠV is
Ġyay Ä±lmasÄ±
ĠsavaÅŁ larÄ±
ĠKon gr
Ġkan ad
ĠÃ¼zerinde dir
Ġisim lerin
Ġhaf Ä±za
Ġolay lardan
Ġhizmet ine
okr as
Ġst abil
Ġazal ma
ons o
Ġnormal de
Ġmalzem esi
ĠihtiyaÃ§ larÄ±nÄ±
Ġdalg alarÄ±
Ġfeth ed
ĠEb Ã»
ĠAmeri ca
Ġid rar
ww w
ĠTasar Ä±m
l uluÄŁu
p us
am alar
ĠS K
ah met
Ã¼k sem
Ġan Ä±lmaya
Ġel den
Ġat ma
Ġev liliÄŁi
emi x
ĠtanÄ±ÅŁ Ä±r
ĠJust inianus
Ġekib inin
ĠAbhaz ya
u labilir
Ġy ut
Ġg an
ek er
ĠS it
ĠK aÄŁ
ĠM ith
Ġc Ã¼ce
Ġkay d
ĠbÃ¶lg elerin
Ġev den
ĠmÃ¼zik lerini
Ġman yet
gen ellikle
ĠkaldÄ± ÄŁÄ±nÄ±
say dÄ±
ĠHe avy
Ġhid rol
Ġ186 7
Ġtay f
Ġgay ri
ĠMÃ¼hendis lik
ĠFelsef e
ĠHerak le
ĠOrtad oÄŁu
Ã¼ksem burg
p ost
Ġi ÅŁtir
am alÄ±dÄ±r
ab ilmiÅŁtir
ĠgeÃ§ tiler
ĠJ in
Ġdur ak
Ä±lÄ±r sa
ĠAs Ä±l
18 78
ĠgÃ¶nder ilmiÅŁtir
Ġst ili
Ġzinc iri
ĠHey kel
ĠRod os
ĠLim anÄ±
Ġsonbahar Ä±nda
ĠdoÄŁrul tu
k om
n ev
Ġy eti
es ar
Ġm arÅŁ
ĠM Ã¼t
ah addin
ĠÃ Ĺ
Ġdev asa
dÃ¼ le
mas a
Ġyet ki
ĠÃ§Ä±kar maya
Ġbin asÄ±nÄ±n
Ġhaber ler
ĠyÃ¶nel im
Ġvurg ulan
ĠSeri e
Ġsandal ye
ĠBÃ¼r osu
ĠSimp son
M I
P U
Ġm e
Ġyaz Ä±sÄ±nda
ĠiÅŁ in
tr ans
ĠgerÃ§ek lik
ĠMar io
Ġsun muÅŁtur
Ġkil o
Ġokul unda
ĠFran ce
Ġdeney imi
ĠBas ile
ĠiÅŁgal ine
Ġyeten eÄŁini
ĠKam er
Ġmedya da
ĠBern ard
ektey diler
ĠKolomb iya
Ġras sal
i um
am Ä±z
ĠS qu
Ġetti ÄŁinde
Ġneden leri
Ġtamam lanan
Ġgrup larÄ±nÄ±n
Ãĸ ÄŁr
ĠÃ§alÄ±ÅŁmalar Ä±ndan
tern asyonal
Ġedil iyordu
Ġimparator un
Ã¢n Ã®
Ġelem anlarÄ±
Ġkurtar Ä±r
ĠHe at
Ãĸz el
ifer ansiyel
ĠSing apur
ĠApol lo
Ġhus us
Ġfemin ist
Pa ul
D TÃľ
P o
k t
r eni
ÅŁ id
ay ak
Ä° talya
Ġkat Ä±na
Ġseb ze
Ġsiyas Ã®
ĠseÃ§im de
ĠÃ¶zellik lerinin
ph y
our ne
var yum
ĠEm niyet
ĠuÃ§uÅŁ u
ĠkÃ¶ÅŁ esinde
AÅŁ k
ĠRay mond
Ġvurg ula
ĠyansÄ± tan
Avust urya
or lar
ap h
di ÄŁer
Ġp encere
ĠR ho
Åŀ ir
tan a
ep ti
ĠCh ild
ĠyerleÅŁ me
ĠbaÄŁlan mÄ±ÅŁ
Ġbek leyen
Ġetkil eyici
ĠKÃ¼r distan
ĠVol demort
ĠWe ek
Ġbon ser
Ġolimp iyat
D ir
y am
Ġ âĢĻ
ĠO h
Ġkal acak
ĠÃ¶l dÃ¼kten
Ġkom ed
ĠkÃ¼Ã§Ã¼k tÃ¼r
Ġseviy esinden
ĠyapÄ±ldÄ± ÄŁÄ±nÄ±
Er k
Ġtopluluk lar
ĠEskiÅŁehir spor
D en
Ġol manÄ±n
ul dak
Ġp amuk
ĠC ep
ĠgÃ¶r Ã¼yor
Ġyer lerine
ĠZ eus
ĠSh er
ĠHer odot
tÄ±k Ã§a
ĠkatkÄ± larÄ±
Ġef end
ĠyanlÄ±ÅŁ lÄ±kla
ĠSah ne
Ġmektup ta
ĠiP ad
ĠDÃ¼z en
ĠÃ¶ dÃ¼n
Ã¢ k
ĠÃĩ avuÅŁ
Ġyak laÅŁtÄ±
ĠÃ§alÄ±ÅŁ mayÄ±
Ġek ol
ĠÃ§ek ilme
Ġbit iÅŁik
Ġkes imi
dÄ±k Ã§a
ron un
ĠgÃ¶rÃ¼n Ã¼mÃ¼
ĠÃ§evr ilmiÅŁtir
Ġbelirt mek
Ġyas aÄŁÄ±
ong uldak
ĠDan ce
Ġazal tÄ±r
Ġoda sÄ±na
ĠbÃ¼t Ã§e
D Ã¼n
T E
Ä±k lÄ±
ol os
iÅŁ kin
Ġde h
lÃ¼ ler
Ġkor ur
Ġtab anÄ±
Ġimzal amÄ±ÅŁtÄ±r
ĠbÃ¶lÃ¼n mÃ¼ÅŁ
ĠÃ¼stÃ¼n lÃ¼ÄŁÃ¼
Ġkurucu larÄ±ndan
Ġonur una
Bab asÄ±
Ġmuhab ir
D F
Ġk uyu
al lÄ±
ĠG h
Ġyar Ä±sÄ±ndan
ĠAl ayÄ±
Ġkadar dÄ±r
est or
Ġkan dÄ±r
Ġduy du
inc eye
ĠbiÃ§im leri
ĠX ander
atÃ¶r ler
vat or
ĠCumhuriyet Ã§i
ĠantlaÅŁ masÄ±
emeye ceÄŁini
ĠÃ¶mÃ¼r lÃ¼
Ġzaf eri
b az
k uÅŁ
z h
ĠS uÃ§
ĠF ul
ĠN ero
Ġel ini
ĠU Ã§ak
Ġuz aya
ĠsaÄŁ lamaya
ĠoluÅŁ masÄ±na
ĠAlman larÄ±n
Ġkaynak lardan
Ġce h
ĠuÄŁr amÄ±ÅŁtÄ±r
ĠJohn ny
ĠDe an
ĠÃ§Ä±kÄ±ÅŁ Ä±nÄ±
Ġdiplom at
ĠvÃ¼cu dun
ĠWr ight
Ãĸn c
Ġpers pektif
b aÃ§
c eye
ed o
it is
Ġf res
eb er
ĠÃ§Ä±ktÄ± ÄŁÄ±nÄ±
pr ess
Ġsahn eleri
ĠgiriÅŁim inde
yÃ¼z yÄ±l
Ġversiyon unu
Ġnihayet inde
ĠÄ°ÅŁlet me
ĠÅŀev ket
lig ht
s ub
ĠS Ã¼t
om orf
ĠaÃ§ mak
ĠÅŀ ef
Ġyaz mak
Ġkat say
Ġhal iyle
Ġyol larla
ĠÃ§ek in
lat ma
ĠgÃ¼Ã§ lÃ¼k
Ġ8 1
Ġgrup la
ĠÅŁarkÄ± yla
Ġ14 0
ĠBel la
Ġtemsil ciler
ĠÃ¶zellik lerinden
Ġoran Ä±nÄ±n
ĠHam za
ĠkÄ±y met
Ġhep sini
196 5
ĠArt s
Ġnesn eler
ĠMaÃ§ Ä±n
Ġvad eli
omo jen
ĠSiyas i
ĠÃ§if ti
Ġtorp ido
S tan
U S
l esi
Ġk uk
Ġs of
Ġm av
ĠS iyon
ĠiÃ§ me
Ġr ak
Ġay et
Ġkullan masÄ±
Ġyay Ä±lmÄ±ÅŁtÄ±r
Ã¼c el
Ġtamam lanmÄ±ÅŁtÄ±r
Ġot oy
Ġ16 0
Ġfutbol cusu
ĠyapÄ±m Ä±na
197 1
ĠMo ore
Ġetkilen di
ĠKit ab
Ġcam inin
ĠDim it
M or
g et
k adÄ±n
ĠS R
ĠÃ¶ te
ep er
ĠAv cÄ±
ĠZ e
ĠalbÃ¼m Ã¼nden
luÄŁ undaki
hi o
ĠFran ces
our nal
Ġanlat maktadÄ±r
ĠkoÅŁ ulu
ĠSe attle
Ġmesaj Ä±
ĠZaman la
ĠÃ¶v gÃ¼
ĠGÃ¶ Ã§
ĠPhil adelphia
E ur
J os
ĠM esela
Ġf am
af ak
ĠR A
ĠaÃ§ abilir
ĠgÃ¶z lerini
ĠGal ya
ĠkatÄ±lÄ±m Ä±nÄ±
Ġegemen lik
Ġpozisyon unda
ĠsoÄŁut ma
ĠNiÅŁ anÄ±
S ol
m g
Ġ ×
Ġk ula
el ti
ĠS iri
ĠO lu
ac Ä±lÄ±ÄŁÄ±
ĠdeÄŁiÅŁtir miÅŁtir
Ġtemel leri
ĠgiriÅŁ imleri
ck s
ĠkeÅŁ fi
Ġmotor larÄ±
ĠBas ra
ĠÃ¶ner ilen
omp son
ĠÃ¶ÄŁ Ã¼t
ĠyÄ± ÄŁ
ĠkÃ¶t Ã¼ye
ĠWy att
in ess
ay acaÄŁÄ±
ĠE len
ĠP ed
Ã¼l is
Ġbelir leyici
Ġiz lediÄŁi
Ġtamam lanmÄ±ÅŁ
Ġdestek len
Ġmuh teÅŁem
Ġgem ilerin
ĠyerleÅŁtir ildi
Ġverilm iÅŁti
iet z
ĠOst rog
M icrosoft
b ro
f ilm
ĠS A
st one
ĠW er
og o
Ġbin alarÄ±
ĠuÄŁr ar
ĠtaÅŁÄ±n an
Ġ188 1
ÃŃ n
Ġces ur
eff af
ĠTapÄ±n aÄŁÄ±
ĠZir aat
Ġsiv ri
Rob ert
y esi
È Ļ
Ġt alan
Ġr eg
Ġbul muÅŁ
ĠdiÄŁer ine
ĠÃ¼r Ã¼nÃ¼n
ĠKon go
Ġ8 2
ĠdoÄŁru ladÄ±
ĠsaldÄ±r Ä±yÄ±
ĠAt t
Ġplan lama
Ġmez arÄ±
sk aya
Ġdoktor u
ronik os
ĠFilip inler
ĠÄ°sra illi
Ġ q
in da
Ã§ Ä±lÄ±ÄŁÄ±
Ġd ediÄŁi
ÅŁt ay
ĠK arat
tan ik
Ġev leri
lat tÄ±
Ġot op
ĠÃ¶ÄŁren mek
ĠyakÄ±n dÄ±r
ĠBr Ã¼ksel
Ġmodel inin
ĠkayÄ±t lara
ĠÃ¼retim ini
Ġlim it
ĠdanÄ±ÅŁman lÄ±k
Ġgur ur
. -
J o
K ol
k am
Ä±n t
Ã§ ert
Ġt uÄŁla
on es
Ġf iÅŁ
ĠD uy
ĠG lor
Ġtaraf Ä±ndaki
Ġkal siyum
ĠÃĩ Ã¶l
Ġsezon undan
ĠZ ag
Ġisim lerinden
ber to
enk ul
ĠTar sus
ĠNe xus
Ġtabak asÄ±
Ã¼kr Ã¼
F I
L ove
s uru
ĠL ov
Ġver ilerek
ĠsÃ¼r g
Ġyak Ä±nda
ĠgÃ¶ster iler
eli us
Ġek osistem
ĠKon uÅŁ
Ġkent inin
Ġsefer de
Ġkaps amaktadÄ±r
Ġfikir lerini
ĠPal m
ĠÃ§aÄŁr Ä±sÄ±
Ġmu af
Ġelektro t
Ġgerekti ÄŁine
ĠMoz art
ĠdaÄŁÄ±n Ä±k
Ġvarol uÅŁ
af at
ĠN eb
lay er
ĠgÃ¶z etim
ĠdoÄŁru lama
Ġark asÄ±ndaki
siz liÄŁi
Ġdin dar
Ġetkil ey
Ġoran Ä±nÄ±
ĠgÃ¶rdÃ¼ ÄŁÃ¼nÃ¼
Ġinc eler
ĠsÃ¼rÃ¼m leri
Ġmens ubu
Ġkuy ru
ĠaralÄ±k larla
ĠAmaz on
al s
Ġs e
ak ir
Ġo dun
ĠB la
ĠB az
ĠB ert
ya j
ĠP ul
Ġr Ã¼ÅŁ
ĠC ey
os eksÃ¼el
lam asÄ±nÄ±n
Ġev lendir
ĠBur han
Ġbilim ler
Ġ0 4
ĠGeÃ§ idi
Ã¨ re
Ġokuy an
Ġspekt rum
ĠniteliÄŁ inde
ĠMeÅŁ rutiyet
Ġhekt ar
m is
de z
ĠM esih
lan a
ya cak
Ġhak lÄ±
ĠÃ§ek ilir
ĠkayÄ±t lar
Ð° ÑĢ
Ġmon taj
Ġonar Ä±m
7 00
p ot
Î º
Ġk Ã¼rk
Ġt uhaf
as ker
Ä±l makta
ĠP eygamber
ĠP eÃ§en
eler ce
ĠyÃ¶n Ã¼nÃ¼
ĠU ral
Ġkend ilerinin
Ġmet ro
ĠÃ¼y esiydi
ĠyaÅŁam Ä±nÄ±n
pr es
194 1
Ġku ark
ĠtamamÄ± yla
Kay nak
ĠOla ÄŁan
K ah
T aÅŁ
b is
ĠS M
Ġal aÅŁ
Ġal Ä±nÄ±p
ĠT her
ĠY um
Ġtan Ä±r
uh an
Ġkol eksiyonu
Ġkim in
ĠKan uni
ĠteÅŁ ekkÃ¼r
ette pe
ĠyetiÅŁtir ic
Ġbulunm adÄ±ÄŁÄ±
Ġces ed
Ġhakimiyet ine
Ġsavunu cu
Ġtuttu ÄŁu
ĠÃĩat al
ĠOset ya
) )
B N
S mackDown
u ff
Ġs ep
or es
ap lÄ±
ĠyÄ±l lardÄ±r
ĠC ul
os yon
ĠÃ§Ä±k abilir
ĠSt ate
Ġpay laÅŁtÄ±ÄŁÄ±
ĠgÃ¶sterir ler
Ġdurdur mak
Ġetkinlik leri
ĠkarÄ±ÅŁÄ±k lÄ±k
ĠÃľy esi
Ġkadem eli
Ġfolk lor
v iÃ§
Ġs ade
ĠB ack
ĠR enk
Ġkad Ä±na
Ġyaz dÄ±r
re p
ĠKon ferans
Ġzor ladÄ±
Ġedil dikten
Ġsistemi dir
Ġarac Ä±nÄ±n
ĠRum en
Ġsim etrik
Ġdiy al
ho use
Ġb ac
ĠM HP
ey rek
ev e
ĠD rak
ĠiÃ§ lerinde
ĠF all
ĠO ct
ut er
Ġgel meye
Ġay Ä±na
ĠsÃ¼r erek
Ġon larca
ĠÄ°s hak
orm uÅŁ
ĠhÃ¼k m
ĠilÃ§ eleri
ĠkuruluÅŁ lar
ĠDon ald
Ġdiy agram
ĠHo uston
Ġente gr
c at
w are
ĠÃ¶ bÃ¼r
ĠsaÄŁ lanmaktadÄ±r
ĠalbÃ¼m le
ĠdeÄŁer inin
Ġbey nin
ian us
ĠdÃ¼ÅŁÃ¼nc eleri
ĠSil ver
Ġbal in
Ġib lis
Ġokum ak
Ġtopr aÄŁÄ±
ĠArist oteles
L C
j der
ĠS z
ĠK Ä±t
ĠH es
ĠL ittle
Ġver meden
Åŀ im
erk ek
Ġkay dol
malar dan
Ġisim lerini
ĠboÅŁ al
Ġkelim eler
Ġsim gel
ĠkullanÄ±cÄ± larÄ±
Ġgalib iyeti
Ġterc Ã¼m
Ġ iri
Ã§ am
ĠÃ§ an
Ġkul e
ĠtÃ¼r emiÅŁtir
og rap
ĠyÃ¼ksek likte
olu tion
ĠÃ§eÅŁit leri
Ġtel aff
Ġyas adÄ±ÅŁÄ±
Ã© mon
Ġsavun muÅŁtur
Ġboyut larÄ±
Ġesin len
B undan
Ġk ehan
el son
un try
on larÄ±
on ne
ĠT ob
ĠyÃ¼k Ã¼m
Ġfilm lerin
Ġmil it
ĠBaÅŁ bakanlÄ±k
Ġtes isi
ĠSh i
Ġtedav isinde
Ġbahs edilen
Ġbiy oloji
ĠDonan ma
ĠIr maÄŁÄ±
Mich ael
ĠHow ard
ĠStock holm
D NA
M em
Å ĭ
de y
ĠK Ä±y
Ġp orn
19 40
ĠaÅŁ kÄ±
rar i
Ġ12 00
ĠkÄ±z gÄ±n
ĠÃ¼n it
ĠÃ§alÄ±ÅŁtÄ± lar
Ġsahn eler
196 3
omet rik
ĠmeÅŁ e
ĠGel ibolu
ĠGeÃ§ ici
Ġap artman
ĠSeri es
ĠGran de
ĠBuda peÅŁte
Yah udi
G Ã¶z
O N
ĠK alan
ĠH aÃ§
ĠÄ° ber
Ġtar ayÄ±
Ġay in
ĠÃ§alÄ±ÅŁ anÄ±
ĠdÃ¼zen lenmesi
ĠgÃ¶z Ã¼
elen ir
ĠgeliÅŁ meye
Ã© r
ĠsonuÃ§ lan
ĠdÃ¼ÅŁÃ¼nc elerini
ĠyÃ¼rÃ¼ttÃ¼ ÄŁÃ¼
Ġgeomet ri
ĠKatedral i
Ġbozg una
G e
M ur
S Ã¼per
Y Ä±ldÄ±z
Ġg ag
Ġt aze
Ä° K
ĠH end
ĠH ugh
ĠP ad
ĠoluÅŁ masÄ±
Ġkor idor
Ġ7 8
ĠkÃ¼ltÃ¼r Ã¼nde
Ġsoy u
ĠMa in
Ġyorum unu
ĠOrt aÃ§aÄŁ
Ġhid rok
Ġide olojik
Ġvokal ist
ĠsÃ¼l al
Ġnah iy
Ġtems ili
ĠÃ¶ g
ĠP y
ĠC lara
eb us
ig er
ĠsÄ±nÄ±r lÄ±dÄ±r
ĠHal kÄ±n
ĠsÄ±k Ä±ÅŁ
ĠSar ah
Ġtelevizyon da
ĠEuro League
ĠJim my
ĠLuc as
Ġyeme ÄŁi
Ã¶l ye
ec tion
Ġhak larÄ±nÄ±n
van a
ĠalÄ±n tÄ±
Ġres med
Ġmev cu
Ġci d
ĠBul ut
ĠDav e
ĠEm ma
ĠSonr adan
Ġanay asal
ĠMek sik
ĠsÃ¶mÃ¼r g
Ġkost Ã¼m
ĠEtiyop ya
M ed
P an
Ġilk e
Ġkab uÄŁ
ret tin
ĠdeÄŁiÅŁik liÄŁe
Ġyazar larÄ±n
Ġeylem i
ĠDemir yolu
ĠsÃ¶ylen mektedir
Ġfayd alÄ±
ĠSiyas al
O K
Ä° r
Ã¼l oz
ĠbaÅŁ lanmÄ±ÅŁ
mÄ± z
ĠÃ§alÄ±ÅŁ masÄ±nda
ĠaÃ§Ä±k lamaya
ent z
Ġduy ul
Ġoyuncu larÄ±ndan
Ġhava alan
ĠNe olitik
abil iyordu
ĠRef orm
ĠCO VID
ĠLeh istan
opolit en
Ġbran ÅŁ
ek et
Ġm af
Ġde desi
mas Ä±ndaki
ĠÃľ mit
ĠyÃ¼ksel ir
Ġortak lÄ±k
Ġradyo aktif
Ġnak liye
Ġvarsay Ä±lan
ĠZeyn ep
áĥĶ áĥ
r iyat
Ù ĩ
al do
ĠM ic
ĠD um
ĠÄ° la
Ġn ehrin
Ġda imi
ĠÃĩ orum
Ġzaman Ä±nÄ±n
ĠyÃ¼z Ã¼nde
Ġkab losuz
Ġask Ä±ya
Ġ7 3
ĠeÅŁ inin
ĠkÄ±yÄ± larÄ±na
Ġbl og
Ġyor gun
Ġstr es
A ra
m iyordu
Ġ Ä±
as ta
ĠS ert
ĠT oy
ĠÅŁ aman
ĠE h
ĠÃ§al an
ĠÃ§alÄ±ÅŁ masÄ±na
Ġ18 48
leÅŁtir mek
Ġmad eni
Ġkaynak lanmaktadÄ±r
ĠsuÃ§ u
Ġaltyap Ä±sÄ±nda
oper atif
ĠProfes yonel
ĠÃ¶nlem ler
ĠÄ°lÃ§ ede
Bil g
ĠOli ver
ĠparÃ§acÄ± ÄŁÄ±n
ĠClaudi us
R I
n az
al is
Ġt ir
la ÄŁÄ±
is uke
ĠM uÄŁla
ĠT eh
Ġkullan Ä±yor
ĠJ ar
Ġayr Ä±ÅŁ
Ġ7 4
Ġbit tikten
ĠdeÄŁer inde
ĠÃĸz gÃ¼n
ver t
ĠgÃ¶zlem ci
Ġ188 2
ĠÄ°r landalÄ±
ĠHava alanÄ±
ĠbalÄ±k Ã§Ä±lÄ±k
ĠMem lÃ»k
ĠFeder asyon
duk tan
ĠMax well
ĠPlan Ä±
ĠÅŁÃ¼ph eli
Ġslog anÄ±
Ġimtiy az
il o
ed s
ĠÃ§ or
af kas
op le
Ġkul esi
ĠJ ovi
Ġdur du
Ġkan adÄ±
Ġsev en
Ġber aat
Ġbab asÄ±na
Ġpek iÅŁtir
Ġkral lÄ±ÄŁÄ±
Ġdikkat i
ĠkullanÄ±l masÄ±na
ĠaÄŁaÃ§ larÄ±
Ġ186 4
ĠOÄŁ lu
ĠÄ°liÅŁk iler
Ġpeyn ir
D Ã¼ÅŁ
E ÄŁ
H C
M ez
im an
ev iÃ§
eÅŁ e
ip e
Ġkom ik
Ġinsan i
ĠdÃ¼ÅŁÃ¼n Ã¼ldÃ¼
Ġtemel de
ĠIn ternet
ĠyaÄŁ lÄ±
Ġmiktar larda
Ġmu azzam
ĠFilistin li
Ġkuram sal
Ġmetab ol
ĠFern ando
ĠDoug las
li ff
Ġal madan
Ġf it
ĠH Ã¼c
Ġson da
ok o
ĠG ine
Ġver medi
ĠÃ§Ä±k masÄ±nÄ±
ĠZ ar
ĠtÃ¼r de
ĠÃ¶nc Ã¼sÃ¼
Ġboz kÄ±r
Ġnokt alar
ĠÃ§ift in
ĠÃ§arp Ä±ÅŁma
Ġ189 3
ĠgÃ¶tÃ¼r Ã¼ldÃ¼
ĠbirleÅŁtir en
Ġdurdur uldu
ĠGÃ¶k han
Mah on
D el
O ne
ĠA T
am us
ad en
Ġgel ebilir
Ġgen e
Ġetm eden
ĠgÃ¶ster ileri
ĠsaÄŁ lama
ĠyayÄ±n larÄ±
ĠgÃ¶n Ã¼l
ĠhazÄ±r lamak
ĠseÃ§im lere
Ġab art
Ġkov al
ĠHaw ai
Kit ap
E G
Y P
c Ã¼k
m ine
el ekt
ab inde
Ġyap mÄ±ÅŁlardÄ±r
Ġyer lerinden
ĠkarÅŁ Ä±sÄ±ndaki
ĠÃ§ek imler
Ġbilin iyordu
Ġ9 9
Ġdem o
Ġper akende
Ġsonucu dur
ĠtaÅŁÄ±n masÄ±
ĠaraÅŁtÄ±rmalar da
Gen ellikle
ĠeriÅŁ imi
Ġmit ing
ĠayrÄ±lÄ±r lar
ĠrÃ¼tb esi
Avust ral
B Ã¶ylece
G S
z u
am it
am oto
ĠG emi
ĠL ap
ĠL ise
ac hi
Ġver miÅŁlerdir
Ġyaz masÄ±
ĠiÅŁ len
ĠÃĩ arlÄ±k
Ġetm eyen
ĠÃ§alÄ±ÅŁ manÄ±n
Ġ8 3
ill o
Ġkuzey doÄŁusunda
Ġhast alarÄ±n
Ġedeb ilmek
Ġyeten eÄŁine
Ġbelg eleri
Ġfikir ler
ĠHav acÄ±lÄ±k
brah am
ĠpaylaÅŁ Ä±m
Ġdalg alar
ĠJos ef
Ġib n
ĠSak son
ĠkÄ±sÄ±t lÄ±
ĠKÄ±rgÄ±z istan
h un
m id
Ġp embe
ĠL ion
ĠÃ§al maya
Ġetm enin
ĠsaÄŁ lamasÄ±
Ġev lenir
Ä±lÄ±r lar
Ġ8 7
ĠMan n
eder asyonu
Ġetkin liÄŁinde
ĠhÃ¼cr elerin
Ġpsik iyat
ĠCem il
hat tan
Ġide oloj
Ġnesn enin
ĠÃľlk ede
O kul
T akÄ±m
l ekli
l ilere
ÅŁ in
is hi
ĠI BM
tr ic
Ġetk isinde
siz in
Ġkaynak lanÄ±r
ĠdeÄŁiÅŁtir en
Ġdal da
Ġkoy an
ĠÅŁekl ine
ens is
Ġann esini
ĠÃ¼rÃ¼n lerinin
ĠÃ§at Ä±sÄ±
Ġlider liÄŁinde
ĠPer ry
ĠBilim sel
ĠÄ°st asyonu
ĠSaldÄ±r Ä±
E ser
V ol
d le
an os
on ia
Ġil av
ilm eyi
ĠR eh
Ġc eviz
Ġist eÄŁiyle
ĠyÃ¶net ime
si e
of ya
Ġkarar larÄ±
ill y
ĠSan kt
Ġplan lar
ĠÄ°lk Ã¶ÄŁretim
ĠÅŁey leri
ou in
ĠOk tay
ĠmaÄŁ ara
Ġderg ilerde
Ġ189 1
Ġ188 8
Ġhastan Ä±n
ĠAraÅŁtÄ±r malarÄ±
Ġbirik tir
ĠMaked on
Ġzehir li
Ġeks eni
G Ã¼l
Ã ī
em ey
om obil
Ġis kan
Ġam c
ch an
ĠyerleÅŁ imi
ĠdÃ¼nya ca
Ġorgan larÄ±
lav uz
may acaÄŁÄ±nÄ±
Ġyorum u
ĠbaÅŁlam asÄ±ndan
ĠakÄ±m Ä±n
ĠMir za
ĠBa ud
liy Ã¶
ĠProt okol
ĠFabrik asÄ±
ĠpopÃ¼ lar
B rit
P as
P op
Ġk las
ĠS tratej
ĠM erk
âĢ ĭ
ĠG ag
av at
ĠR ize
ĠY ozgat
ĠgeÃ§ mesine
ĠaÃ§ mÄ±ÅŁ
Ġim am
Ġonay ladÄ±
Ġsaf h
ĠyaÄŁÄ±ÅŁ lÄ±
Ġmor al
ĠÃ§in ko
T a
p ir
Ã§ Ä±lÄ±
ĠS ta
ĠS lovakya
ĠP om
ĠF M
ĠY erli
ci o
Ġolm ayÄ±p
ĠseÃ§ er
Ġkomut asÄ±
Ġsilah larÄ±n
Ġ189 2
Ġdalg asÄ±
ĠAlex and
ĠÃĸy kÃ¼
eÃ§h iz
c or
d s
Ġbir liÄŁini
ĠP on
Ġan tib
19 18
Ġak tris
Ġter ap
ĠyarÄ±ÅŁ masÄ±na
An gel
Ġj et
pe ÄŁi
ĠRum ble
duk Ã§a
ĠJul ia
ĠBarb aros
ĠAfrik alÄ±
L at
an ne
en ne
Ġak la
Ġhar ap
Ġmuh as
Ġmev s
Ġedilir ken
Ġbildir miÅŁtir
ĠkuÅŁat tÄ±
ĠcanlandÄ±r mÄ±ÅŁtÄ±r
Ġbitk ilerin
ĠÃ¶v g
ĠClar k
D ar
t ol
la tan
em ya
ĠT ouch
Ġet se
Ġay aÄŁÄ±
Ġger illa
ĠÃ¶nem siz
Ġhay li
end iler
Ġyen ik
Ġkaynak larÄ±na
Ġcan avar
Ġiddi asÄ±yla
Ãľ l
ĠAnd ronikos
ĠkarÅŁÄ±laÅŁ an
ĠkÃ¼r ek
Ġ187 1
ĠdaÄŁÄ±t Ä±mÄ±
Ġkitl esel
B ol
B ig
k Ä±z
in dan
Ġg Ã¼t
ay lar
Ä±l lÄ±
ĠB omb
di a
ĠH P
ĠP az
os y
iv i
Ġalan larÄ±na
lerden dir
ĠhÄ±z Ä±nÄ±n
ĠkÄ±z Ä±nÄ±
Ġede ceÄŁi
Ġhalk tan
ĠkayÄ±t larÄ±na
Ġbitir erek
Ġkavram larÄ±
ĠtarÄ±m a
Ġotur du
Ġdef ans
sunu z
T ak
t he
Ġk edi
or ik
ĠD ip
ark tika
Ġolm amakla
Ġat Ä±p
Ġist edikleri
Ġkor o
Ġiz i
ant o
Ä±mÄ± ÅŁtÄ±r
Ġmek aniÄŁi
iliÄŁ inde
ĠSp art
ĠÃĸn emli
ĠKor eli
Ġkaydet miÅŁtir
ĠMag ic
ĠDar win
ĠLib eral
amay acaÄŁÄ±
ĠseÃ§en eÄŁi
ĠAst ron
ĠFa ik
Ġrestor asyon
ĠHard y
Bul gar
ĠErn st
B it
an sta
Ġy Ä±p
et le
ĠB lan
ĠK elly
ĠM iy
Ã¼m en
Ġz ik
uÅŁ a
lem esini
Ã¢ f
ĠsÄ±nÄ±r Ä±nÄ±
Ġrenk ler
Ġseviy esinin
ĠYÃ¼ksek okulu
ĠÃ¼s sÃ¼
ĠJust in
Ah met
Ġmasa Ã¼stÃ¼
s aÄŁ
Ġm Ã¼slÃ¼man
Ġal Ä±
ĠD ort
ib r
ĠgeÃ§ tikÃ§e
Ġkay gÄ±
Ġkap lar
Ġfilm lerinin
Ġgerek siz
ĠÃ¼ret ilmektedir
ĠhÃ¼k um
ĠÃ¶ldÃ¼r me
ĠkÃ¼ltÃ¼r Ã¼nÃ¼
ĠStudi o
G Ã¶l
G rub
U N
W illiam
z ad
Ġd ib
Ġs olu
ĠA ca
ĠG rim
ĠE th
ĠÃ§Ä±k mayÄ±
ĠEr ol
ĠsavaÅŁ Ä±nda
Ġinsan lÄ±k
ĠparÃ§ al
ĠparÃ§ alarÄ±n
ĠÃ¶ÄŁren imi
ĠkÃ¶y Ã¼nÃ¼n
ĠgÃ¶nder miÅŁtir
Ġlist eye
land o
ĠProj e
L S
t oz
Ø ³
Ġal dat
iz a
Ġtarih lenen
Ġas len
Ġyan kÄ±
Ġkazan ma
Ġboy larÄ±
Ġdurum unun
Ġgit mesi
ĠMed ya
Ġifad eler
tek in
ĠKas ab
ĠbilinÃ§ li
endik ten
Ġboyn uz
ĠNijer ya
D Ã¶rt
E f
F or
v ia
em emiÅŁ
ĠD ie
oÄŁ a
ĠÅŀ Ã¼krÃ¼
ĠAl iyev
ĠgÃ¼n ler
Ġist ediler
Ġhar ici
ĠbazÄ± larÄ±nÄ±n
Ġtut ulmasÄ±
Ġtes adÃ¼f
ĠKom p
ĠgerÃ§ekleÅŁtir ilir
ĠgÃ¼ney doÄŁusunda
Ġorta okul
ĠVal ent
196 4
ĠKend isine
ĠkayÄ±p larÄ±
Ġmakal eler
Ġilerlem eye
zim at
Ġilah i
Ä°span yol
k urt
m Ã¢
Ġv en
Ġbir imler
ĠH Ã¼rriyet
ĠR AM
Ġyer lerini
Ġc oÅŁ
Ġkullan Ä±lÄ±yordu
ĠyÃ¶net ildi
ĠsÃ¶y lendi
ĠparÃ§ alarÄ±nÄ±
ĠkadÄ±n larda
lis por
Ġtehlik esi
ĠJos Ã©
ĠhastalÄ± ÄŁa
enh ag
I rak
ĠB olu
um e
ĠF ay
ĠL Ã¼ksemburg
ac her
Ġis min
ĠyÃ¶n e
ĠiÅŁ lenen
Ġak Ä±ntÄ±
Ġter tip
ĠAt om
ilmesi dir
ĠÄ°z zet
ĠFran co
ĠkÄ±sÄ±m da
ĠGu ardi
ĠyardÄ± ma
Ġverilm esini
ĠMag az
Ġemek liye
ĠtÃ¼c c
ĠÄ°h san
Ġal madÄ±
ĠÅŁ en
ĠR amazan
ĠgÃ¶r kem
Ġin is
ĠiÅŁ lerine
ĠsÃ¶z lÃ¼k
ĠÃ¶r gÃ¼
Ġem peryal
ĠKom isyon
Ġoyuncu ya
ĠÃ¼c reti
ĠarttÄ±r mak
ĠTah ran
ĠHast alÄ±k
ĠÄ°ktis at
Ġg lik
iÅŁ er
Ġde zav
Ġel lerinde
ĠaÃ§ arak
ĠÃ¶l mesi
Ġuz ayÄ±
Ã® lik
ĠbÃ¶lÃ¼m lerde
ĠÃ¼st Ã¼ndeki
Ġzor laÅŁtÄ±r
ĠHar bi
Ġail eler
Ġkoy mak
Ġbat aklÄ±k
Ġazal masÄ±
ĠsÃ¶ylem iÅŁ
ĠkaynaÄŁÄ± dÄ±r
ĠteÅŁkil atÄ±
ĠTal ib
Ġmitoloj isinde
R S
z acÄ±
in om
Ġk Ã¼f
ĠA x
Ġz ann
Ġc ar
Ġhal indeki
Ġada sÄ±nda
Ġkan unun
ĠsÄ±nÄ±r larÄ±na
ĠuÃ§ an
ĠÄ°lk okulu
ĠkÃ¼ltÃ¼r Ã¼ne
ĠkuÅŁ k
ĠgÃ¼ney batÄ±sÄ±nda
ĠkatÄ±ldÄ± lar
ĠteÅŁ his
Ġhedef leri
ĠtanÄ± dÄ±
ĠyÃ¼zey ine
ĠCo oper
Ġazal dÄ±
ĠbirleÅŁ mesi
Ġtaarruz a
Ġdans Ã§Ä±
alim an
ĠmÃ¼s a
Ñģ Ðº
Ġmay mun
B a
E B
M ari
z em
Ġd edik
Ġt ezi
ĠH i
ĠH ist
ĠC annes
Ġen trop
ĠyÃ¶n Ã¼ne
if oros
Ġkor on
ilik ya
ĠyÃ¼ksek liÄŁinde
ĠÃĸz tÃ¼rk
Ġanlat Ä±lmaktadÄ±r
Ġpart ilerin
ĠmaÄŁ dur
ĠsanatÃ§Ä± larÄ±
ĠHristiyan lar
ĠfotoÄŁraf larÄ±
ĠHav z
Ġtehlik eye
ĠTor onto
Ġkomplek si
ĠSeb as
htt p
Ġdezav antaj
J ust
M in
O ri
Y ou
il ey
ev es
ĠD ak
ĠW ith
Ġkat Ä±nda
ĠAr ÅŁiv
atÄ± cÄ±
ĠZ ig
ĠZ onguldak
ĠMar i
Ġart tÄ±kÃ§a
Ġinan dÄ±r
ĠyÃ¶ntem lerle
Ġoyunc ulu
ĠMec l
ĠDe ath
At atÃ¼rk
ĠAsker Ã®
Ġistikrar lÄ±
ĠDub lin
ĠPho enix
" ("
m eyle
Ġk asÄ±t
Ġd Ä±r
as k
ĠC N
ĠC os
ĠsÃ¼r erken
ĠV ezir
ĠI X
ri ca
ĠbÃ¶lg elerini
ch a
Ġpol isi
Ġplan Ä±nÄ±
ĠÃ¶rgÃ¼t len
Ġziyaret e
ĠkÄ±y Ä±sÄ±
ĠdÄ±ÅŁarÄ± ya
Ġsoruml usu
ĠDah asÄ±
ĠArke oloji
S uper
f en
Ġv adi
ĠB and
ad ze
Ġil im
Ġp ank
ilm eyen
Åŀ ah
ĠyaÅŁ Ä±yor
Ġdur ur
Ġedilm ek
ent s
ĠÃ¼st lenen
Ġsanat larÄ±
ĠkÃ¶y lerde
ydÄ± lar
ĠkayÄ±t larÄ±nda
ĠtaÅŁÄ±n abilir
ĠMor gan
Ġroman Ä±ndan
ĠÃ¼s s
ĠgÃ¶rÃ¼r ler
Ġust asÄ±
Ġfazl asÄ±nÄ±
ledik Ã§e
Ġhel yum
Ġs ite
ĠA ta
ĠM oh
ĠT enn
ĠD ob
Ġyap Ä±ÅŁ
ĠKar anlÄ±k
Ġmerkez e
Ġ9 6
ĠyayÄ±m lanmÄ±ÅŁ
ĠkaÃ§ Ä±ÅŁ
Ġkarakter dir
pr Ã¼
ĠTar af
Ġbat ary
ĠÄ°ran lÄ±
ĠKÃ¼r esel
Ġdoktor asÄ±nÄ±
Ġkayde der
Ġperiy odik
ĠBra un
Ka ide
ĠS ivil
Ġdev ri
me ce
iÃ§ in
ĠseÃ§ tiÄŁi
alan mÄ±ÅŁ
ĠÃ¼y elerine
ĠKur may
ĠgÃ¶nder mek
ĠsÄ±nÄ±f Ä±na
ĠÃ¶ldÃ¼ ÄŁÃ¼nde
nam esi
Ġesas en
Ġoyunun un
ĠbaÄŁlam Ä±nda
ĠdÃ¼ÅŁÃ¼nÃ¼ lebilir
S aÄŁ
ĠA sp
ĠÃ§ en
Ġar amak
ĠbaÅŁ Ä±ndaki
ĠgÃ¶r Ã¼ÅŁtÃ¼
ic isi
ĠbÃ¶lg elerinden
ĠKar iyer
Ġ7 1
Ġ7 9
ĠaÄŁÄ±r lÄ±ÄŁÄ±nda
Ġbenz emektedir
ĠDoÄŁ a
ĠkoÅŁul larda
ĠSin em
ĠyukarÄ± daki
Ġnesn elerin
ĠvÃ¼cu du
ĠpadiÅŁah Ä±n
ĠevliliÄŁ inden
es cu
ĠA gr
Ġil Ã¢
ĠH ers
gi on
ĠAnd y
ĠayÄ±r mak
ĠyerleÅŁtir ilmiÅŁtir
imiz de
Ġmalzem enin
bur ada
ĠRes sam
Ġceph ede
Ġith alat
Ä°lÃ§ ede
ĠEndÃ¼ str
ĠAbdur rahman
K as
s eler
Ä±k lar
ĠD ragon
ĠF is
Ġver mez
ĠÃĩ ak
of il
Ġform Ã¼lÃ¼
ĠaraÅŁtÄ±r masÄ±
Ġyas alar
ĠKom it
ĠarkadaÅŁ larÄ±yla
Ġbirbir i
hi e
ĠBul garlar
ĠÃ¼nlÃ¼ dÃ¼r
ĠÃ§evir isi
Ġmakin eleri
ileb ilen
ĠCel tic
ĠYal Ã§Ä±n
C am
K ir
K Ã¼r
b ot
g Ã¶
Ã ¥
Ġd iferansiyel
ĠM aya
ĠÅŁ a
Ġver iyordu
ĠÃ§al ma
Ġak ÅŁ
ĠÄ°s yan
Ġaz ot
ĠÃ¼ret ime
ĠTh ompson
Ġsol uk
Ġkop yasÄ±
Ġcivar Ä±ndaki
ĠTe x
ĠGÃ¶ ster
ĠÄ°dar e
Ġaleyh inde
Ġmisyon er
ĠStÃ¼d yo
ĠJuv entus
H av
m edir
Ġm Ä±knatÄ±s
ĠÃ§ ant
im inden
ĠK abil
ĠM ig
om al
Ġan ormal
Ġyer dir
Ġhal efi
Ġyak alanan
ĠseÃ§ miÅŁtir
amp ton
Ġhay ranÄ±
ĠsaldÄ±r Ä±nÄ±n
ĠPro duc
Ġerkek lerde
ĠTr ump
ĠsuÃ§ landÄ±
Ġkamp Ä±na
ĠDaÄŁ lÄ±k
ĠÄ±ÅŁÄ± ÄŁÄ±nda
Ġzih in
ĠLan c
ĠfakÃ¼l te
ĠprÃ¶m iyer
I s
Y an
l usu
v ers
y atÃ¼r
Ĩ Ĵ
Ġg Ã¼d
Ä±r g
ĠA er
Ä±m da
dÄ±r lar
ĠR ez
Ġkal maktadÄ±r
ĠAn ak
Ġyar a
ĠÃ§ok tan
ĠÃĩ Ã¶z
ĠdÃ¼ÅŁ me
Ġek stra
Ġdiz ileri
Ġham ur
ĠSe an
Ġmalzem elerin
Ġceph esinde
ĠÃ¶ldÃ¼rÃ¼ldÃ¼ ÄŁÃ¼
Muh ammed
ĠHac ettepe
ĠAbb asi
c ir
Ġk estir
Ġt om
Ġt ens
ek on
Ġh or
Ġh omojen
ĠS lam
ĠP aÅŁ
ĠY el
ĠgeÃ§ meye
Ġyaz Ä±ldÄ±ÄŁÄ±
Ġun suru
Ġsefer inde
ĠeÅŁit liÄŁi
ĠBe larus
Ġtas fiye
ĠDemokr asi
ĠsÃ¼rec in
ĠsÄ±nÄ±flandÄ±r ma
Ġanah tarÄ±
Ġep ey
Ġlez biyen
ĠmÃ¼h Ã¼r
ĠBasile ios
T im
ĠgÃ¶r mez
Ġel Ã§
ĠÅŀ ang
Ġetm esinden
ĠgÃ¶ster isi
ĠÅŁark Ä±sÄ±nda
Ġtut umu
ĠkÃ¶y ler
ĠÃ§evr esine
Ġanlam Ä±nÄ±
ĠHer hangi
Ġkav im
ĠkuÅŁ u
Ġidar esine
ĠkeÅŁf edilen
Ġ188 5
ĠRad yosu
ĠdÃ¼zenlem eler
ĠSab ri
ĠbÃ¼yÃ¼m esi
Ġdosy alarÄ±
bab asÄ±
ĠkÄ±ÅŁkÄ±r t
n ini
o ca
Ġg eb
am asÄ±nÄ±
ĠM Ã¼lk
ey d
ĠyÄ±l larÄ±na
Ġr emik
ip zig
Ġoy lamasÄ±
Ġsistem lerde
Ġbas Ä±lmÄ±ÅŁtÄ±r
Ġoyn adÄ±klarÄ±
ĠEk rem
Ġart mÄ±ÅŁ
Ġgiy mektedir
ĠÄ°ÅŁ birliÄŁi
Ġkariyer indeki
Ġsakin leri
ĠÅŀer ef
" </
V al
d alÄ±k
Ġk lan
Ġg ole
Ġt eÃ§hiz
Ä±ÅŁ la
ĠE din
ĠyÄ±l larÄ±nÄ±
ĠF eth
ĠgeÃ§ mesini
id el
ĠdÃ¼zen ler
ĠdeÄŁiÅŁ ime
Ġtut maya
Ġmerkez ini
ĠdÃ¼ÅŁÃ¼n mektedir
ĠsayÄ± larÄ±n
Ġtab ii
Ġkuzey batÄ±sÄ±nda
ĠgÃ¼ven liÄŁini
ĠX X
Ġteknik ler
ĠTh is
ĠSen ar
Ġir tif
ĠRock y
Ġrestor an
ĠkÄ±zÄ±l Ã¶tesi
ĠtopluluÄŁ un
ĠHakk Ä±nda
ĠDarb esi
Ã¶ÄŁ Ã¼t
ĠrÃ¼ÅŁ vet
E y
f il
Ġv ic
ĠD eli
ĠO DTÃľ
ĠI an
ĠÅŀ ans
Ã¢ d
ĠiÅŁ Ã§ilerin
ĠU sta
ili a
Ġ18 40
Ġbin ada
ĠparÃ§ aya
ĠgeliÅŁ ir
Ġkol ordu
ĠsÄ±nÄ±r larÄ±nda
Ġses ler
Ġdeniz de
ĠÃ§iz gisi
ĠmÃ¼cadel esinde
ĠsaldÄ±rÄ± larÄ±na
Ġkent ine
Ġsahn esinde
ĠyÄ±k Ä±cÄ±
ĠÅŁehri dir
ĠihtiyaÃ§ larÄ±
194 4
ĠdÄ±ÅŁarÄ± da
imet re
Ġistis na
ĠKey k
ĠMarsh all
l ess
w ald
es is
ĠM ini
Ġz apt
laÅŁ a
ĠÅŀ anlÄ±
ĠyaÅŁ larda
Ġgetir mektedir
ilmiÅŁ lerdir
Ġbilg ilerini
Ġplan larÄ±nÄ±
Ġinan Ä±lmaz
Ġtoplum a
Ġsorun larÄ±n
ĠÃ§Ä±kÄ±ÅŁ lÄ±
196 1
193 9
Ġperson eli
ĠCih an
has sa
Ġklav y
ĠPic tures
Ġiv me
ĠBeyler beyi
ĠLomb ard
G eleneksel
j et
ĠM ali
ĠN iÄŁ
Ġalan larÄ±nÄ±
ĠAv rasya
ĠCh al
Ġtah rik
Ġkaynak larÄ±nÄ±
Ã© n
lo ud
ĠyÄ±ldÄ±z larÄ±
ĠaraÃ§ larÄ±n
ĠkÄ± demli
ĠhÃ¼cr elerinin
Ġkork usu
Ġsabit i
ĠyapÄ±l maya
way s
ĠTheod os
Ger Ã§ek
Ġvit am
ĠÄ±lÄ±m an
DÃ¼n yanÄ±n
ietz sche
ĠDort mund
d ine
Ġs kan
Ġi da
ĠB attle
Ġm eg
ĠE tr
os ent
ans ever
ĠV arlÄ±k
ĠgÃ¼Ã§ sÃ¼z
Ġkes iÅŁ
ĠÅŁehir lerinde
Ġkuzey den
Ġmik ros
ĠsuÃ§ lar
Ġedeb ilecek
Ġhav adan
ĠEf san
ĠuÃ§ak lar
ĠkullanÄ±l masÄ±nÄ±
Ġ188 9
ĠKÃ¼rt Ã§e
Ġgitar isti
ĠYÃ¼z baÅŁÄ±
Alman ca
Ã¶rf ez
ĠSem erk
ĠyÃ¼rÃ¼r lÃ¼k
ĠcÃ¼m le
gir t
Ġherk esi
O ff
R um
k oz
ar ek
iy o
ĠT il
aÃ§ Ä±k
ĠC ra
Ġkal masÄ±nÄ±
Ġkal madÄ±
ĠV iz
Ġ4 50
og an
Ġmet odu
Ġ8 4
ĠhazÄ±r lanmÄ±ÅŁtÄ±r
Ġgol cÃ¼
ĠdaÄŁ lar
sk Ã¼p
ĠÅŁirket ine
Ġyarat Ä±r
Ġgazet enin
Ġbildir ilmiÅŁtir
ĠdeÄŁerlendir ilir
ĠRes mÃ®
Ġkabil eleri
dek si
ÄŁin iz
J ames
g round
m uh
p et
ĠT est
ĠG ary
Ġad il
ĠsÄ±r asÄ±ndaki
Ġden gel
Ġtem alÄ±
ĠdÄ±ÅŁ a
ĠgÃ¶rÃ¼l meye
ĠsÄ±nÄ±r lar
Ġfinal den
Ġmak s
ĠyarÄ± ÅŁtÄ±
Ġmodel ini
Ġbulundu lar
ĠalanÄ± dÄ±r
ĠÅŁid deti
Ġanal itik
ĠGeor gi
Ġ186 8
ĠLu is
Ġmetr eye
Ã¼kr eÅŁ
is leri
ĠÅŁ aÅŁ
Ġkar go
ĠR id
ĠAv ar
ĠkiÅŁ iliÄŁi
Ġoyn adÄ±ktan
ĠalÄ±n abilir
ĠÅŁarkÄ± larÄ±nÄ±n
Ġ12 5
dik Ã§e
ĠtasarÄ±m cÄ±sÄ±
Ġkapat tÄ±
ĠAÄŁ aÃ§
ĠKÃ¼rt ler
ĠFinal de
Top lam
ĠMatt hew
Ġistis n
ĠLes nar
Ġkesint isiz
ĠdÃ¼r Ã¼st
ĠGlen n
n s
ik os
Ä±l c
Ġh ol
ĠT et
ma cht
leÅŁ miÅŁtir
atik an
ĠSt ra
Ġkontrol Ã¼ne
ĠÃ§ap Ä±
ĠSte in
Er meni
ĠEs ad
" >
M C
m s
at re
Ġyap masÄ±na
ĠO caÄŁÄ±
ĠR un
Ġan Ä±m
ac o
Ġbul up
ĠU st
re ak
Ã¼s Ã¼nden
ĠOr talama
ĠiÃ§er iyor
ĠoluÅŁtur arak
alan d
Ġmerkez de
Ġproj eler
ĠÃ¶rnek lem
Ġsefer ine
ĠparÃ§asÄ± ydÄ±
ĠKÄ±r Ä±k
ĠToplam da
ĠMas on
ĠBro ok
ĠMc G
Ġkabil esi
Ġhafif let
Ġkateg ori
Ġpozisyon u
ĠFinal i
Ġunsur lar
ĠyargÄ± Ã§
Ġpilot u
ĠÃĩev r
Ġformat Ä±nda
Dem ir
ĠUS B
ĠAust in
KÄ±s a
ĠKayser ispor
Ġfres k
m ese
Ñ Ī
Ġt et
ik asyon
em b
Ã¶r Ã¼n
ĠdoÄŁ ar
Ġuz laÅŁ
Ġgir mesiyle
Ġmil itan
Ġgelen ler
ĠCh er
Ġart maktadÄ±r
ĠÃ¼n if
ĠdeÄŁiÅŁtir ilmesi
ĠMuh afaz
ĠEl f
mem iÅŁti
ĠÃ§Ã¶z elt
Ġsavun mak
ĠsoÄŁ ur
Ġteknoloj ileri
Ġpot asyum
ĠSpor t
Ġincelen mesi
ĠbaÄŁlantÄ±lÄ± dÄ±r
ĠpeÅŁ ine
Ġizlen im
Ġiktis adi
Ġpik sel
Ġg luk
Ä±l sa
ĠD ans
ĠC lin
ac an
ĠI mp
ĠÃĩ an
ĠyÃ¼z me
Ġkazan maya
ĠaÄŁ zÄ±
ĠaÄŁ rÄ±sÄ±
ĠkÃ¶y Ã¼ne
ĠyaÅŁan dÄ±ÄŁÄ±
Ġversiyon unda
Ġmu ay
ĠKont luÄŁu
ĠFaz Ä±l
ĠHerakle ios
Avustral ya
g ate
r if
Ġb ot
ĠK now
Ġf iyatÄ±
ĠbaÅŁ kal
Ġn ik
ĠL il
Ġz an
ĠN ehr
Ġkon gre
ĠJ ava
Ġkat sayÄ±
he ad
Ġkab uÄŁu
Ġhay alet
Ġaz alan
Bu ffy
ĠKan alÄ±
Ġlist elerde
Ġgelir i
Ġsonuc unu
Ġimparator luÄŁu
Ġfutbolcu larÄ±
Ġortam larda
Ġoda ya
ĠkÄ±yÄ± larÄ±
ĠMill iye
Ġkum ar
Ġstat Ã¼sÃ¼ne
Ġsakat lÄ±ÄŁÄ±
Ġokun ur
Ãľlk e
at ive
ĠS Ã¼v
ab el
ĠH us
Ã¼k Ã¼m
ĠG N
Ġkal kÄ±n
Ġat a
ub er
Ġtem p
ĠKar ol
ĠAB C
Ġdestek lediÄŁi
ĠtanÄ±m landÄ±
ĠAt let
Ãĩ al
ĠÃ¶zellik lerin
Ġsak lan
Ġhep sinin
Ġgec eleri
Ġonay landÄ±
ID S
ĠmantÄ±k sal
ĠarayÃ¼z Ã¼
ĠÅŀey tan
ĠmonarÅŁ i
Ġtelaff uz
A ma
T rans
d own
n is
Ġs okt
on ey
Ġi ÅŁte
em y
ĠS ever
Ġay lak
ĠN em
ada y
Ġkon ulan
ĠgÃ¶ster ebilir
Ġoyun dan
Ġmerkez inden
ĠÄ°ngiliz lerin
lin es
ĠdaÄŁ Ä±lmÄ±ÅŁ
Ġokul larÄ±
Ġgez i
Ġrap oru
Ġorman larÄ±
ĠGÃ¼rcÃ¼ ce
ĠgÃ¶m Ã¼l
ĠdÃ¶k Ã¼m
ĠBa ÅŁta
ĠÃ¶v dÃ¼
Ġsonsuz a
ĠVil ayeti
eyt ing
Ġkurtul mak
ĠTib erius
etro it
ĠBoÅŁ nak
ĠH ud
ĠH afÄ±z
ilm i
lam alarÄ±n
ic on
Ġkal kÄ±nma
ĠyaÅŁ adÄ±ÄŁÄ±nÄ±
dÃ¼ ÅŁt
Ġedilm ez
Ġoyn arken
ĠoluÅŁtur maya
Ġkor t
Ġayr Ä±mÄ±
ĠÃ§Ä±kar arak
ĠbÄ±rak Ä±lmÄ±ÅŁtÄ±r
Ġasker in
Ġekonom isinin
Ġbah Ã§e
Ġyarat mÄ±ÅŁtÄ±r
Ġmotor lar
ĠEm my
ĠyerleÅŁtir ilen
Ġsim g
ĠkalÄ± t
Ä°s veÃ§
Ġaraz isi
ĠÅŁah si
ĠEt kin
ĠgÃ¶m Ã¼lÃ¼
Ġkoc asÄ±nÄ±n
ĠNas Ä±r
Ġredde den
Ġbed eli
ĠRand y
G A
G M
I X
d alÄ±
h ip
Ġbir liÄŁin
ĠB rand
Ġil de
ĠD ec
ĠiÃ§ lerine
ĠR ena
Ġ5 000
eg en
Ġiz lemek
ĠEn gin
Ġisim lerden
Ä±lm alÄ±dÄ±r
Ġkaybet tiler
ĠamaÃ§ larÄ±
Ġsahn elen
Ġaday lÄ±ÄŁÄ±
Ġsim Ã¼lasyon
Ġbomb asÄ±
Son raki
ĠMc Mahon
Ġsenary osu
ĠÃ§if te
ĠUnivers al
ĠVenez uela
T rab
in ki
ir daÄŁ
at on
ĠA braham
Ġh ek
Ġm Ã¼tte
ĠS ina
ĠiÃ§ ten
Ġver ilecek
Ġkap aÄŁÄ±
ĠoluÅŁtur acak
Ġhav anÄ±n
Ġw as
Ġderec eye
ĠkatÄ±lÄ±m cÄ±larÄ±n
ĠkiÅŁiler den
ĠMet ro
Ġir tib
Ġmel ek
ĠAbd ul
ĠOper asyonu
Ġiskel et
) <
J ack
u ler
y iz
ay abilir
ĠS ut
ĠE van
Ã¼l asyonu
Ġz ayi
end s
Ġhareket lerini
ĠbÄ±rak Ä±lan
ĠHal iÃ§
ĠsuÃ§ ladÄ±
ĠyÃ¶ntem iyle
ĠyapÄ±m cÄ±larÄ±
ĠtartÄ±ÅŁ maya
Ġseviy eye
ĠSa it
ĠyaptÄ±r dÄ±ÄŁÄ±
Ġekran a
ĠVol kan
ĠNaz iler
ĠÃ¶rneÄŁi dir
ĠPerforman sÄ±
ĠCham ber
D il
g us
k ir
de st
st ron
Ġr Ã¼ya
tÄ± p
Ã¼y orum
Ġkal b
Ġkal dÄ±klarÄ±
Ġat Ä±lmÄ±ÅŁ
Ġas Ä±r
ĠÃ¼r etici
Ġail elerin
Ġun d
Ġgem iye
Ġsosyal izm
Ġst ok
ĠSar Ä±k
ĠyapÄ±lÄ±r ken
ĠNik iforos
Ġban liyÃ¶
ĠnÃ¶tr ino
laÅŁtÄ±k larÄ±
Kut sal
D R
r arÄ±
an ia
ĠT ren
Ġpar anÄ±n
ĠgÃ¶ster mesi
ĠÃ§ek me
ĠSt u
Ġhayat i
ĠFer rari
Ġoynan Ä±r
Ġilgilen meye
ĠMez ar
ĠniÅŁ anlÄ±
ĠtÃ¼ket imi
Ġfazl asÄ±yla
Ġihtimal le
L ig
ĠA ÄŁÄ±
Ġson lu
ĠE le
ĠL uk
iyet leri
amp ire
ĠSavaÅŁ Ä±nda
ĠparÃ§ ayÄ±
ĠkadÄ±n la
ĠSel ahaddin
ikÃ¢ h
Ġmat emat
Ġkelim enin
Ġmas um
ĠbaÅŁarÄ±sÄ±z lÄ±kla
Ġproblem ler
ĠÅŀir van
Ã¤ n
ĠDir en
ĠÄ°dar i
ĠkÃ¶t Ã¼lÃ¼k
Ġbestel ediÄŁi
ĠtÃ¼ret ilmiÅŁtir
d ullah
e x
m Ã¼z
Ġs taj
ak o
Ġg Ã¼mrÃ¼k
Ġver gisi
ĠgÃ¶ster ildiÄŁi
Ġuyg ar
ĠtÃ¼r evi
Ġ9 8
ĠdeÄŁer ine
ĠkÃ¶y dÃ¼r
ĠHer mann
ĠMan hattan
Ġmim arÄ±
ĠKad ir
ĠkÃ¼r e
ĠÃ§oÄŁ ul
Ġbitk isel
ĠDal las
Ġdergi de
ĠKop enhag
Ġtrib Ã¼n
Ġtasavv uf
F in
Ġ \
Ġd Ã¼ÅŁt
ĠA ki
ĠM B
ĠL ozan
eb ilme
mÄ±ÅŁ lardÄ±
Ġedilm elidir
ina j
Ġsar ayÄ±
lek s
Ġtest leri
sch ild
Ġmahkem eye
ĠgÃ¶v d
otek n
N a
Y Ã¶n
j enin
Ì ģ
er aj
ok ost
ĠP is
ĠP etr
ĠgÃ¶r erek
ĠbÃ¼yÃ¼k lÃ¼ÄŁÃ¼nde
leÅŁ meye
Ġkav uÅŁtur
ĠhikÃ¢y eler
Ġilgilen di
Ġdenklem leri
mar ck
Ġmuhareb ede
ĠyarÄ±ÅŁma cÄ±
Kurt lar
b ourne
Ġi ÅŁten
at is
Ġp ut
ok si
ĠN av
Ġbelir sizlik
Ġbin alarÄ±n
Ġgem ilerinin
Ġinan Ä±lan
Ġiler ler
ĠÃ¼niversit eye
ĠsÃ¼reÃ§ leri
Ġtav uk
Ġparti den
Ġvak um
Ġdepr esyon
ĠFar uk
ĠkÃ¶ylÃ¼ ler
Ġyetenek lerini
ĠsÄ±z dÄ±r
ĠÅŁub esi
ĠBaraj Ä±
KÄ± brÄ±s
H Ã¼s
n ov
n ett
r or
Ä± va
Ġy iy
ab anÄ±
ĠR ok
eb ildiÄŁi
Ġin dÃ¼k
Ġon line
malar la
Ġkap layan
leÅŁtir ilmesi
Ġfinal in
Ġbelirt ileri
ddi e
Ġman if
Ġsar aya
Ġhaber leri
ĠDoÄŁ um
Ġkomp lik
ĠMer c
ĠFal con
ĠdÃ¶ng Ã¼sÃ¼
Ġmemlek et
Ġhorm on
Ġded ektif
ikola ta
R ock
c ock
em esine
Ġp al
ĠC lass
Ġad anmÄ±ÅŁ
ĠkarÅŁ Ä±mÄ±za
ĠÃĩ iz
ĠdÃ¼ÅŁ kÃ¼n
Ġfilm indeki
ĠÃ¼lk elerinden
ĠgeÃ§ir dikten
ĠMar ino
ĠsaldÄ±r an
Ġmik roskop
Ġinan Ä±r
Ġenerj iye
ĠyÄ±k Ä±lmÄ±ÅŁ
Ġhes abÄ±
ĠAlbÃ¼m den
cÄ±lÄ± ÄŁÄ±n
ĠÃ¼lkeler deki
ĠkazÄ± larda
ĠKullan Ä±cÄ±
ĠFik ret
v esi
Ġs ef
ĠÃ§ aÄŁÄ±
Ġr eyting
Ġist eÄŁini
ĠâĢ Ŀ
Ġsu lar
ĠgeÃ§ir me
ĠBey rut
ĠÃ§evr ilmiÅŁ
Ġkayb Ä±na
Ġtes cil
ĠGal erisi
ĠuÄŁr adÄ±ÄŁÄ±
okr ates
Ġsahn esi
Ġmiktar Ä±nÄ±
Ġturnuv ayÄ±
ĠFat ma
ĠbaÅŁardÄ± lar
Ġserv isi
ĠLev ent
ĠkararlaÅŁtÄ±r Ä±ldÄ±
ĠÃ¶ncÃ¼lÃ¼ ÄŁÃ¼nde
ĠÃ§Ã¶ p
viv or
E N
R C
T om
Ġb ale
Ġd or
ru c
ĠI C
ede yse
Ġev lenme
Ġhar p
Ġfilm den
ĠÃ¶ldÃ¼r en
ĠkÄ±r Ä±lma
Ġhav ayolu
ĠMÄ±sÄ±r lÄ±
196 2
ĠbÃ¶lÃ¼n dÃ¼
ĠGre at
Ġtemiz lik
Ġpiyan ist
ĠdÃ¼k kan
ĠBill y
Ġmesl ektaÅŁ
Ġcad de
Ġfant astik
C ap
K en
Ġbir liÄŁine
ĠK han
Ġkal esine
ĠgÃ¼Ã§ lerine
Ġ8 6
ĠHal en
Ġhalk Ä±nÄ±
ĠkaÃ§ arak
ĠboÅŁ luÄŁu
ĠeleÅŁtir meni
Al l
Ġsefer ber
lacak tÄ±r
Ġdiy abet
ehr macht
Ġ188 7
Ġkaf es
Ġatom ik
Ġmel ez
Ġfiz iÄŁi
ĠuÄŁrat tÄ±
Ġriba unt
ĠAbdÃ¼lham it
lÃ¼t on
Ġsens Ã¶r
ĠÃĩukur ova
b kz
o it
y ah
Ġb ayan
Ġn Ã¼s
ĠF ame
Ġkar ayol
ĠÃ§Ä±k Ä±nca
Ã¢ let
ĠseÃ§ ilerek
ĠgÃ¶rev lileri
ĠEr ivan
Ġtut arak
Ġfa iz
Ġhedef e
ĠMas ter
Ġaran j
B or
D IS
es a
Ġh aÅŁ
ĠS aw
ĠM ot
Ġvar lÄ±ÄŁÄ±nÄ±n
ĠparÃ§ alarÄ±nÄ±n
Ġdil ine
Ãĩ ek
lendi ÄŁini
dÃ¼k lerini
Ġtoplan tÄ±sÄ±
Ġboyut ta
ĠHam id
Ġbahs etti
Ġnok tal
ĠSen atosu
ĠGÃ¶r Ã¼ÅŁ
abil iyor
ĠFI BA
Ġ186 3
Ġbasketbol cu
Am erican
Ġstandar d
Sur iye
ĠPont us
S por
ar lÄ±
ÄŁ iz
Ġd ansÄ±
ĠS ayÄ±
Ġar en
ĠR ost
eb a
ri o
Ġser in
ĠÃ¶ÄŁr enince
Ġkor unan
Ġkontrol Ã¼nde
ĠarkadaÅŁ Ä±nÄ±n
ĠbÃ¼y Ã¼cÃ¼
ĠsÃ¶ylem eye
Ġaraz ileri
Gen eral
ĠSÃ¶z leÅŁmesi
ĠLab oratuvarÄ±
ĠÅŁaÅŁÄ±r tÄ±cÄ±
Ġfe odal
ĠsÃ¼rÃ¼l mektedir
Ġsalg Ä±nÄ±
Ġkonsantr asyon
ĠAkk oyunlu
Ġakr aba
D C
D al
p ed
Ä ĥ
ak tik
el ispor
at s
ĠÃ§ ip
ah ir
ĠH off
Ġed itÃ¶rÃ¼
ĠJ ud
ĠÅŀ air
Ġat Ä±lÄ±r
Ġak Ä±
Ġedilm esinden
ĠsÃ¶z Ã¼nÃ¼
Ġer er
ĠÃ¼y elerini
ĠPar Ã§
ĠTop kapÄ±
Ġbey ler
Ġedil diler
ĠilÃ§ esidir
ĠKap Ä±
ĠkullanÄ±cÄ± lara
195 9
ĠFo ot
ĠÃĸÄŁr enci
ĠbaÅŁvur du
Amer ikalÄ±
ĠUr fa
Ġaj anÄ±
ĠHey eti
ĠApol lon
ĠmÃ¼lte ci
ĠB Ã¼kreÅŁ
it el
ĠF ur
Ã¢ z
Ġgir erler
sp arta
ĠseÃ§im e
ĠhikÃ¢y eleri
Ġdes en
Ġkapasit esine
San at
ĠAtlan ta
Ġlez yon
ĠÄ°ttifak Ä±
ĠÃ¼Ã§Ã¼nc Ã¼sÃ¼
h in
Ġh ib
ĠS ac
Ġp Ã¼r
ĠP ra
Ġyap Ä±yÄ±
ĠL Ã¼t
ĠAn im
Ġam f
Ġsezon larÄ±nda
Ġedilm edi
ĠalbÃ¼m lerini
Ġduy g
Ġsebep lerden
ĠtanÄ±n maktadÄ±r
ars lan
ĠHam as
ĠMo on
Ġyurt taÅŁ
ĠkullandÄ± lar
ĠSezon u
Ð½ Ð°
Ñģ ÑĤ
ĠÅŀark Ä±sÄ±
ĠSÄ± cak
Ġotor ite
c le
Ġs ize
Ġg ib
ĠB our
ĠC le
Ġkar Ä±sÄ±nÄ±n
Ġan lÄ±k
Ġolan a
ĠÅŀ ub
ĠdiÄŁer lerinin
Ġkurul masÄ±yla
ĠKar aÃ§
ĠCh a
Ġer gen
ĠkÄ±z Ä±nÄ±n
Ã§Ä± van
tay ken
Ġav lu
Ġenerj iyi
Ġedilir ler
Ġziy areti
ĠgeÃ§miÅŁ e
ĠhÃ¼kÃ¼mdar lÄ±ÄŁÄ±
ĠSab ah
ĠKn ight
Jap on
MÃ¼z ik
D oktor
M u
S i
c Ä±sÄ±nÄ±n
w en
im b
ĠK uman
ĠD Ã¼r
ĠD anny
iz z
Ġr ezon
Ġas al
ĠarasÄ±nda ydÄ±
he imer
ag ner
Ġgetir meye
ĠdÃ¼zen lemek
Ġif las
Ġtemel lerini
Ġifade sini
Ġkanal larÄ±
Ġindir ildi
Ġrast lanan
ĠGir ls
ĠPers ler
Ġversiyon larÄ±
ĠaÃ§Ä±klam alar
Ch arl
ĠHaned an
Ġyolc uluÄŁu
ĠDig ital
Dav id
B B
i que
Î ·
aÅŁ vili
ĠÃ¶ dÃ¼le
man lÄ±k
Ġgel meden
Ġin hib
oy an
ĠÅŀ iÅŁli
Ġyol ladÄ±
Ġdin lenme
Ġbirbir leri
ĠÅŁirket lerin
ĠsuÃ§ undan
Ġsoy adÄ±nÄ±
ĠdeÄŁiÅŁiklik lere
ĠyayÄ±nlandÄ± ÄŁÄ±
Ġdonan masÄ±nÄ±n
Ġkesim lerinde
mar aÅŁ
ĠSy m
ĠmÃ¼t ev
ĠAnt arktika
ĠLiz bon
G i
S af
n as
w o
at it
ĠS v
ĠK elt
Ġay Ä±ndan
Ġon ayÄ±
Ġetm esinin
est on
Ġkurul ur
ĠÄ°l yas
ĠhikÃ¢y enin
Ġtas lak
Ġkategor ide
ĠfarklÄ±lÄ±k larÄ±
Ã¢s Ã®
Ġegz ersiz
bugÃ¼n kÃ¼
P al
S eÃ§
k Ã¼Ã§Ã¼k
Ġb iber
ÄŁ dÄ±r
Ġs op
lar d
li x
ĠH ob
ĠG Ã¼cÃ¼
eb iliyor
Ġkon ul
ing o
Ġek ler
ĠgÃ¶rev lerde
Ġder n
Ġser iyi
Ġinsan lardan
Ġkuzey deki
Ġerk eÄŁin
Ġyazar lÄ±ÄŁÄ±
ĠAnd rÃ©
ĠOn larÄ±n
dem y
ĠÅŁah s
Ġgalibiyet le
Ġasist anÄ±
ĠgÃ¶revlendir ilen
ĠArist o
Ä°lÃ§ enin
F inal
Ã§ in
lar sa
Ġt ev
Ġol saydÄ±
ĠS ih
ĠO ld
ekt ik
19 22
Ġhar man
Ġtut tur
Ġmerkez lerinden
Ġduy u
Ġkitap larÄ±nda
Ġdiren ci
195 7
Ġdar al
Ġhatt Ä±nda
ĠMekt up
zaman lÄ±
ĠKÄ±zÄ±lder ili
otos iklet
H a
z ar
Ġd ub
Ġbir liÄŁinin
ĠB orn
ĠT art
ĠH Ã¼m
ĠgÃ¶r Ã¼p
ac aÄŁÄ±ndan
ec tor
Ġkat manÄ±
Ġsistem lerini
ĠtaÅŁ Ä±yordu
ĠgeliÅŁtir en
ĠÅŀampiyon asÄ±nda
ĠKat ar
Ġortak laÅŁa
Ġbat Ä±sÄ±ndaki
ĠBil ge
ĠBol iv
193 8
Ġaj ans
Ġfel Ã§
Ġyenilik Ã§i
ĠhÄ±r sÄ±z
ĠbirÃ§ oÄŁ
ĠniÅŁan cÄ±
ĠInstit ute
f ried
m ingham
n m
Ø ª
Ġt hat
ed ilmiÅŁ
ĠS ib
ĠK ilikya
lan Ä±yordu
ĠD umb
ĠH ome
Ġtar ama
ĠR eÅŁit
lam ayan
lam alara
Ġel iyle
Ġyar al
Ġdev ret
Ġisim le
ĠyapÄ± dÄ±r
Ġiddi asÄ±
ĠArap larÄ±n
195 4
195 8
ĠparÃ§acÄ±k larÄ±
ĠbaÅŁla dÄ±ktan
Ġkonus unu
ĠKarab Ã¼k
ĠbÃ¼yÃ¼klÃ¼k te
ĠGaziantep spor
ĠYalnÄ±z ca
ĠGalile o
ĠmÄ±z rak
h of
di oksit
ĠT it
Ġar m
Ġar ter
ĠC op
ĠR ac
ĠN u
ĠN ep
Ġuz antÄ±sÄ±
Ġist iyor
ĠZ ap
Ġkayn aÄŁÄ±nÄ±
ilece ÄŁinden
adel e
Ġyat Ä±lÄ±
Al lah
Ġpolitik asÄ±nÄ±
Ġdolay larÄ±nda
ĠhÃ¼cr enin
ĠcanlandÄ±r an
mon i
Ġprens ibi
ĠBoy s
ĠPhilip pe
Ä°span ya
l oyd
s Ä±ndaki
il dikleri
Ġk ef
ĠB Ã¶
ĠB ac
em ann
ĠP re
Ã¼l tÃ¼
ilm edi
ce ÄŁine
ĠY uri
ĠsÃ¼r at
ĠiÅŁ lenmiÅŁ
ĠAr i
ĠhÄ±z Ä±na
Ġbelirt tiÄŁi
Ġail eleri
Ġav eraj
Ġbah arat
Ġsefer ler
ĠMus eum
Ġeylem ler
ĠÃ§Ã¶k el
Ġsaray Ä±nda
ÑĢ Ð°
Ġins Ã¼lin
Yunan istan
Ġtac iz
ĠYÃ¶r Ã¼k
ĠStep han
Ġtranskrip siyon
C or
k ah
n berg
an et
Ġy abani
la p
Ġm Ã¼b
ad Ä±m
ĠR Ã¼z
tad aki
uÅŁt uk
ĠJ edi
Ã¢ li
Ġ18 50
ĠgerÃ§ek leÅŁt
Ġzor landÄ±
ĠsonuÃ§ lanÄ±r
ĠMan uel
ga in
ĠsÃ¼rdÃ¼r dÃ¼ÄŁÃ¼
Ġseviy eleri
opol d
Ġelektron lar
ĠcanlÄ± larÄ±n
Ġanal og
ĠdÃ¶nÃ¼ÅŁtÃ¼r Ã¼ldÃ¼
Ġstandar dÄ±
M ax
R oman
T ay
Ï ī
ak u
ul es
ĠÃ§ Ä±r
ĠS Ã¶y
Ġtar ayÄ±cÄ±
eri de
ci p
Ġel i
Ġilk Ã¶ÄŁretim
Ġkal Ä±rlar
Ġvar lÄ±klÄ±
Ġev lerinde
Ġoyun unu
Ġ8 9
Ġbit er
ĠMar vel
Ġtur ne
ĠkonuÅŁ ur
Ġmat ba
ĠgÃ¶zlem len
Ġedebiyat Ä±nda
195 3
ĠÃ¶ÄŁretmen liÄŁi
ĠÅŀehir de
Ġrakip leri
Ġuzan maktadÄ±r
uran yum
ĠQue en
taraf Ä±ndan
ĠSava ÅŁtan
H en
S ay
T al
g Ã¼Ã§
x y
Ġt Ã¼z
la us
av an
ĠF amily
Ġyan daÅŁ
Ġev liliÄŁini
ĠtaÅŁ lar
Ġgetir ilerek
ĠeÄŁitim li
ĠkonuÅŁ landÄ±r
Ġpat ates
Ġsol ist
ĠPr ince
ĠayÄ±r dÄ±
ĠtÃ¼k etici
Ġsunu c
Ġmevsim inde
Ġzek a
KÃ¶y Ã¼n
Ġzul Ã¼m
ĠAyas ofya
Grub un
B O
E K
c ess
g azi
Ġd ivan
ĠÅŁ effaf
Ġkullan mÄ±ÅŁ
ĠV atikan
ĠiÅŁ sizlik
Ġok uduÄŁu
ĠkÃ¶ peÄŁi
ĠbÃ¶lÃ¼m Ã¼dÃ¼r
ĠsayÄ± labilecek
ĠÅŁarkÄ± cÄ±nÄ±n
ĠÃ¶lÃ§ Ã¼mÃ¼
ĠMuh tar
Ġteor isine
Ġistem esi
ĠFil osu
ĠdavranÄ±ÅŁ lar
Ġfonksiyon larÄ±
Ġces et
ĠfaktÃ¶r Ã¼
Ġmakal esinde
ĠoluÅŁum unu
ĠNih ayet
ĠElekt ronik
Ġmenaj er
Ã¼lis lam
P art
T or
Y azar
g ler
Ä± lacaÄŁÄ±
in asyon
ik Ã¼l
ĠA di
ĠB all
ĠS V
Ä° P
ĠiÃ§in dir
Ġort aÃ§aÄŁ
Ġmerkez indeki
Ġdil lerinin
Ġkav uÅŁtu
ĠseÃ§im inde
ĠsÄ±nÄ±f a
ĠyaÅŁÄ±nda ydÄ±
Ġsorun lara
ĠdoÄŁu dan
ĠtanÄ±t Ä±mÄ±
ĠVen Ã¼s
Ġkons eri
ĠkurmuÅŁ lardÄ±r
wart s
Ġkapital ist
ĠKatli amÄ±
ĠgÃ¶rkem li
O lay
k ot
ir t
ak ere
ĠS ug
ĠP Ä±nar
Ġkat aliz
ri ce
ĠyÃ¼z e
Ġbelir ledi
Ġtamam lamÄ±ÅŁ
ĠAk saray
Ġkarar sÄ±z
ĠPr inc
ĠayÄ±r Ä±r
Ġta ÅŁtan
ĠhastalÄ±k larÄ±n
Ä±mÄ±z Ä±n
ĠMev lev
A da
Y eÅŁil
r ell
iy ar
ĠT AR
ĠP ara
oz u
Ġyol suzluk
ĠÅŁark Ä±sÄ±na
Ġkes it
ĠdaÄŁ larÄ±
ĠbÃ¼tÃ¼n Ã¼yle
meler inde
ĠAd vent
ĠnÃ¼fus lu
ĠÃ¼rÃ¼n lerini
Ġbat Ä±lÄ±
ĠBe a
ĠkÄ±sÄ±m larÄ±nda
ĠdÃ¼ ello
Ġmin ar
Ġmin yatÃ¼r
ĠGÃ¶r Ã¼n
Ġunvan Ä±na
Ġprote inler
Ġaktiv ist
ĠAir lines
ĠRod rig
ĠHelen istik
Î¿ ÏĤ
eyz aj
ĠuÄŁra ÅŁtÄ±
1 20
K el
R ed
c anÄ±n
z burg
st atik
ĠR an
ĠgÃ¶r mesi
Ġan dÄ±r
ci vert
lem ede
ĠdoÄŁ ada
ĠbÃ¶lg elerden
atÄ± p
ĠâĢ ĭ
Ġsistem iyle
Ä±lm adÄ±
ind ek
Ġuygulan mÄ±ÅŁtÄ±r
ĠgÃ¶zlem ler
ĠGalat a
ĠYarÄ±ÅŁ ma
ĠkullanÄ±ldÄ± ÄŁÄ±nda
ĠbarÄ±ÅŁ Ã§Ä±l
195 6
ĠetkileÅŁ ime
Ġces edi
ĠÃ¼s lup
Ġsalon unda
ĠoluÅŁtu ÄŁunu
FransÄ±z ca
cast le
eto oth
ĠYeh uda
utt gart
ĠakÅŁ amÄ±
T ime
Y o
Ù Ĥ
Ġd ist
ĠT ark
ĠD octor
ĠP enn
ĠP itt
Ġin en
Ġkor e
Ġbilin iyor
Ġayr Ä±k
ĠOsmanlÄ± lara
ĠsÄ±nÄ±r sÄ±z
Ġhav alimanÄ±
ĠDav ud
ĠÄ°sveÃ§ li
ĠFat Ä±m
cÄ±lÄ± ÄŁÄ±na
ĠnÃ¶ ro
ĠBarb ara
ĠkeÅŁfed ilmiÅŁtir
F ir
L ond
ĠP lak
ĠC ass
ĠI m
od on
ĠâĢ ¢
ĠÃ§ek miÅŁ
Ġoyun larÄ±nda
Ġgerek Ã§e
ĠÃ¼ret meye
Ġik iÅŁer
ĠSon gs
Ġkarar gÃ¢h
Ãĩ aÄŁ
ĠAf ro
ĠKuzey batÄ±
Ġuygulam alarÄ±n
maz lÄ±k
ĠDer viÅŁ
Ġgal aksi
Ġuygulan maktadÄ±r
Ġders i
ĠhÄ±zlÄ± ca
aka o
Ġettik lerini
Os man
ĠOf isi
ĠyaratÄ± cÄ±sÄ±
Ġmesl eki
D a
M ut
f ur
m adaki
im inin
ĠD urum
ĠH is
ĠH Ã¶y
oÄŁ lan
gi de
Ġyan ma
Ġayr Ä±ldÄ±ÄŁÄ±
Ġhaf tanÄ±n
Ġmak ro
ĠbaÄŁÄ±msÄ±z lÄ±ÄŁÄ±
Ġtav an
atÃ¼r n
ĠPlan ck
Ġrit Ã¼el
ĠÄ°stik lal
Ġseg ment
r aÄŁÄ±
Ġ Ä±z
Ġt iyatros
ey ni
ĠT osh
ĠD P
ĠH els
ĠE is
ĠN akam
ĠaÃ§ ma
Ġinsan larda
Ġ7 50
ĠgeÃ§ir ilmesi
ĠdÃ¼ÅŁÃ¼n Ã¼yor
Ġ12 8
ĠbÄ±rak Ä±lmasÄ±
ĠulaÅŁ masÄ±
ĠgÃ¶rÃ¼ÅŁ meleri
ĠÃ¶rnek lerinden
ĠyÃ¶r e
ĠBeÅŁ inci
ĠYÄ±l lar
uluÄŁ una
ĠStal ingrad
ĠgeliÅŁim ine
Ġtalim at
Ġkamuoy una
Ġadr esi
Ġb ilmektedir
ÄŁ ince
Ġg iÅŁe
ĠG ond
ĠG Ã¼ler
ce des
ĠR S
Ġc Ã¼c
ildi ÅŁi
Ġkat al
Ġek str
ĠyÃ¶net mek
ĠAk hisar
Ġark adan
Ġbab asÄ±ndan
Ġtoprak lara
ĠbiÃ§im ini
ĠiÅŁgal inden
ĠMus sol
led ore
Ġsim etr
ĠSte wart
ĠYarÄ±ÅŁ manÄ±n
ĠJon athan
ĠgÃ¶v des
imet rik
ĠDeÄŁ iÅŁik
ĠGol den
ĠÅŁartÄ± yla
Ġsound track
Ġotoy ol
t Ã¼m
v it
ĠB eg
ac aÄŁÄ±m
Ġpar aÅŁ
og ue
Ġinsan larla
Ġinsan lÄ±ÄŁÄ±n
ĠgeÃ§ir ilmiÅŁ
gÃ¼n ey
las a
ĠanlaÅŁ Ä±lmasÄ±
ĠÃĸz demir
Ġmak yaj
Ġtasar ladÄ±
ĠTr av
Ġiler ledikÃ§e
Ġiht il
ĠkarÅŁÄ±laÅŁ ma
Ġuyar lanmÄ±ÅŁtÄ±r
Ġrast lanmaktadÄ±r
ĠHat tÄ±
Ġifad elerini
Ġgr av
ĠMit ch
Jap onya
Ġprom osyon
g h
Ã Ĺ
ek onomik
iy um
Ã¼r nberg
ĠK lip
ĠL ot
Ġkur up
ĠdoÄŁ usundaki
19 24
Ġkazan Ä±rken
ĠKur an
ĠKom ite
ĠgenÃ§ lerin
ĠÅŁirket ini
Ġpat lamasÄ±
Ġkonum landÄ±r
ĠcanlandÄ±r Ä±lmÄ±ÅŁ
Ġsinyal i
ĠkalÄ±ntÄ± lar
dev let
Ġsanay ileÅŁ
ĠEmin em
Ġuygula mak
Ġsik k
ilet ken
Ãľl kenin
ĠMussol ini
S m
d ler
ĠB Ã¢tÄ±n
Ġr azÄ±
Ġbil di
Åŀ ark
ĠiÅŁ lediÄŁi
Ġyak alar
ĠÃľ skÃ¼p
Ġkom ite
ĠÃ¼ret ken
Ġbin yÄ±l
ĠhÄ±z da
ĠdeÄŁil se
Ġtes ir
ĠkÃ¼ltÃ¼r Ã¼n
Ġkomut anlarÄ±
Ġbulunur ken
lanÄ±r lar
malarÄ± yla
Ġkurdu klarÄ±
yn th
ĠKarak ter
Ø§Ù Ĩ
ĠterÃ¶r ist
A Ã§Ä±k
Ġ eh
Ä±n caya
al izm
ĠS ara
ĠH anÄ±
ĠG ray
ĠAn to
ĠV es
ĠDev ri
ĠgÃ¶z ler
ĠgeÃ§ir gen
ĠdoÄŁru ya
Ġ9 2
Ġkarar gah
ĠKral iÃ§esi
ĠÃ¶lÃ§ mek
Ġkoy arak
ĠgeÃ§ti ÄŁini
Ġlig deki
Ġlider liÄŁi
ĠEf end
Ġkorun muÅŁ
Ġkamu oyu
194 3
ĠÃ¶rt Ã¼ÅŁ
ĠBin baÅŁÄ±
ĠeÅŁy alarÄ±
ĠCat herine
ĠServ isi
ĠUygu lama
Peter burg
S tr
c alarÄ±
al o
ĠA le
ĠB eth
Ġm ih
ad ok
ul f
ĠS ag
ĠG Ä±da
ĠP epsi
Ġev lenen
Ġfilm dir
tar ih
Ġbelirt ildiÄŁi
ĠMan uil
ĠÃ§aÄŁ da
ĠeleÅŁtir ildi
Ġteor iler
ĠgerÃ§ekleÅŁ mesi
ĠÃ§ap Ä±ndaki
ĠBen im
Ġkurt arÄ±
Ġseslendir ilen
bur nu
rip t
Ġtuz ak
Ġdeng esiz
ĠMev cut
Ġdonat Ä±lmÄ±ÅŁ
ĠÅ ł
t ma
Ġk Ä±lan
ak k
ul d
ĠP ink
ac Ä±lÄ±
Ġetm ekten
ade s
ĠtakÄ±m larÄ±nÄ±n
Ġalt Ä±nÄ±
Ġedilm esinin
Ġtut maktadÄ±r
Ġbilg in
ĠÃ§ocuk larÄ±nÄ±
Ġgiy dir
Ġkalan lar
Ġengel li
Ġyorum ladÄ±
bo urg
Ay dÄ±n
ĠÃ§ab asÄ±
ĠdÃ¼ÅŁman larÄ±
ĠÄ±ÅŁÄ±n larÄ±
Ġtehdi di
Ġarist okrat
ĠkomÅŁ usu
ĠâĢĭ âĢĭ
ĠiÃ§ sel
ĠH ilmi
ĠG av
ĠP oz
Ġyap Ä±lÄ±
Ġyap acaÄŁÄ±nÄ±
alÄ± ÄŁa
ĠV okal
ĠdÃ¼ÅŁ mektedir
ĠbÃ¶lg elerinin
ĠseÃ§ ilim
ĠkiÅŁ iyle
Ġres m
Ġdol andÄ±r
Ġdil lerde
Ġdiz iye
Ġuzun luÄŁundaki
ĠyaÄŁ ma
ĠTan zimat
amaz lar
Ġbenim sem
194 6
ĠPark er
ĠeÄŁlen celi
ĠBilg iler
ĠSpe ars
memek le
ĠmÃ¼c evher
ĠBuh ara
H O
Ñ Ĩ
Ġ uranyum
am on
ĠC ir
Ġin anÄ±yordu
Ġkap say
Ġtamam Ä±nÄ±n
Ġdil lerini
ĠÃ¶ner isi
Ġkop yal
Ġhakim dir
Ġetraf Ä±
Ġoda da
ĠAvustral yalÄ±
Ġham mad
194 8
ĠÃ§aÄŁr Ä±sÄ±nda
ĠCom ics
Ġrisk ini
ĠsÃ¼l f
Pol onya
Ġdevral dÄ±
ĠMagaz ine
p ansiyon
r adan
v il
Ï ħ
Ð ¶
Ä±n av
ir mi
Ġh ang
Ġar pa
ĠG in
ĠbaÅŁ bakanlÄ±k
dÄ±r Ä±
man uel
Ġad alarÄ±
Ġkur may
Ġtop lanmÄ±ÅŁ
Ġyaz Ä±ÅŁ
Ġkaz asÄ±nda
Ġbelir lemiÅŁtir
mi ÅŁte
Ġeden ler
Ġasker lerini
Ġbak ar
Ġdin len
ĠilÃ§ eye
Ġyarat Ä±lan
Ġproj esinin
ĠMa arif
Ġtoplan masÄ±
ĠyÃ¼rÃ¼t mektedir
Ġmem el
Ġaraz ide
ĠJos h
Ġzir ve
Ġenf ekte
Ġastr onomik
Ġbakter iler
ĠLak ers
ĠAP I
Ġtram vay
Ġvic dan
K Ã¼rt
M ik
S Ä±
Ä±l dÄ±r
Ġm az
ĠP le
Ġr itim
Ġgel mez
Ġyer inin
Ġbulun masÄ±na
ĠJ oy
ĠW alt
Ġkat alog
19 21
id al
Ġkazan anÄ±
Ġsan tr
ĠÃ¼st esinden
Ġem ret
ĠSan caÄŁÄ±
Ġseb z
ĠÃ¶lÃ§ ekte
Ġyat kÄ±n
ĠÃ§alÄ±ÅŁan larÄ±
ĠbakÄ±m a
ĠKor int
Ġcev abÄ±
Ġbitk ileri
Ġifad eleri
Ġhakimiyet ini
Ġmutf aÄŁÄ±
ĠTug ayÄ±
ĠHiÃ§ bir
ĠPok Ã©mon
C W
F T
Ġd uman
ĠA zer
ĠK Ä±yÄ±
ĠM ada
lan Ä±yor
ĠG om
ĠL ast
Ġay Ä±n
ki en
Ã¢ zÄ±m
Ġyay Ä±lÄ±m
Ġkazan mÄ±ÅŁtÄ±
ĠoluÅŁ abilir
bol d
ĠulaÅŁ arak
Ġelekt rol
Ġbildir i
ĠkuÅŁat maya
ĠgeniÅŁlet ilmiÅŁ
Ġseri de
Ġfinans man
Oy unun
ĠNat han
AlbÃ¼m Ã¼n
Sam sun
ĠprÃ¶m iyeri
Ġenstit Ã¼
Ġnehr inin
Åŀir ket
ĠÅŀanlÄ± ur
D I
S em
c im
ĠA man
ĠM ore
Ġal acaÄŁÄ±nÄ±
lan e
ĠÅŁ of
ĠC ris
Ġgel eceÄŁini
ĠN Ã¼kleer
ĠdÃ¶n erken
19 23
Ġuy k
ĠÄ°s f
ĠparÃ§ asÄ±nÄ±n
Ġenerj isini
Ġsar Ä±m
Ġpart iye
burg h
ĠKap lan
ĠaÅŁam alÄ±
ĠiÅŁlev leri
ĠyapÄ±l mÄ±ÅŁtÄ±
ĠCen az
193 3
ĠPlat form
Ġhab ersiz
ĠBolÅŁev ikler
ĠFir st
Ġintikam Ä±nÄ±
Ġusul Ã¼
ĠHann ibal
onc Ã©
E sk
H S
h or
er y
Ã§ ilerinin
ul li
ĠS alt
Ġp agan
iz ona
Ã¼z Ã¼n
Ġr ektÃ¶r
ĠF ev
ĠY Ã¼ce
ac Ä±n
Ġkur mayÄ±
Ġilk eleri
leÅŁ menin
Ġgir mesini
ĠtÃ¼r Ã¼nden
Ġter imini
Ġtur una
ĠgÃ¶rÃ¼n mez
Ġenerj ili
Ġiler ley
ĠsaldÄ±rÄ± lara
ĠyÄ±k an
Ġaday lÄ±k
ĠVal iliÄŁi
ĠMor ris
Ġsap t
ĠdaÄŁÄ±t Ä±ldÄ±
ĠstÃ¼d y
Ġab on
Ġtank larÄ±
ĠsÃ¶zc Ã¼sÃ¼
omo tif
Ġsip er
Ġmac era
ĠGran t
ĠÃĩiÃ§ ek
ĠShi eld
H ristiyan
r ing
Ġd iyet
Ġg Ä±d
ay e
ler arasÄ±
ev o
Ġson uncu
ĠC Ã¼n
ĠC all
os un
ĠdÃ¶n dÃ¼ÄŁÃ¼
ĠAr g
ĠyÃ¼k len
ĠtakÄ±m Ä±ndan
Ġdil le
Ġdiz el
Ġart masÄ±na
Ġhareket siz
ill on
laÅŁtÄ±r dÄ±
ĠÅŁey lerin
Ġsar ayÄ±n
lenir ken
Ġturn eye
Ġkurum un
ĠÃ§atÄ±ÅŁ mada
ĠkÄ±zÄ± dÄ±r
ĠCol lins
ĠadÄ±m lar
Ġtuz lu
ĠÃĸÄŁr etim
ĠMekt eb
ĠÃ¶t esine
ĠborÃ§ lu
Yak laÅŁÄ±k
Ġrep ert
okim ya
J ean
K lasik
h ad
ĠS co
ĠÅŁ unu
Ġn eler
Ġn ikÃ¢h
tan e
Ġyay la
ĠEn ternasyonal
ĠHal it
Ġtel siz
Ġrol ler
ĠseÃ§im lerin
Ãĩ eÅŁitli
Ġteor ileri
ĠÅŁehr indeki
Ġhes aba
Ġ187 9
Ġ188 4
lÃ¢ k
ĠYer ine
ĠayrÄ±l ma
Ġdalg alarÄ±n
Ġuygulama da
ĠSol omon
Ġkaybol ur
Ġsoru lar
Ġhis se
H T
R O
t av
ÅŁ Ã§ev
ĠS ingle
iÅŁ lem
alar dÄ±r
Ġan Ä±lmÄ±ÅŁtÄ±r
ut y
lu de
Ġver mesini
uk ar
ĠV ur
ĠiÅŁ lerinde
ĠgÃ¼n delik
ĠOr lando
Ã¼ÅŁt e
Ġmet raj
ĠhÄ±z a
Ġail eye
ĠyazÄ± labilir
Ġmotor un
Ġsey rek
Ġkavram sal
ĠkÄ± lavuz
ĠMon te
Ġbomb al
Ġpsik olog
ĠYaz Ä±lÄ±m
ĠAÄŁ rÄ±
Ġmit olojik
ĠBÃ¶lg enin
ĠJul ius
ĠgÃ¼Ã§lendir mek
ĠpeÅŁ inde
ĠtecrÃ¼b e
ĠÅŁeri di
ĠTac ik
H ey
L ou
Ġ umu
Ġt Ã¼b
ĠT Ä±b
ti g
Ġyer lerden
Ġin d
laÅŁ Ä±m
ĠÃĩ oÄŁunlukla
Ġ4 000
Ġsay Ä±lmaktadÄ±r
ĠZ iy
ĠtaÅŁ Ä±y
Ġer tel
Ġpol inom
ĠÅŁehir dir
Ġkarak ol
Ġtoplum unun
ĠmÃ¼cadel ede
Ġgirdi ÄŁinde
Ġkamp Ä±
ĠEd ition
Ġbes lenen
ĠRum lar
Ġ187 5
ĠyaptÄ±r Ä±lan
Ġgide cek
BeÅŁ iktaÅŁ
ĠTug ay
ĠLey la
L ife
N O
c alÄ±
as er
ro y
Ġbel gesi
ĠZ im
Ġer en
Ġtah rib
Ġbur ayÄ±
sil ya
ĠHar it
okr asi
ĠÃ§ift inin
Ġkavram lar
ĠcanlÄ± lar
ĠkulÃ¼p leri
Ġderin liÄŁi
ĠGo ethe
ĠÃĩaÄŁ atay
Ġegemen liÄŁini
Ġvaz if
Ġmahall esinde
abilecek leri
ĠsÃ¶zcÃ¼ ÄŁÃ¼nÃ¼n
ĠAj ax
ĠyansÄ± tÄ±r
ĠKK TC
A g
A lex
C al
ek in
ed erek
ĠS la
ĠK ov
Ġil in
ĠD y
ĠH ig
ĠÅŁ ut
ĠJ ournal
Ġort asÄ±na
Ġden eyi
Ġhak sÄ±z
ĠaÃ§Ä±k lÄ±k
Ġaz iz
ĠanlaÅŁ Ä±lmÄ±ÅŁtÄ±r
ĠÃ¶lÃ¼m Ã¼nÃ¼
ĠÃ¶lÃ§ Ã¼len
Ġail ede
ĠsÄ±nÄ±f Ä±nda
ĠeleÅŁtir ilere
Ġiht iyat
ĠÄ±s lah
apol is
ĠeleÅŁtirmen lerden
ĠAnton ius
ĠMuk ad
Ġetek lerinde
ĠDic le
M O
Y ol
f iki
g ibi
l Ã¼l
p in
Î ¯
Ġt ug
ul ma
us por
ig e
art manÄ±
19 17
re w
Ġtamam Ä±nda
ĠÃ§evr eye
ĠÃ§iz di
Ġbitir miÅŁtir
Ã¼le cek
ĠBas k
ĠbakÄ±m Ä±
Ġkapsam da
Ġtutuk lan
Ġkural lara
ĠYaÅŁ lÄ±
ĠbaÅŁla tan
Ġdey im
Ġvurg ul
ĠPres s
Kul lan
Ġibaret tir
Ġmemlek eti
ĠIsa ac
Y en
m inci
Ġs tad
ĠB ron
ĠC afer
ĠL op
Ġkap lama
Ġdurum dur
Ġim ar
ĠTop Ã§u
Ġkonu ya
amak ta
Ġiddi alar
Ġkoy uldu
ĠPart inin
ĠgÃ¼ney deki
ĠÃ§arp Ä±cÄ±
Ġturn esi
Ġko ÅŁt
Ar navut
Ġpuan lar
Ġturnuv asÄ±
Ġhis si
Ġuygul ayan
Ġul tr
Ġgey ik
Mill Ã®
ĠEÄŁit imi
ĠTÃ¼rb esi
A A
ar ov
ĠB ach
ol it
ĠyÄ±l dÄ±rÄ±m
ĠgeÃ§ miÅŁti
ĠU K
Ġhar aÃ§
ag at
ĠÄ°n ce
ĠalbÃ¼m Ã¼ndeki
Ġkom bine
ĠÃ¶r tÃ¼
Ġter imleri
Ġduy gusu
ĠyakÄ±n lÄ±ÄŁÄ±
Ġhalk lar
Ġform unda
ĠyarÄ±ÅŁ an
Ġman ip
ĠkuÅŁ larÄ±n
ĠKÃ¶ ÅŁ
ĠÄ±r mak
Ġarab ir
ĠBor Ã§
195 5
Ġfos for
ĠCla ude
Ġsig orta
Ġenstr Ã¼m
Ġtuv alet
ĠDimit ri
m or
en o
lar c
ĠK ok
ĠT itan
ĠD etroit
ĠÄ° TÃľ
ĠE lem
ĠR ang
Ġan layan
Ġgel mesine
Ġyer le
Ġon da
ĠÃĩ ol
Ġtek el
ĠdÃ¼ÅŁ mesine
ĠeÄŁ ri
ĠdeÄŁiÅŁ imler
ĠseÃ§im lerine
ĠsÄ±nÄ±f Ä±n
ĠÅŁampiyon luÄŁa
ĠalbÃ¼mÃ¼ dÃ¼r
Ġelem eleri
ĠkÃ¶k leri
Ġbal ina
ĠMe x
ĠyaptÄ±r dÄ±
ĠbÃ¶lÃ¼n mÃ¼ÅŁtÃ¼r
ĠÅŁah sen
ĠBank s
Ġdam la
ĠPrens liÄŁi
ĠLor en
Ġtrop ikal
H F
S adece
g arp
Ġy eÅŁ
es k
ĠK iss
ĠH erkes
ĠG elen
ĠE jder
us un
us sia
Ġor adaki
lam alarÄ±nÄ±
ĠiÅŁ leyiÅŁ
ĠBir bir
ĠgÃ¶rev l
ĠhazÄ±r lamÄ±ÅŁtÄ±r
ĠBr ah
ĠadlandÄ±r Ä±lmaktadÄ±r
Ġboz uldu
Ġlig den
ĠCo le
dal ga
Ġkaydet tiÄŁi
ĠaÄŁaÃ§ lar
ĠgÃ¼r Ã¼lt
ĠtanÄ±k lÄ±k
ĠkarÅŁÄ±l ay
ĠIndi ana
Ġloj istik
F e
b azÄ±
Ä Ĺ
il asyon
Ã¼n ikasyon
ev iler
Ã¼k Ã¼rt
ĠY uki
mÄ± yordu
Ġgir mesine
Ġolduk larÄ±ndan
ĠsonuÃ§ lanmÄ±ÅŁtÄ±r
ĠLe ipzig
Ġyazar larÄ±ndan
Ġmodel in
ĠHol mes
Ġst atik
Ġuygulan dÄ±
Ġmer cek
Ġseslendir miÅŁtir
ĠDemir spor
mon t
Ġprens ib
aff e
ĠyayÄ±nlan dÄ±ktan
ĠÅŁÃ¼ph elen
Ġsel am
ĠÅŀeri a
ĠSant os
ĠZer dÃ¼ÅŁt
Ġyah ut
C em
O per
c ra
Ġp ant
ĠO ver
ic z
laÅŁ manÄ±n
Ġev lenmiÅŁ
lardan dÄ±r
ĠgeÃ§ir ilmiÅŁtir
Ġbilim in
Ġkonu daki
ĠbaÄŁlan ma
Ġuygulam alÄ±
Ġolab ildi
Ġkurtar dÄ±
Ġfutbolcu lar
Ġkanun la
Ġnesn eleri
ĠWar ren
ĠkazÄ± lar
ĠFÄ±r kasÄ±
ĠtÄ±b b
Ġteker lek
ĠJeff erson
ĠNiz am
riyat ik
Trab zon
E b
G N
R ich
m ud
de dir
ĠG P
ĠP ow
ĠP ant
ef t
Ġek im
Ġsay Ä±mÄ±
Ġtut ma
ĠparÃ§ alara
Ġekonom inin
ĠÃ§iz gileri
ĠyÃ¶ntem le
ĠTek in
Ġ187 2
ĠGeor g
Ġfonksiyon el
Ġtank savar
ĠTa o
ĠLib er
ĠStan ley
Ġavantaj Ä±
ĠSiri us
ĠAca demy
B Ä°
O p
c Ã¼sÃ¼
l ok
la tÄ±cÄ±
ĠT ez
ĠD uvar
av iye
ĠY av
Ġbulun up
Ġkullan Ä±lÄ±yor
Ġin di
ĠAn Ä±tÄ±
Åŀ ehrin
ep pe
Ġetk isine
Ġtamam lay
dÃ¼l Ã¼s
ard ak
ĠOy unu
ĠBur g
ĠyÃ¶netim in
ĠÃ¼niversit esi
ĠgÃ¶l Ã¼n
Ġilerlem esi
Ġgezegen lerin
ĠÃĩalÄ±ÅŁ malarÄ±
ĠÄ±lÄ±m lÄ±
ĠdoÄŁrultu da
P ap
T ah
c Ä±nÄ±
al ia
ul um
Ġf Ä±ndÄ±k
ti e
ĠO hio
Ġgel mek
ĠV or
eyi ÄŁi
Ġgetir me
Ġkayn aÄŁÄ±nÄ±n
ĠbaÄŁlÄ± ydÄ±
ĠSt uttgart
ĠOy unda
ĠSh a
Ġtoprak larÄ±ndan
Ġfaaliyet lerinin
ĠbaÅŁlat mÄ±ÅŁtÄ±r
ĠMon ey
ĠtanÄ±t mak
ĠkatÄ±lÄ±m cÄ±lar
Ġbasit Ã§e
ĠiÃ§erik li
ĠÃĸnc eleri
Ġyal Ä±n
Ġkade me
ĠkasÄ±t lÄ±
M ev
Ġs a
ĠB ret
ĠK aw
Ġal Ä±nacak
ilm emiÅŁtir
ĠO zan
Ġver ilere
sel ona
if i
Ġak varyum
ĠEr dem
ĠdÃ¼zen e
ĠBaÅŁ lÄ±ca
Ġsen atÃ¶r
Ġkuvvet in
Ġoper asyonu
ĠaraÅŁtÄ±rma da
enn ifer
Ġsp in
Ġazal mÄ±ÅŁtÄ±r
ĠgÃ¶l ge
ĠkÃ¶kenli dir
ĠeÄŁilim indedir
odi ce
Ġayn en
Ġsaltan atÄ±
Ġuygula manÄ±n
ĠiÅŁtir ak
D aÄŁ
Y ay
b Ã¼s
j ener
Ġd if
da h
is yeni
ĠM arat
az girt
Ġp rensi
ĠR Ä±
ĠR iz
ĠN ietzsche
Ġden ilir
tr ell
Ġev ini
ĠiÃ§er ebilir
ĠoluÅŁtur uyordu
ĠTek irdaÄŁ
kar y
Ã¡ s
Ġduyur muÅŁtur
Ġip uÃ§
ĠtanrÄ± lar
ĠRo us
ĠsÃ¼rÃ¼m Ã¼nÃ¼
Ġeseri dir
BÃ¶l g
ĠDÃ¼ÅŁ Ã¼k
ĠMans on
ĠEvren sel
Ġantib iyotik
Ġ Ä±lÄ±k
in iz
Ġs per
den burg
ĠP omp
ĠP tol
ĠR at
ĠI M
ĠI tal
ayan a
ĠW ater
ĠAr ka
Ġat asÄ±
Ġes rar
Ġist ekleri
Ä±y orum
yan t
Ġmerkez Ã®
Ġola caÄŁÄ±na
ĠayrÄ± ÅŁtÄ±r
ĠkaldÄ±r ma
Ġdok uma
ĠÃ¶ÄŁrenc ilerinin
ĠTer Ã¶r
Ġmadal yasÄ±
ĠErmen ilerin
Ġsur larÄ±
Ġkilis eye
we ight
Ġtez ini
ĠChan nel
Ġgerekti ÄŁinde
Az iz
Ġprestij li
U r
c ed
Å Ħ
er r
Ġs iz
ĠM Ã¼ÅŁ
Ġf rag
ĠD ion
ĠD rama
Ä° b
ĠH ekim
ĠC ru
Ġgel dikten
ru g
ĠgeÃ§ me
ĠW ehrmacht
Ġvar Ä±r
Ġort alarÄ±ndan
id ye
Ġhar ab
Ġfilm iyle
ĠÃ§eÅŁit liliÄŁi
Ġkaynak larÄ±ndan
ĠeÄŁitim in
Ġdir enc
Ġgazet ede
Ġsebeb iyet
ĠTur u
Ġistem ez
ĠSch um
ĠÐ ¡
Ġetkili dir
ĠGeor gia
193 6
Oy uncu
ĠdolaÅŁ Ä±m
Ġkalit esini
Ġtopr aÄŁÄ±n
Ġbahsed ilir
dans atÃ¶r
ĠHawai i
> *
K ent
S iyas
d iya
g Ã¶rÃ¼
k Ã¼ltÃ¼r
il yon
ay dÄ±n
ĠS is
ap s
Ġal etleri
ist o
os is
ĠL azar
Ġad dÄ±r
ĠAr alarÄ±nda
adÄ± yla
19 19
Ġort ama
Ġam bar
ĠÃ¼y elerin
Ġbilg isini
bi an
Ġbirbir lerinin
ĠbiÃ§im li
Ġziyaret Ã§i
Ġbiy ograf
ĠsÃ¶zcÃ¼ ÄŁÃ¼nden
ĠTiyatro larÄ±
Ġbestel edi
ĠsÄ±kÄ±ntÄ± lar
ĠSok aÄŁÄ±
ĠsÃ¼n net
Ġfas ul
ĠMarksiz m
N az
S es
c it
m erkez
Ġs ulu
ĠÅŁ ak
ĠG ey
Ġkar tal
man lar
ĠiÅŁ Ã§ileri
san Ä±z
Ġek lenmesi
han t
landÄ± ÄŁÄ±nda
ĠAk ka
Ã§Ä± larÄ±
Ġhayat larÄ±nÄ±
ĠHal dun
ĠSan cak
ĠBel li
ĠayrÄ± labilir
ĠMah alli
ĠHol okost
ĠdoÄŁr uluk
ĠsatÄ±ÅŁ larÄ±
osk op
ĠTim ber
Ġ186 5
ĠSah il
ĠaÃ§Ä±l Ä±ÅŁÄ±
ĠTro Ã§
ĠHÄ±z lÄ±
ĠHic az
Ġbonser vis
ĠmÃ¼tte fiki
b eÅŁ
as et
Ġil anÄ±
ĠG izli
ĠY Ã¼cel
os ya
ĠÃ§Ä±k masÄ±yla
ĠV andal
ĠV egas
ĠAl li
ĠW agner
ĠAr e
re at
ob ik
Ġsal gÄ±
Ġtah tÄ±
ĠtanÄ±m lanmaktadÄ±r
Ġdevr imi
Ġruh unu
ĠdÃ¼ÅŁÃ¼r Ã¼ldÃ¼
ĠkÃ¶ÅŁ k
ĠYardÄ±m cÄ±lÄ±ÄŁÄ±
ĠsÃ¼s lÃ¼
Pro fes
ĠÃĩÄ±k ar
ĠanlatÄ± yor
ĠÄ°ktis adi
ĠBroad way
ĠTAR DIS
I l
W al
un masÄ±
Ġm am
af e
ĠP u
ĠN Ã¶
ĠdeÄŁ irmen
ĠW a
ili an
oz or
ĠAy n
ĠÃ§Ä±kar Ä±lmÄ±ÅŁ
ĠuÃ§ ur
Ġgem ilerine
Ġbenzer likler
Ġhav alandÄ±r
Ġhayvan Ä±n
Ġilet iÅŁimi
ĠÃ¶rgÃ¼t leri
Ġ188 3
ier ra
Ġyakal amak
ĠbaskÄ± lar
eliÄŁ e
Ġkabil eler
ĠMag gie
Ġokum aya
Ġbank acÄ±lÄ±k
Ãĸr nek
ĠDam at
ĠGeliÅŁtir me
Ġtey it
R oy
Ġy Ã¼n
ik atÄ±
Ġh ic
le b
ol et
Ġal em
av atan
ĠsÃ¼r Ã¼n
Ġel f
ĠgÃ¶ster iyordu
Ġedilm ekte
ĠZ Ä±rh
Ġtamam lamak
Ġer zak
Ġhast alar
gen el
ĠMich a
Ġeyalet in
Ġderec eden
Ġetkilen miÅŁ
Ġkamu ya
ĠKam il
ail y
ĠÄ°k isi
ĠWh edon
ĠMol la
E V
Ã ¦
al it
Ä±l Ä±ÅŁÄ±
ol in
ĠÄ° y
Ġyap madan
Ġan onim
ĠL ik
ĠL Ã©
ĠÃ§Ä±k Ä±ntÄ±
iyet le
uy an
tr en
Ġl okal
ece ÄŁine
ĠanlaÅŁ mayÄ±
Ġgem iyi
ĠMil yon
ĠgÃ¶zlem lenmiÅŁtir
ĠyÃ¶r ede
ĠKaz Ä±m
ĠbaÄŁlantÄ± lar
Ġsembol ize
Ġez eli
ledik ten
ĠpeÅŁ inden
Ġlev ha
Ġinanc Ä±na
ĠkullanÄ±ÅŁ lÄ±
ihaz Ä±rda
Ġmoza ik
C hi
D Ä±ÅŁ
Ġb asÄ±nda
il is
Ġk Ã¶rfez
ak an
as y
ĠS trat
ĠD ayan
ab ilim
ĠG PS
ĠF BI
ĠR av
ĠR iv
ĠN elson
Ġel ma
ĠgeÃ§ ecek
ot rop
ĠW he
ef on
ĠsaÄŁ a
Ġkan aat
Ġbelirt iler
laÅŁtÄ±r mak
ĠÅŁekl iyle
rom well
ĠTan r
ĠkuruluÅŁ unda
ĠkuÅŁat mayÄ±
Ġrap Ã§i
ĠkullanÄ±cÄ± ya
ĠkÃ¶k ten
Ġham il
Ġaraz inin
ele ÅŁtir
ĠYaz arlar
ĠRon aldo
ĠaÄŁab ey
ĠKonf ederasyon
ĠBlo od
Ġumu du
D ie
M ek
V ar
un tain
Ä±r t
ĠP ert
ĠY Ä±lÄ±
ĠN ad
Ã¼ÅŁ Ã¼
Ġyay Ä±lÄ±r
Ġgir meden
Ġoyun larda
Ġmet rik
Ġilan Ä±ndan
str at
ĠFer mi
Ġta ahh
mon ik
Ġdurdur du
Ġvir al
ĠMir asÄ±
Ġbeste cisi
ĠpadiÅŁah Ä±
Ġlit re
ĠKahraman maraÅŁ
B ob
G r
H at
k iler
u at
w agen
Ù ĥ
ÄŁ un
ĠB ri
ĠS T
ĠD ick
ĠC art
Ġyar ayan
Ġgen erali
ch el
Ġ18 30
han g
Ġaz a
Ġordu da
ĠhazÄ±r layan
fa a
Ġlider liÄŁini
ĠyÃ¶r esinde
ĠartÄ±r dÄ±
ĠyaptÄ±r Ä±lmÄ±ÅŁtÄ±r
194 2
Ġ186 9
Ġedin di
Ġuzman lar
Ġhapis hane
Ġplak a
ĠakÄ±ÅŁ Ä±nÄ±
ĠRomalÄ± larÄ±n
ĠyÃ¼ks elerek
ĠDÃ¼n yasÄ±
Ġlan et
ĠSid ney
ĠCum artesi
Ġtit iz
ĠGust av
ĠMÃ¼st eÅŁ
K art
v Ä±
Ġ azÄ±
ar u
Ġg ard
Ġve f
on k
Ġm otosiklet
ĠE arth
ci us
Ġad alar
ĠbaÄŁ lama
19 27
ĠyÃ¼z Ã¼nÃ¼
ĠdiÄŁer lerinden
ĠeÄŁ imli
Ġdevlet lerinin
ĠAk ÅŁam
ud o
ĠkÄ±z dÄ±r
Ġhalk larÄ±nÄ±n
ĠyayÄ±m lamÄ±ÅŁtÄ±r
Ġola c
Ġmilyon u
ĠdÃ¶rt lÃ¼
ĠkonuÅŁ mada
ĠkonuÅŁ masÄ±nda
th ers
ĠDeniz lispor
Ġre isi
avi er
ĠKuvvet ler
ĠiÅŁlev ini
ĠdÃ¼zenlem eye
ĠMel ek
Ġmetin ler
ĠbÃ¼ny esine
Ġfi ili
ĠmÃ¼rette batÄ±
ĠIS O
Ġmuhtemel dir
Ġtemsilc isini
Ġsahib inin
Ġeroz yon
L u
S O
f al
Ġs ola
Ä±l gan
Ã¼n un
ĠD eri
st al
ĠH IV
alar arasÄ±
ro d
Ġkon du
ĠI ron
ĠyÃ¶n Ã¼yle
ĠdÃ¼ÅŁ erek
ran Ä±n
ĠÃľ z
Ġboy lu
ĠsÃ¶y led
acak larÄ±
ĠÅŁarkÄ± lardan
ĠÃ¶ldÃ¼r dÃ¼ÄŁÃ¼
ĠsonuÃ§ suz
Ġsiyas ete
ĠEl li
Ġpart isinin
ĠkatkÄ± lar
Ġderec eli
Ġsit esinden
Ġtat b
ĠartÄ±r Ä±r
ĠtanrÄ± larÄ±n
Ġuzman lÄ±k
ĠCev det
ĠHap is
ĠYargÄ± tay
D H
S SC
c ili
Â ·
Î ¬
am at
ĠS ov
ĠS endik
Ġal dÄ±r
ĠH unt
Ġson unu
Ġtar tÄ±
ĠC ahit
Ġgel git
ĠalÄ±n masÄ±nÄ±
ĠGen ce
Ġdestek Ã§isi
Ġfinal ine
Ġbak arak
Ġkonu lara
ĠÃ¶dÃ¼l lÃ¼
Ġlig inde
ĠaraÃ§ larÄ±nÄ±n
ĠyerleÅŁtir ilir
ĠKÃ¶ se
ĠdÃ¼ÅŁÃ¼r dÃ¼
Ġ186 6
Ġsaray da
ĠWal ker
ĠMih ver
Ġcem iyet
Ġhatt Ä±nÄ±
ĠOb ama
Ġcisim lerin
Ã± a
ĠTip ik
Ġtort u
haus en
ĠkÄ±zkardeÅŁ i
ĠErc iyes
J ac
K ab
h on
k ey
t Ã¼k
Ġb r
Ġb izi
dan a
Ġf aÅŁist
ab ey
ĠP ey
ĠP eh
ĠC oÄŁrafya
ĠN og
Ġtop lanmÄ±ÅŁtÄ±r
19 12
Ġkap lan
ĠZ eytin
ĠCh o
ĠhÃ¼k met
ĠyaÅŁam akta
Ġfor um
ĠhÃ¼c uma
Ġgal er
ĠbaÅŁlam asÄ±na
ĠSanat Ã§Ä±sÄ±
ĠMur phy
ĠGr iff
ĠkullanÄ±ldÄ± ÄŁÄ±nÄ±
Ðµ Ð½
mo uth
Ġvir Ã¼sÃ¼
Ġmakal esi
Ġharf leri
Ġfrek ansÄ±
ĠSad dam
Ġsoruml uluÄŁu
Ġmekaniz ma
Ġmecl iste
Ġpaz arÄ±
ĠNich olas
ĠDumb ledore
ĠNakam ura
. âĢĻ
G ar
Ġb ilerek
ak ov
Ġp unk
Ġf iber
Ġar it
ĠL ois
ĠN ed
Ġad larÄ±nÄ±
Ġbil iÅŁim
Ġtamam lanmasÄ±
ĠyapÄ± lacaÄŁÄ±
ĠyardÄ±m cÄ±lÄ±ÄŁÄ±
ĠiliÅŁk ilerinin
Ġbah Ã§esi
ĠFer it
ĠfotoÄŁraf Ä±
ĠGir iÅŁ
ĠTak ah
ĠtanrÄ± Ã§
ĠKÄ±brÄ±s lÄ±
ĠyÃ¶netic iler
ĠEmir i
Ġarke olog
ĠShe amus
ĠHog warts
D eÄŁ
H itler
L es
O nun
c ik
f ir
ik ip
ol l
Ġal etler
Ġar anan
inin in
ĠgÃ¶r dÃ¼kleri
Ġver eceÄŁini
Ġkullan Ä±rken
ĠBir mingham
Ġek leyerek
Ġam blem
ĠZ h
ĠgÃ¶rÃ¼n Ã¼yor
Ġkontrol lÃ¼
ĠdÃ¼ÅŁÃ¼nc esini
Ġday anÄ±yordu
Ġbest esi
ĠMes ut
ĠKÃ¼ltÃ¼r Ã¼
kol itik
ileb ilmektedir
ĠkazandÄ±r an
ĠmolekÃ¼l ler
ĠEsk imo
ĠbasÄ±nÃ§ lÄ±
ĠTev rat
ĠyarÄ±Ã§ ap
Ġspek Ã¼lasyon
ĠBaud ouin
F izik
S imp
m iyan
Ġp es
ĠP iet
ĠF onu
ĠL loyd
ig en
Ġbil diÄŁi
Ġyar as
Ġyak asÄ±nda
ĠyÃ¼k leme
Ġmet am
Ġkr ipt
ĠgÃ¼ney den
ĠÅŁirket e
Ġvur ur
ĠÃ¼niversit eler
ĠMich igan
Ġelektron larÄ±n
ĠaÅŁam asÄ±na
ĠJos e
Ġarab ulu
194 7
ĠkÃ¼tl eli
ĠsÄ±f atÄ±yla
ĠDiv ision
ĠKent in
Ġyoksul luk
ĠkÄ±lÄ± cÄ±
ĠJohan nes
Ġduv arlar
Ġgarniz on
ĠClin ton
K O
U l
y Ã¶n
Ġm istik
ĠS ed
iz y
ok uz
Ġr ib
ĠF ant
ĠV atan
ĠI sparta
ĠbÃ¶l Ã¼k
od ur
ĠZ a
ĠmÃ¼z akere
ĠÃĸz al
lo ok
ĠyarÄ±ÅŁ malarÄ±
Ġtak dim
Ġgiy meye
Ġhan Ä±m
Ġanlat Ä±ldÄ±ÄŁÄ±
Ġsorun larÄ±nÄ±
Ġgez gin
ĠKit abÄ±n
ĠGr aham
ĠMem lÃ¼k
ĠDaÄŁÄ± stan
BaÅŁ langÄ±Ã§ta
Ġkaybol du
ĠÃ¼retic ileri
ĠoÄŁl una
ĠbÃ¶lgeler deki
ĠRobin son
ĠMaz da
ĠkeÃ§ i
Ġsir k
Ġeng eb
ĠÃ¼m it
ĠÃĸk lid
Diz inin
ĠBis marck
f alt
m Ã¼n
m ore
Ġ Ã¼ne
ÅŁ en
ĠD mit
ĠP amuk
Ġan ime
ĠJ ung
ĠW ork
ĠyÃ¶net miÅŁtir
", "
si ca
ĠdeÄŁiÅŁ miÅŁtir
Ġbin aya
Ġgit tiÄŁini
Ġede medi
ĠyÃ¼ksel miÅŁ
ĠgiriÅŁ inde
Ġtoplam aya
Ġiler let
ĠgÃ¶Ã§ Ã¼
Ġbildir en
ĠBay kal
ĠTur ner
ĠfotoÄŁraf lar
ĠbirleÅŁtir erek
amadÄ± lar
ĠyayÄ±nladÄ± lar
ĠNaz Ä±rÄ±
Ġevlen mek
Ġprotest ocu
ĠÃ§izg iler
ĠNas reddin
ĠyargÄ±lan dÄ±
ĠBlu etooth
ĠDub ai
ĠRud olf
Ġadap te
ĠTheodos ius
! !
H ip
ler a
at us
iy ken
ĠS orum
ĠS adÄ±k
ĠF ire
ĠF lash
Ã¶n land
lik lerini
ro ck
Ġkal mÄ±ÅŁlardÄ±r
Ã¼t me
Ġkay makam
ĠalbÃ¼m Ã¼yle
ĠkÄ±z lar
ĠÃ¶dÃ¼l leri
Ġsahn elendi
Ġsem p
Ġkamp Ã¼s
ĠKr as
Ġ187 4
ĠCol or
Ġorman lar
Ġbuldu ÄŁunu
194 9
Ġisten meyen
Ġyeterli dir
ĠkarÄ±ÅŁtÄ±r Ä±lm
Ġolmay acaÄŁÄ±nÄ±
Ġsaptan mÄ±ÅŁtÄ±r
Ġiktis at
ĠÃ¼nif or
B in
D Ã¼z
P e
S T
W W
b eli
k Ã¢
ar it
Ġf eda
Ã¼m s
Ġgel dikleri
Ġder inden
Ġfark la
Ġdurum daki
Ã§Ä± larÄ±n
Ġrol leri
ĠThe atre
alt Ä±nda
Ġkoy maktadÄ±r
res yon
Ġlis ansÄ±
ĠSin can
ĠkulÃ¼b e
ĠOt omobil
rit ic
ĠÃ§aÄŁr Ä±lan
Ġnitelik li
ĠÃľst Ã¼n
Ġprotokol Ã¼
Ġfet hi
ĠeÅŁy alar
ĠUm ut
Ġistis mar
ĠgÃ¼v er
M Hz
S te
Õ ¡
Ġ ÂłĊ
il em
ĠA L
ĠK Ã¶r
ĠM VP
Ġf are
Ä° sk
ĠP usu
ot on
19 14
Ġden mektedir
Ġkend inin
ĠKar bon
ĠMar silya
ĠyakÄ±n lÄ±k
Ġsanat lar
ĠSan ti
ĠaraÅŁtÄ±r mak
alt h
Ġkontr at
Ġeki bin
Ġengel ledi
ick s
Ġkelim eleri
ĠTer ry
Ġ187 3
Ġseslendir me
ĠBrez ilyalÄ±
Ġfiyat larÄ±
ĠFu arÄ±
ĠFre ud
ĠsÃ¶n dÃ¼r
ĠteÅŁh isi
Rol ling
Ġinis iyat
ĠFoot ball
B arb
H indistan
Ġp ed
Ġar Ä±ndÄ±r
ĠG as
av irÃ¼s
dir en
Ġad la
ĠW it
Ġkay ma
ĠÃ§ek ilerek
ĠaÄŁ larÄ±
ĠÅŁarkÄ± dan
ĠBey azÄ±t
son lar
las tÄ±
ĠulaÅŁ Ä±mÄ±
ĠKan g
Ġekonom isine
ĠadlandÄ±r dÄ±
ĠAd riyatik
Ġperformans la
Ġiy ilik
ĠÃ§Ä±kardÄ± lar
Ġyetk ileri
ĠEmir likleri
ĠTah ir
liliÄŁ in
ĠfigÃ¼r Ã¼
ĠBit lis
ĠGÃ¼Ã§ lÃ¼
Ġrakib ine
ĠMedi ci
afkas ya
Ġ ur
Ġb ro
Ġd Ã¶l
Ä±k lÄ±k
Ġf ac
ĠG T
ĠG Ã¼z
ti co
ĠC he
Ä±z Ä±
Ġkon unun
ĠÃ§Ä±k madan
ĠW is
Ġat ak
ĠbÃ¶lg edir
Ġev lerin
Ġdevam Ä±nda
gan g
ĠeÄŁit men
ĠsÄ±k Ä±ntÄ±sÄ±
ĠiliÅŁk inin
Ġmilyon a
Ġman g
Ġinan Ä±lmaktadÄ±r
ĠyÃ¶ntem ini
Ġkorum uÅŁtur
Ġistem eyen
Ġmut asyon
Ġkaf asÄ±na
Ġyakal ay
Ġab lasÄ±
ĠMes ud
ĠOyuncu lar
ĠBerk eley
ĠÄ±sÄ±t ma
ĠPak tÄ±
r ation
in os
ir ik
am Ä±n
du t
st Ä±r
Ġar e
ĠF am
Ġan ma
ĠÅŀ ehr
Ġtarih teki
Ġtop larÄ±
ĠW ord
Ġyeni Ã§er
ĠÅŁekil li
ĠsavaÅŁ larda
ill es
ĠbÄ±rak mÄ±ÅŁ
ĠyÃ¼ksel mek
ĠbaÅŁkan larÄ±
ĠkullanÄ±lÄ±r lar
ĠSur vivor
Ġbat er
ĠMad en
ĠtanÄ± ÅŁtÄ±r
ĠaraÅŁtÄ±rmalar a
ĠAraÅŁtÄ±r malar
El ektrik
NE T
stad t
Lat ince
Ġdedik odu
ĠNiÄŁ de
larc eti
K er
S ad
w al
Ġp iyad
iz ade
Ġar Ä±z
ĠP am
ĠR al
uk u
ĠyÃ¶n leri
Ġetm em
Ġa gresif
Ġtam pon
Ġgelen leri
Ġayak larÄ±
Ġindir g
ĠdÃ¼zenlem esi
ĠTakÄ±m Ä±n
Ġreform lar
Ġastr on
ĠseÃ§en ekleri
Ġanti jen
ĠbaÅŁk omut
ĠbahÃ§ esinde
Tem el
Ġgergin lik
ĠÅŀek er
ĠTrablus garp
Ġkatsay Ä±sÄ±
H Ä±r
c uluÄŁu
Å Ľ
Ġk ek
Ġk ayan
Ġs us
ur on
ĠF ed
ta da
Ġad larÄ±yla
anÄ± ÅŁtay
iyet inde
Ġat mak
men d
Ġpar lamenter
Ġak abinde
Ġalt mÄ±ÅŁ
ob e
ĠalÄ±n ca
ĠgÃ¶rÃ¼l mesi
ĠSt ory
Ġgit tiler
ĠkÃ¶y lerinde
ĠÃ¶lÃ§ Ã¼t
ĠgÃ¶rÃ¼ÅŁ Ã¼ne
ĠsÄ±nÄ±f ta
ĠLe jyon
Bir kaÃ§
Ġit me
Ġdiren iÅŁi
ett y
Ġuzman larÄ±
Ġceph esi
ĠaÃ§Ä±klam asÄ±nda
ĠsÃ¼s pansiyon
Ġpap a
emeye ceÄŁi
Har ry
Ġsos yo
ÂłÂł ÂłÂł
ĠyaÅŁamak taydÄ±
ĠTurnuv asÄ±
B ad
Y avuz
s Ä±nÄ±z
y enin
Ġv el
ĠM ist
ah tar
ey a
di c
ĠT ap
Ġar Ä±t
ĠE sen
ĠC ord
ĠF ut
ĠL eb
ĠN ehir
ic ilik
Ġkayn aÅŁ
ĠÃ§evr esini
ĠdeÄŁi ÅŁt
Ġkuvvet le
ari o
ĠkonuÅŁ masÄ±
ĠÃ§iz el
Ġvur arak
Ġvur ularak
Ġkurum larÄ±n
ĠMer cedes
ĠetkileÅŁ imi
193 4
ĠkÃ¼tl esinin
ĠrÃ¼tb eli
Ġmahal lenin
ĠNev ille
ĠArn old
ĠÅŁa iri
9 00
P lan
W hat
c ore
t aÃ§
Ã Ĥ
al Ä±n
Ä±l g
Ä±l maktaydÄ±
Ġh aham
Ġm aj
ĠC ross
ĠR iley
ac y
ĠN Ã¼rnberg
Ġboy una
Ġkarar Ä±na
ĠtanÄ±m lama
ĠÃ¶ldÃ¼r t
Ġprogram larÄ±nda
ĠKom iser
ha w
ĠÃ§aÄŁ larda
ĠMor rison
Ġbuldu lar
195 1
ĠuzaklÄ±k taki
ĠÃ§atÄ±ÅŁmalar da
ĠTic ari
ĠÄ±ÅŁ Ä±m
ĠTemsil ciler
Ġert elendi
ĠKru ÅŁÃ§ev
r est
Ã§ elik
ĠA ut
ÅŁt eki
ĠK oÅŁ
ĠH orn
ĠE ddie
ĠP iyan
eri e
ĠF ren
ĠR ak
Ġan Ä±ldÄ±
Ġan atom
ĠL ine
ĠL oc
ci di
ĠÃ§Ä±k Ä±yor
ken di
oy v
Ġkat tÄ±
Ä±lÄ±r mak
ĠIn du
ĠSe ul
Ġkemer lerini
ass o
ĠbarÄ±ndÄ±r maktadÄ±r
ĠvarlÄ±k larÄ±nÄ±
Ġkitl esi
ĠCam eron
ĠmÃ¼dahal esi
ĠkÄ±rÄ±k lÄ±ÄŁÄ±na
Yah ud
ĠTeor isi
ĠkarÄ± ÅŁtÄ±
____ ____
Ġmuam ele
ĠSÃ¼v ari
I L
d elen
Ù İ
Ġs alÄ±
Ġh ur
Ġh ort
ĠS now
ĠS atÃ¼rn
Ä±ÅŁ lar
Ġkullan mÄ±ÅŁlardÄ±r
Ġak ut
Ġek lenerek
ĠBaÅŁ sav
ud ret
Ġ16 00
ĠÃ§evr edeki
lin ois
ĠTar Ä±k
ĠtanÄ±n masÄ±
ĠhÃ¼kÃ¼mdar lÄ±k
kÄ±r mÄ±zÄ±
ĠHot el
ĠFu j
ipp i
ĠKem er
Ġelb ise
ĠFred erick
ĠdoÄŁrulan dÄ±
Go ogle
ĠElec tron
ĠGerÃ§ ekten
Ġfav ori
ĠPed ro
C N
l inde
w eb
Ġk ip
ĠB eck
ĠM end
Ġf ib
iÅŁ ler
ĠH om
ĠC az
lik an
ma in
ĠN eg
eb ilmiÅŁtir
uk lar
ĠAr tem
alan masÄ±
Ġmet eor
ĠkÃ¶y den
ĠulaÅŁ Ä±labilir
Ġait ti
ĠMil et
Ġkoy ulur
Ġenerj isinin
Ġmo tiv
Ġtip leri
ĠgerÃ§ekleÅŁ miÅŁ
ian o
Ġetkilen erek
ĠbaÅŁlÄ± yor
ĠLu ft
Ġsent etik
Ġlen s
ĠSci ence
ĠyÄ±ldÃ¶n Ã¼mÃ¼
Ġtekt onik
h iÅŁ
Ã§ uluk
Ġv isk
la deÅŁ
ĠÃ§ Ä±lgÄ±n
ĠÃ§ ikolata
ĠM ete
ti um
eri d
ĠC u
Ġbulun madÄ±
Ġolm amÄ±ÅŁ
ĠtakÄ±m larÄ±nda
ĠaÃ§Ä±k lay
ĠZ o
Ġbin asÄ±nda
Ġ9 1
ĠdeÄŁer lerini
Ġkaynak tan
ĠHar old
Ġpolitik asÄ±nÄ±n
ĠsÃ¶yler ler
ĠDiÄŁer leri
Ġsit eleri
Er tesi
ĠdÃ¼zenlem iÅŁtir
ĠeriÅŁ ilebilir
ĠgÃ¼ncel leme
Ġkarbon dioksit
ĠAndre as
ĠÃ§eÅŁ me
ĠMans ur
Ġmadenc ilik
ĠgÃ¼zerg Ã¢h
ĠMuz affer
B oy
F utbol
f red
k W
y Ã¼k
Ã¼ g
Ġbir inden
ed ilir
ĠS layer
ĠI ÄŁdÄ±r
ĠdoÄŁ anÄ±n
Ġkay ak
Ġuy uml
ĠaÃ§Ä±k larÄ±nda
lat mak
Ġfazla dan
ĠBaÅŁ kent
Ġark ada
Ġanlam sÄ±z
ĠbaÄŁlan masÄ±
ĠMeh di
Ġidar esini
ĠKÄ±r klar
ĠyÃ¶netmen lik
Ġrahat lÄ±kla
ĠyetiÅŁtir ilen
ĠCem aat
ĠÃ§Ä±kart Ä±lan
ĠÃ¶de y
193 5
ĠÎ ±
ĠbastÄ±r mak
Ġdisk alif
Ġsergilen di
ĠCla ire
Ġgecik tir
Ġistil asÄ±
Ġnam lu
ĠFet hi
D om
y ay
ĠÃ§ ete
Ġal am
Ġf ran
st ur
ĠH ok
Ġbu h
Ġas Ä±lÄ±
Ġkaz anÄ±p
Ä±y Ã¶netim
ĠZ i
Ġgrup lardan
ĠBaÅŁ p
Ġart tÄ±ÄŁÄ±
ĠÅŁehir lerin
Ġdin ler
ĠbaÄŁÄ±m lÄ±lÄ±k
ĠarkadaÅŁ larÄ±na
Ġsavun maya
Ġkitap larÄ±n
Ġdikkat leri
ĠkullanÄ±m da
ĠBaÅŁkan lÄ±k
Ġetraf Ä±na
ĠGeor ges
Ð¸ Ñĩ
Ġterim dir
Ãĸz gÃ¼r
Ġbulur lar
ĠÄ±ÅŁ Ä±nÄ±
ĠÃ§eyr eÄŁinde
ĠÅŀÃ¶valy eleri
ĠKaÄŁ anlÄ±ÄŁÄ±
K e
K Ã¼t
m ler
Ġh ain
ĠS eth
ĠS asan
ab ah
ab ilm
ĠN ab
Ġpar alar
Ġkazan masÄ±na
Ġyet in
ĠgÃ¶z en
Ġ10 5
Ġkayb edilen
Ġgazet ecilik
Ġhava alanÄ±
ĠkayÄ±t larÄ±nÄ±
Ġkaps Ã¼l
Ġab isi
Ġaraz iler
ĠÃ§alÄ±ÅŁtÄ±r an
ĠsÄ±ÄŁÄ±n dÄ±
ĠoluÅŁturdu lar
Ġyetersiz liÄŁi
Uz ay
Ġamac Ä±nÄ±
ĠaÄŁz Ä±ndan
nez yum
ĠÃĩarÅŁ amba
ĠKep ler
ĠBoliv ya
H asan
U Ã§
d eler
Ä± ÅŁta
Ã¶ d
ĠM uÅŁ
Ġr evizyon
ĠF eli
ĠR eb
ist ir
iv al
Ġkurul um
ow a
ĠyayÄ±n lanmasÄ±
ĠEn dÃ¼lÃ¼s
ĠBey oncÃ©
ĠÄ°mparator luÄŁun
laÅŁtÄ±r Ä±lmasÄ±
ĠkonuÅŁ maya
ĠarkadaÅŁ lÄ±k
Ġpolitik alar
ĠKÄ±r ÅŁehir
Ġmem eli
Ġroman Ä±nda
Ġsap ma
Ġaks es
ĠBah ar
ĠVol ga
Ġkart larÄ±
Ġduygu larÄ±
ĠCer rah
Ġverim liliÄŁi
ĠLab oratuvar
Ġrejim inin
ĠEyyub iler
Ġfah ri
ĠKarah anlÄ±
Ġveli aht
B i
S I
S istem
T ok
w affe
z am
ÅŁ it
ir lik
ĠB eden
ol ler
aÄŁ Ä±ndaki
Ġn on
ĠF ac
ĠY es
ĠAy han
luk lar
Ġkes ilmiÅŁ
ug ht
ĠNew castle
Ġyat aklarÄ±
áĥ Ŀ
Ġpart izan
ĠDan iÅŁ
Ġsok aÄŁa
Ġtarz Ä±na
ĠÃ§oÄŁ alt
ĠGr ey
ĠÅŁart larda
ĠyazarÄ± dÄ±r
ĠyaptÄ±k larÄ±nÄ±
195 2
ĠanÄ±t sal
ĠanlaÅŁmaz lÄ±klar
Ġzorluk lar
Ġkombin asyon
ĠBÃ¼yÃ¼kel Ã§iliÄŁi
Ġmenaj eri
O P
W est
c raft
Ġs c
Ġol g
Ġm art
Ġal fa
ĠG ang
us en
ĠC urt
ĠC opa
ĠY os
ĠY ezid
Ġc om
ĠAn at
ĠTÃ¼rk lerinin
ĠÃ¶l meden
Ã¼s yon
Ġyan ar
ĠOr da
Ġ9 7
of i
ĠdeÄŁer e
ĠPro v
Ġanlat mÄ±ÅŁtÄ±r
co le
Ġgelenek leri
ĠdÃ¶ndÃ¼ ler
ĠBaÄŁ dad
193 7
ĠDar yl
ĠdoÄŁa Ã¼stÃ¼
Ġzek Ã¢
ĠGil es
ĠBus iness
ĠElen a
B alÄ±k
g inin
l umb
Ï Į
ÅŁ embe
Ġs up
ĠS Ä±nav
ĠT eÄŁmen
iz on
asÄ± f
Ġn as
Ã¢ v
ĠÃĩ im
ĠÃĩ arp
ĠsÄ±r alar
ĠtanÄ±m lamaktadÄ±r
ĠKasÄ±m paÅŁa
ĠSh o
Ġsavun maktadÄ±r
Ġboz ulmasÄ±
ĠEv liya
ĠKÄ±r k
ĠtasarÄ±m larÄ±
Ġteknoloj inin
ĠRobert o
ĠiÃ§eri de
uluÄŁ unda
Ġemr ine
Ġelement lerin
ĠNih at
ĠCast ro
ĠOrdus unun
ĠGuardi an
L o
ĠB andÄ±r
ĠS eg
ĠH oc
ĠO kan
Ġyer Ã§ekim
Ġc odice
ĠÃ§Ä±k acaÄŁÄ±
[...]
